23 FA DB 29 15 DC E8 FD 17 21 42 E2 DA 05 FB EC 04 FE E4 02 DA 16 04 FB 0C 15 EF 4F
29 19 D5 E3 F4 02 FA F4 1F EC 1B A6 02 D9 14 D4 EB D5 D5 0C F3 D6 00 28 06 25 FB 25
1F 1D 08 02 19 D8 16 F9 FE 02 2B E6 D8 F0 22 E7 12 DA D2 E4 18 05 E5 04 1F 03 10 0B

1E E7 01 21 FE AE F2 E2 12 2C 09 01 D3 41 E0 DB E9 17 3B 0B D7 27 33 DC 0E 0A 1C 59
1C 13 18 DE DB CA 24 CF 02 BA D4 EE 0E 1F 12 DA 11 EB 2E 06 05 C6 46 E4 D8 1C 29 36
18 18 06 FC 24 DE 4A CE DF 03 BF EC D8 F4 2A F0 0A E2 23 CB 2C 06 35 E8 E2 E6 21 04

0B E4 E1 07 0F 80 F7 F9 FE 15 DA F8 EF 28 D1 E8 E1 29 2E 08 E6 10 FE E3 15 E1 0E 0C
18 FF FA E5 11 BF FD D6 E2 DF DA EB 1C 03 F4 EF F2 03 1B 0C F1 DD 17 D0 D5 17 14 D7
2D FF F1 0D 2A C2 2A C4 E0 FE CD E8 F4 D7 0D F7 1C 09 08 09 13 0E 2A E5 C8 D2 20 CE


10 F6 02 EA 22 F7 D2 F7 FE 3F 1B E4 D8 26 C2 DF CE 2C E2 11 EB 1E ED 4E BC FE DD C6
2C 15 E9 C9 CD 20 E9 01 28 1E CB BC FC FC D2 F2 CF 40 08 2F EE D0 F9 6D D2 18 00 BE
0F 29 03 DA FB 25 1D 21 16 30 E8 D4 E8 F3 D2 01 B8 39 FE EA 26 06 F0 66 E9 06 21 D1

DB D9 52 FB 04 E6 E8 39 03 18 49 2A 14 30 2A E8 F8 FD 0F 0C D9 4B 14 16 1C E8 DD E4
C7 FD 5F D6 C6 FC 05 30 F7 AA 15 10 47 0B 73 F9 0B 11 21 05 F7 BC 00 0C 17 2F FD ED
D2 28 56 0F 02 1C 35 3F 00 D2 09 09 1F E0 43 05 0A 08 2D B5 27 E0 04 29 0C F7 1A EC

DC CD 16 39 E8 CA E3 21 C3 18 1F 1C E1 1D C8 E3 05 D0 15 FA EF 39 0D E8 36 0E F0 EA
CE 08 1C 20 CA FA E1 16 B5 E1 29 11 F9 F4 EA 01 29 CC F9 13 F8 E0 FF F6 33 31 E3 08
E6 03 14 3F 12 00 04 0F CE 16 1E 15 EF D1 F2 01 19 E7 E2 CA 20 08 16 06 EE 17 F9 05


24 21 D7 EC 1A FE F0 EA E9 FA EF EF E0 EF 09 07 01 04 F1 FD F8 08 FB F1 C9 CF FF CA
1D FF C6 D8 D7 3B 0B F2 13 0B C0 D9 1C 18 F1 21 E5 20 1E 35 F7 DD EA EB 05 03 FA FD
13 1C D8 F4 EE 10 FB 17 16 25 EE 01 F3 03 A4 1E C6 24 3A FE 22 0E E6 EC 2C 01 24 00

E4 DC 03 06 2D EE D0 03 2A E0 30 38 0B D5 3C 06 38 FD BC 12 E8 21 C6 DC 04 C1 F8 E4
D1 D7 E8 FE FD 21 E4 F5 34 D2 EB 25 4D E7 5A 0C 2B F5 F5 1E E1 D8 BB AD 26 ED EB 24
CD E8 D3 32 1E 2C 05 0D 31 EA 1C 2E 40 DB F8 38 FF 1B F7 D8 29 09 C7 B4 13 F6 0B 21

EE 0D 06 F7 EE CA F2 01 08 27 FB 08 EA EA EA 15 27 D5 E8 F0 00 00 03 31 0A D8 12 F9
E2 FB FD 16 E3 04 01 03 EE FB 01 29 06 0E 19 15 26 D8 CD 26 FA F5 01 0E 07 17 F6 1E
03 06 E8 1E 11 F2 00 07 16 0E 14 1D 1A 28 C0 2D 0C F2 C8 E7 2B F7 F6 0C D4 0D 0E 34


