02 02 04 E9 0E F7 09 FE FF EE E6 FE 05 F3 11 04 1E FD 39 03 FE F7 22 BE 0A FE F8 D3
F1 FB 14 FF F8 01 F6 B7 F8 F1 E9 D3 F6 FE 0C 15 F3 E6 22 17 CE 09 FC 17 E6 15 05 0E
25 15 EA FD CE 07 C2 FE F8 89 04 01 08 F2 F8 0C FE E9 0A EB FD F8 DD F9 DB 2E 0E 08
E8 40 F8 F2 F9 F9 C6 E2 FF F5 F4 1F F2 06 E4 01 1A FB 18 09 35 E9 E0 1C D3 0D 25 E3
20 E6 34 00 1B F9 38 D5 F4 FA 10 F3 03 F4 13 23 15 09 F1 0B 0B DE D9 AF 15 D3 10 99
EF F1 2D DD D2 09 DF CE 02 1F E9 D1 0E FC 14 00 9C DE C8 CD 1F 2A 2E CA FA 80 F7 87
0A 07 0C 33 FC FD 0B AB 00 D4 19 FE FC FD 09 0D F6 08 0A 0F E8 FD D9 ED 01 04 24 B2
F7 EF E1 0C FA F5 02 9A F2 DF 07 23 F5 FB 08 10 D2 C8 0B 07 03 0D 15 1D 04 34 EA 0A
EB C0 2B 01 12 06 06 C9 F0 10 F2 FC F3 FF 05 09 BD C9 1E 0D F6 1C 33 40 19 F1 E8 F2
0A 23 E7 AB FB FE D6 9B F0 CF DB 12 F5 F4 F8 D6 1E 02 33 F9 16 0B 0C 15 FA F4 F6 F4
E7 03 EE 0B FC 06 30 FD 07 DD 0B 11 F6 EF E7 F0 1E DC 12 EC 34 EF D4 FC 08 2F 0C ED
37 E4 FB 2C DD 00 08 E5 F9 FE CD 12 01 F1 F8 A9 9B E7 A9 2F 48 0B 0F DD F3 17 DC F4
E0 DF 06 51 12 EF 38 DB 06 03 22 14 F1 FB 0F 2D C0 06 DC 11 04 18 21 29 02 E1 FA CE
1C FD DD 02 EA 03 EF 16 09 9E 06 26 F1 06 07 CD 38 05 0A CE 3E FF E9 17 09 FD 0D F8
FD DA 3C 3F E1 02 3B ED EF E6 20 CF F7 F5 38 14 E0 C7 F1 11 ED F7 15 F9 02 23 F8 1A
F3 17 EF 1C 17 00 14 B0 F0 16 20 23 F6 06 F2 32 B2 F2 03 FE F3 F8 E0 FE FA B6 05 8E
E7 2A 0D 35 FC F9 EF EA F8 09 08 EF F1 FB 0A 13 EC FC FB 18 F6 06 E5 F9 CE F5 2B E2
17 C1 0D 03 1F F0 02 BC F1 E6 E5 10 FC F9 16 06 0A 13 BE 24 0B F7 30 19 19 F8 E3 E5
27 F4 E5 23 ED F8 F4 E7 04 FE FF 1B FA FE F9 FE 2A 0E D2 D9 F4 D0 1C F9 E8 01 F8 16
FD E5 03 F7 0F 04 F1 E2 FD C5 ED 21 04 F1 1D CB 01 F2 E9 F2 2A 15 F5 0C 1A 16 10 11
06 09 F6 1B F6 F2 2C 80 F4 F1 1A DC EF F0 F2 2A 15 10 03 25 D2 0F F1 0F F1 F8 2A 07
19 EB F5 0A FF 00 23 80 0C D5 FE 2B 0B 01 0F C4 3F 1B 0D BD 7F FC C2 11 1F DC 26 B1
19 04 DB 08 E4 09 F2 0E 0A E8 18 04 01 09 CC 0E 17 25 09 0D DB E7 D5 F3 F9 FA 1D DA
08 FE ED BD E6 EC D5 C8 00 D4 DC EA F5 F9 01 FE FC BF 37 19 F6 11 15 1B F5 1B D9 06
FB 0C E3 0C 05 00 B8 CA 00 E1 14 20 00 FE 15 C9 10 00 F5 E2 28 F9 06 0B F8 29 10 07
D6 18 C6 FB EC 06 F2 EA FC E4 0F 3A 00 FC E1 30 07 E0 38 E5 EB 15 06 1E E5 2A 18 E7
E3 02 22 01 06 08 17 C8 FA 27 0A FB 01 0E 10 1A F8 FF D5 06 E7 05 EC C8 0C 03 31 15
C8 17 FD E7 DF 04 F7 16 FC 2D 20 31 07 F6 0E 30 07 D4 3D E7 08 17 FE 3D ED FF 1F CA

22 D0 2B 2B FE F6 11 E5 FD FC 22 E7 06 F5 FF F7 2E D5 EA 12 07 DF 0A C4 24 E1 CE EF
0A F8 26 2F 00 FB 09 CB 0B D9 20 D7 0C F4 E3 1B 01 09 E0 2D 08 D8 F4 CF 0D 14 F0 F1
23 1C 89 FC 0A EE D2 1B 0A 97 CC F8 F8 02 19 FF 22 39 EA FB F3 CD FB C7 FC 29 1C 04
DC 10 F2 A2 03 FF D8 12 EC EE F3 2A EF 00 D8 DF 29 35 12 F8 23 18 D5 05 0E F0 17 FC
07 1D 13 C6 D3 FC C6 FF FB FB 10 DB 01 FF E5 11 2B E7 2B 04 1F F4 00 C0 E2 D5 F5 CC
1D 24 04 D7 18 02 BA 13 F2 EA 01 D0 08 03 3E F6 B1 C8 10 DD 08 00 D8 BF FF 80 EE B8
11 09 04 30 F3 FD 06 42 0A CD 02 13 00 0B 1C 2A 15 11 EB 25 10 EF ED B9 00 EC EA A3
F5 07 BD F3 09 ED FE E9 F2 EC 06 0E F8 F1 07 0D E9 FB 0B FC 04 0D FD 11 06 48 0F F4
1F 27 F4 1C 04 FE A1 06 F7 26 1C 05 FC F3 16 F6 EF 9E 0E 20 06 02 13 50 D0 E4 D4 C4
2C D0 EF 27 05 F4 31 D2 F9 CF 3C 2A 04 F3 0A C5 2F 02 F8 DC 03 ED 0D 2D 21 E2 F6 F1
00 08 BB DC E7 02 ED F5 F1 EC F2 10 F7 FB D6 DD 31 16 0A E5 33 1F DF 10 15 18 17 FA
04 EB D6 EA E3 F0 93 DD F5 FC E2 EB 02 05 0E CB AE D2 C4 1A 14 0F 07 EE 1A D7 D6 1C
C0 20 EA EF 03 02 C3 FB ED 08 CD F5 EE F4 2F 2A AF D0 08 21 FE 23 F2 33 EB F0 0F 03
2A F4 F0 19 1A 06 FE 21 0A 9C ED 38 F2 06 1C C2 38 01 DA D1 1A E3 F3 0F 0E F6 F3 FF
E5 43 E5 CA F8 07 9B 29 F8 F8 CA C7 FE FE 5F 1D DC FC FD 1E E6 EF FD C2 D2 15 13 24
E4 16 EB F6 F2 FD E0 F4 F0 1A F2 03 FB FA 1F 1C B9 E5 DF 17 10 E0 EB 09 FB AC EC 01
CB 23 FF C0 F4 FC A6 18 07 FB DC DF 02 F6 2C 06 D2 2D 00 17 F0 25 ED DB 04 F4 19 28
30 0F 0A 3F 13 F3 CC E3 05 F5 1F 1D FF 07 FB F2 14 98 F7 2C 12 B9 08 38 E5 07 A3 B2
03 19 E9 2A 27 01 11 1A 08 F3 DF 31 00 FF 0D 0E 14 08 D3 E6 09 AF 0E F9 F0 0B E6 FB
F9 DD FC FE FA F6 E7 EC 05 D6 F5 19 FE EF 37 B8 0D EA F2 F4 16 1C F3 01 FE 14 E3 2A
FC 0A 14 0D F2 01 2B 30 F7 EC 18 C9 EE F6 04 41 23 13 F5 1E FD EF F1 E9 11 E6 F9 B0
FB FE D3 F6 EF F5 1A FF FA B9 28 5E F2 03 F7 C6 33 1A FD C2 66 0A 02 41 14 BE FE C4
29 03 F0 10 2A FA 14 3B 01 E7 E5 10 FF FE 05 08 12 3D BD EE F5 8C F7 BB 09 0A 17 F6
40 DA D0 4E 00 07 11 2A F2 A5 48 F7 FC 02 00 10 1C F6 F1 0B E9 C9 F7 F8 21 38 E3 FF
D5 1F CC F3 23 FC D5 F0 EE 07 D8 2E FE EE 31 C9 F4 21 FE FA FC 2A 15 1F 02 13 FA 19
F8 FD F3 F3 0F F3 18 23 FF D1 F9 3C F4 FB 16 20 FE 1B 00 FB 22 0B F6 D1 FB 2E FB 01
14 03 17 08 FA F7 16 1B FF 3C FB 19 05 FE 0C 2C 00 E7 D1 2E F9 DC 21 A4 03 F3 12 27
0B 10 FD D9 FF F9 F5 25 0A 30 E6 3F FA F3 1F 14 1C 2E 00 E9 0C 0F E5 FB 13 D5 08 E0

FE 21 06 21 F0 04 DC 1E 09 1E E2 F6 FD 01 00 04 0B E6 02 1B 16 EF 13 E6 E0 FC D8 1B
EC 2D 2E F4 F5 05 DD 3F 01 C2 F0 C4 05 03 CD 1F EF 19 FD 2C 20 E1 11 CA FD 0A 00 21
02 CE F0 00 1B 09 27 10 06 D5 25 20 F7 F4 E3 01 1B 1B EB CC 0A F9 EE C0 12 2C 1E FD
17 AE F0 1E 00 00 F1 ED EE DD 1B 17 FD F3 EB D7 21 02 E5 ED 06 E4 DC 1C 10 DD 4E FF
08 EA F4 01 E7 F3 1F 12 FE E8 16 F1 ED 00 E7 FC 1A 18 FE F7 F4 EB 33 DA 2C E3 E9 EE
0A 06 0C E2 C7 00 05 1C 08 EA F8 DB 10 F5 F0 12 8F F3 24 E2 21 2C DC B7 FE 80 CE DA
02 1F 01 F1 00 F0 E9 37 FF DD F2 C2 ED 06 FA 20 FA 1E 21 24 2E 1E 0B CA 1D EC F5 F1
E4 EA F7 E6 17 F3 06 FA F0 09 07 E9 F2 03 FB 09 DC 1C E6 04 0B 0D E5 13 02 17 22 CD
07 10 EF F5 16 F9 13 12 04 21 DB 07 F6 07 FB FD F1 30 D9 10 0E F8 11 2A FE EF D9 1E
13 26 DD 1F 1A F3 E8 C3 FE DE C7 39 ED FE E2 CE 25 08 F5 D3 FE D3 14 52 CF F8 07 03
23 D5 F1 1E 2B 03 0D 9C F4 D9 1B 1B FB EC D6 D9 36 3A E4 E2 05 F5 0D 00 FD DD 11 06
FC A7 ED 05 FF 00 AE FD F3 0B 25 03 FB FE E5 D9 A9 D5 8F 26 29 FE D8 FF FC FD 1A DE
DE E7 1E D4 03 F6 24 F5 FD F4 19 E4 FD F5 1B 2E 90 1E F0 0F 0A 32 F5 23 28 E8 18 14
F1 0D F4 FF 1D F9 0C 12 01 C8 E4 3E 05 FD FF DC 0F 09 09 BA 13 01 0B 33 E7 0F F7 FA
F8 EA 48 E5 17 06 29 1E F1 D5 10 DC 09 01 1F 03 FB 43 BC 2C ED 18 E0 80 38 FD 12 40
0B 0A F3 E8 11 FD E9 C3 F0 27 EB DC 0C EA 12 1A BF 3A E5 1D 01 E0 08 F8 0C BD D6 F2
05 C6 28 02 10 01 FD 15 08 06 15 E2 F5 00 47 0C DE 17 C2 0B F7 0A E6 F0 1B F5 26 28
CE 25 D2 EE E3 FB E3 13 FD FB E6 1E 02 01 FD FE 39 00 04 11 20 F5 15 1C CB 27 F9 1E
B8 18 0E C2 EA 06 1E 38 FD F1 16 2F 0B 0F F4 1C EF DB 47 ED 0F 12 F4 0F 10 0D F8 CF
F3 02 F1 2A F9 FE 3D 1B FF DB D8 34 04 02 2D BB FC 15 F6 E9 18 12 17 F9 FA 04 D1 18
07 12 32 06 E2 F7 08 4A FE F0 03 9B F6 0A E7 35 23 2A FF 2D 21 F4 10 D6 09 F2 F2 DC
FB DE EB 2B 21 09 26 54 03 E2 01 7F FF 01 E8 A7 18 2D F1 DC 33 F9 2F 7E 0D A8 EA B5
14 15 F5 F3 DE F9 FA 37 F8 EF E8 17 0C F6 08 11 1D 00 2A B6 FC E2 0A 29 F0 02 19 ED
02 2D D9 27 15 02 E3 20 F2 A1 DA FB F0 F2 EB 0A 11 2E DC C8 0F CD 01 D4 CF 3C EB 13
24 D9 16 07 2A F2 23 01 FB FA 13 48 05 01 28 DD D5 01 E0 01 06 14 0F 0E F6 05 28 DB
FF 1B 2B FE F5 05 13 2F 08 D7 C8 0A FB F8 E7 1E FA 22 E8 F2 2B F2 FB D5 F7 1C F1 E7
E6 0E 18 E5 D5 F8 E5 43 F1 29 FE F4 01 02 03 30 F6 DE 12 1A 15 FA 2B A6 13 EC DF F0
28 DB 52 20 1F 03 0D 10 FA 2B EC 25 F5 08 12 F7 0E 22 BB D3 26 EB E1 EA 07 D1 0A E8


13 F4 BC 26 F6 F0 18 D3 FD EF E1 0B F2 FC 04 20 1F 0C E7 C7 06 C2 16 0F 1B 28 C1 C0
FA E7 0C 22 FC FA 14 99 FA 12 E1 38 02 F0 22 0A F2 DB 03 E7 02 0B 0E 2B 01 F6 CB DB
D9 FD 25 FC 1F F1 ED DB 08 23 0F FB F1 FD 37 09 E1 C5 EC EC ED 12 E6 F5 CB C2 16 11
0E 47 16 82 E4 0A C3 F9 0C FF 15 01 F4 06 CE EC F3 BA 36 17 23 13 BB 19 A3 F5 3E CC
1B 06 DD E6 18 05 23 BC 05 F1 09 05 F2 F7 FA 25 15 18 F7 09 22 E5 CD F9 FB 31 0D B6
F8 F5 1A F2 0B FA F8 0C EF 3F EE FB 0F 04 D8 D0 41 09 8C 4A 02 36 63 BF 07 D9 57 CD
0A ED E6 33 0D F6 0E A2 F3 F6 0A 40 FC 03 FE 2E F5 DE 09 B6 D2 D1 E4 0C 09 11 01 35
E8 01 34 DC 20 06 22 C5 FA 2A 11 FE F9 F3 F1 E8 BE 0D 04 03 F3 29 02 0F 05 87 F0 FA
0D AA DC 18 28 07 1D A5 F1 E4 F9 F9 04 03 08 01 F3 32 D0 07 09 D9 30 DB 3A 27 A8 E5
21 1B FA E5 F1 FB E3 9F EE 02 E1 D4 FA FE E6 03 F8 04 F3 09 02 E3 00 CC 0D F6 FF D8
FD FC 31 A9 18 01 FB 36 F6 1B 04 E9 F6 F8 F9 F0 E2 E5 0F 0A 26 23 F1 E7 02 D3 0F F8
08 0A 1F FD D8 FA E3 03 FB 12 F3 F4 03 FC FF 90 80 03 D5 10 3C 06 29 DD F0 F6 DA EC
F0 ED 03 0E 23 F1 36 E2 02 2A 2A 09 04 00 03 DF 0E 40 E4 15 06 11 10 FA 08 0E F9 E1
0F F8 01 21 EF FC FF EE F6 F0 FD CE 03 F2 16 D6 1D EA 03 DA 15 F0 EE F0 1C F6 09 0D
E3 C5 2F 19 25 F1 4D CB 07 0D 1E FE 04 01 30 12 04 FD 02 0E 07 11 36 1C F2 F3 E7 F1
C6 09 F3 1A 14 0B 22 CA 05 F8 2C 1E 02 F9 E3 14 1F F6 18 05 08 19 D7 FB 09 13 0C FC
12 1D 1C EC 15 F1 20 E9 FB 26 19 FB FC F4 EE 0E ED E1 04 15 E8 FE C8 FE C4 22 27 EB
07 AF D5 30 FD 04 23 B6 FC 05 E8 07 FD 03 0E F7 FD 3F D1 F9 18 D3 27 FB 42 FF ED CD
E3 F7 F4 5D BC 00 16 B9 F3 E9 05 FF 01 05 16 FC 0E E3 08 BB F2 02 25 18 F6 18 E1 1C
EC 04 F0 E6 02 F5 DB E8 FF 03 05 E9 F7 F1 10 E6 FD 10 EA E1 EC F1 FA 16 0E FD 1A FE
F1 F6 F1 10 19 09 29 95 0A 09 F9 1F F8 07 E7 1A 14 F8 0F 05 ED FF F6 0F DF 06 14 05
DE 06 18 CD E8 EE FD DB FC FA 33 83 01 02 41 1C F1 EF 23 FE 5C 06 CE 84 18 04 2B CE
07 0A 18 2B F7 FB FE FF 01 03 0B 07 0A 04 11 1C 01 CB EB CF E6 F5 E1 EE FE 15 FF E9
F8 03 25 20 20 04 FF C3 F8 2F DA 06 FA 06 1C 10 FA FA DB 25 0B 08 33 FF 18 BF D4 F0
F1 33 13 D4 FE E8 F0 D3 FC 2B 1D FA FB FD F4 E1 0A ED 1C FC 0B 1D EB DF DD DA 16 14
C0 F5 1C F8 FD 04 DA DC F7 09 F5 0D 0B F4 34 FB 00 CC 16 C2 DA 2C 03 21 F1 C8 09 19
1C 18 CF 44 17 07 1A A7 FF C9 0B 21 F4 0E DC 19 FB 27 E7 DA F2 F8 1C 0E FE 29 22 02
1D 00 0B DA FA FD 09 1D F7 C1 08 1F F7 EF 0C D0 14 AF 1E E3 FD 0D 06 1C D7 1B 1A F3

FB E9 DF 1D 19 F9 1C AC 05 B1 37 FF F7 F6 08 18 1E 07 EA E0 15 E7 16 AE 14 32 95 E0
DC E9 05 1D F3 FC 09 C0 F2 F9 1D 24 FB 03 07 24 0A 00 00 F3 2C 0A 07 13 10 FF CE D3
C4 11 21 DD CC EF DC F6 08 0D BE F0 F1 03 29 1F F8 EE 15 F7 E7 0C F0 0A 13 B4 24 15
37 F7 E2 1B EC F9 FC 1C FF F4 11 04 FD FA B7 EF 04 F2 00 05 14 D9 C0 F2 3C F2 2A EE
17 16 FC C8 1C F8 DB 11 01 0B 0A EB F4 FA B3 1A 09 01 01 04 1D E5 FE D6 D2 2B 0B D7
2F 30 25 F5 51 FB E4 3E F4 36 1D E4 FC F6 34 BE 27 FD 92 3D 02 23 09 B0 EF E5 0D DB
EB 10 DE D5 BF F3 C6 3F F9 E7 F3 4A FA 05 13 40 0A DB 13 DD 17 D0 EF EC D1 1F EB BC
10 1E 1A ED D7 F2 F5 E8 01 3C F5 1E EC F3 EA DC C4 CA 10 10 04 25 FE 48 EA 80 FC E5
06 2E 08 11 30 FE AD A6 F0 E1 22 03 02 02 09 E5 0A CD F5 0F 0D CA 18 F6 B2 11 80 E6
F7 C9 08 46 19 F2 3E D9 FB 1F 3E F8 FB FD E7 FB 03 FE F1 08 05 F2 15 F1 2D D8 D6 CD
37 14 15 15 DF F9 DB F2 EF 01 09 EF 08 FF F9 0A FA AA 14 FD FA FB ED 2C 0E D3 11 23
F5 29 DC F2 DE F3 80 ED 01 E1 D6 EF FA 08 0D E6 BC D8 E6 00 EA C6 F6 DA 10 C8 EE 1E
1F 32 16 A9 FE 07 BD 09 00 16 BA 16 F6 FF 24 D4 FA D5 02 07 FC 0B E5 20 DB 15 FE 13
CD 0D E6 E9 E0 0E FB F5 F1 FD E4 F1 04 F5 34 EC 03 00 0D E4 F1 15 0F EB F0 F8 FD 28
19 40 00 B2 FC 05 80 0C F1 04 CB F2 08 F2 4C 3D 08 AD 1D 07 E9 EF F4 26 B9 18 05 00
DF 08 F3 E0 F7 00 F1 20 F8 07 CE FB 0B FA 20 F9 1E F6 32 EC 1A 01 D8 F7 F5 20 F6 2C
39 13 06 07 D6 E9 BB 1D FF 19 DA F0 03 00 0F 0D F0 E8 1A 1B E7 D6 A3 01 20 17 1A 13
CF 21 0C F1 41 FC 05 DC F4 0B 23 0C EB 07 00 DC FF 19 0F 0D 0C 0A 0D ED F3 D6 80 D5
80 20 CC B1 1F F2 FE FA F9 F4 D2 09 F3 F9 2A EF 09 4E 0D B7 F8 31 F9 E7 EE 05 F4 EC
FB F4 05 D3 F8 00 D1 D0 F5 0A 03 E5 04 F9 25 E8 F1 04 F5 0D D8 F8 03 ED FA ED F6 37
FB F6 ED F1 F3 F4 02 2C FD 16 F7 29 F5 09 FE 04 07 FF 03 0A 32 F9 FE 02 E5 14 F6 B7
D8 FF 00 DE C5 F3 CE 4E 0A EB 3A A5 FE 05 30 0B F9 E7 19 F6 2E F4 0D 80 F4 F6 00 E1
AA 11 E0 FD E2 F9 08 18 03 14 D3 EF 04 F7 29 08 23 0F 00 AC F4 12 FF D9 0F 12 F7 FC
DE E9 2E 4D FE 02 1F 04 F4 33 2E F7 00 07 13 02 F1 B1 03 1A FF 11 0F 1E 1B 8A D9 E9
2F 18 EC 16 D2 FF 0F 07 01 1A D5 1E FE 0E 1A DC F1 E6 0F FE D3 E6 18 0E 11 EB FE 11
DA EC FB 1D DB FD 1A 0A 01 04 00 2A F1 07 63 EB 18 E1 EA B4 05 F9 FD 11 0E DB 00 1E
F5 11 D9 E7 FD FB F3 05 FD EF EB 22 F2 07 DD 36 E9 F1 08 F7 1C FB 0B E6 E5 26 04 2A
56 24 8F 3F DD FE EF 0A 01 95 E5 14 09 F3 33 C7 1F D9 07 B5 FE A9 EA 46 FD 3C 23 05

DF 30 DF D8 00 F1 B0 06 08 B3 D2 F5 03 F2 0A 0E F4 E8 1B EF FF 1E 2A D5 A9 38 AD 18
F5 20 06 BD F0 F9 D2 26 FD D4 DB F3 F2 07 01 19 00 19 FC EB 25 0C 16 FA F7 FF E5 12
D5 D4 24 07 18 00 37 FC F0 30 28 FD 03 05 0E 15 00 40 F9 1C 04 01 F0 F9 2B BD 0D EA
37 9C E2 39 20 F7 09 F5 F1 F5 2C F1 F1 00 C9 EF 26 26 D9 E2 E9 D6 EA D5 09 FE 41 C6
FB 00 F8 0A C6 F0 EA FC 09 08 1B D2 EA FA B0 0A F5 EC 20 06 F6 F3 22 FC F7 22 FA D2
EE 06 15 F6 DB 0A B6 EE FC 33 E0 05 0B FF D6 16 16 EF 12 42 27 22 FD 0B 02 E9 FC F3
F7 F8 02 D0 DC F7 F3 3E F7 F2 F2 EB 08 F0 F1 16 FC 1A 18 BC 1D 0B F9 E1 20 0F C6 FA
29 FB 08 24 0B 05 19 1E 0C 38 FB 11 FE 05 E6 D7 C8 08 F4 03 05 FB 01 38 1B A2 05 D6
F7 19 ED E6 CF FA 0E 08 FE F7 01 1B FA 07 F8 CC 1E F8 0D 04 FF 13 0B 21 F8 0E C2 17
DF 2A FD D8 08 F1 D6 98 FD 17 DE 1A 02 05 C9 EB F3 E4 31 F1 DD 19 24 1E A3 F7 D4 02
1F F6 DC 33 23 08 1A C0 09 0D 0B 17 09 0B DB F9 F1 2F FA EF E2 DC 14 FA F6 EE 02 10
FD E4 F5 1E 19 F2 BA FF EF E1 2B 26 FD FC E2 E8 D8 F7 B0 E1 2B AF D5 E6 0F F2 0D BF
38 E1 1D 12 C9 03 1B 22 02 1F 10 FA F2 F0 21 D5 D6 DC 01 17 0E F1 D8 1F 3D F2 1A 0B
DC F5 08 D5 0A 00 1B ED F4 FE E5 1D 00 F6 15 F6 EF 0D 05 E1 D2 1B 0D FF E9 03 FD 1A
10 E7 F5 27 F0 02 47 29 F0 EC 1C ED F8 F4 F3 16 00 26 DE 06 F0 E8 DF D2 5D 10 0B 12
F8 FD ED F7 06 F7 F4 D9 F3 11 D0 ED F1 F6 E7 D1 0F 1C 0F 08 0D E5 F7 F4 06 18 B4 19
32 BB F7 24 EE 05 0F 1C F6 01 17 FD 01 07 33 11 FB 2F D6 1B 0A E3 B5 C7 22 17 22 1E
EB 38 09 C9 C9 FA DE FD F5 13 F3 F7 04 05 E8 E4 04 A2 27 0C F8 21 20 13 B5 DA 06 1E
DA DD 14 D4 2C F5 0D 0D FE 03 17 23 F9 FA 18 E5 E8 FB F6 CA 05 1D E5 06 14 10 F9 E9
0B 22 0F 1F D1 FF 3F 0C F6 11 DC 1F 0C F4 00 E6 E8 E5 FB 17 D1 00 15 FF E9 F2 D8 36
01 0A FD EB E9 EE F5 45 FE 13 EF E9 F2 EF E4 ED 09 06 20 0D 33 00 0F F6 10 0B EF C8
F9 F9 FC 23 CB F0 01 7F 09 FC FD 30 F9 01 14 EB EC F6 1E 1B ED F4 55 BA EA F0 E9 C5
BF E5 08 C9 13 05 0B FB 02 1B F6 F8 F5 03 1E 1D 20 31 02 80 F5 1F D5 09 0B 1E FF 07
89 24 F7 B5 DE FD D2 FC FE 22 C4 F6 FE FC 21 07 EA FE 18 F7 04 15 24 0C BC BE EE 0D
30 D4 FB 2B 38 02 3A 1F FB 13 02 3E 03 03 08 D5 08 11 D6 E8 FF C9 F4 F6 1A F0 0E DC
E0 1D FE F6 15 FC 08 22 FD 1D DE FA FB 00 40 F1 0E 30 FA BA 03 F3 01 03 0E FB FD 0E
F0 F7 FD C9 EE F6 EC 2C F3 F8 05 F2 F6 F6 E0 18 D5 D9 19 F3 23 15 0D F0 02 09 DB F7
17 F0 B8 09 0D FE 16 1F ED 9C 05 18 FE FA 1E D8 2E 35 D8 B6 07 DC E6 E5 18 34 01 03


D7 FB 11 25 FB FB 1B D7 FF 04 E1 1D 06 01 F5 24 02 E0 F9 CD 29 1B 19 2E 32 DE DC D5
F8 E5 C9 29 24 F7 22 AE FD 09 F9 28 08 F7 FF E8 F1 FC E7 F9 0F F9 19 0D FA 05 D5 E4
DF 00 F3 F6 28 08 FA FB FA 06 15 EB 09 F5 F1 F9 00 FE F8 F8 09 03 F2 00 F0 24 1A 01
3F 38 15 D2 37 00 F9 0A F7 EB FE F4 F7 06 DC FB F4 F0 E4 1B 00 EE BA DD D1 19 2F D4
EB 0A FB EF 08 ED 0C 01 09 33 FA 2D 01 FD D7 FD F1 FE 14 03 25 27 D3 11 0B E2 17 F0
E3 E9 29 FC FB FF F5 36 FC FE 06 D6 0D FF 92 0F 6A 08 80 27 E7 FB 62 D6 14 04 5E CC
F5 DD EA 0B 41 F9 FF A8 F6 2D 27 21 02 05 AA F4 E2 E5 F1 0F D6 F0 02 1E FD DB 18 EE
3B F3 EB E3 24 00 F5 BB 04 DA 06 F1 FB F5 10 0D 05 28 00 10 ED F3 01 B5 05 38 F3 0A
FB B2 0B 16 D6 08 17 FD F5 E1 F5 F4 FA 09 06 18 F3 34 1B 17 1B 08 1F FE 31 E9 D2 06
1B 12 14 13 02 04 05 AA 09 22 E0 D8 F5 05 C2 39 FB FB F9 37 15 FF F2 B9 26 2E EE E6
13 0D FB D8 08 FD ED 3A FC 0C E5 C9 07 03 24 13 E2 27 D2 13 06 D1 F4 C4 03 1E 16 18
14 1E 2C D2 B5 F7 EE 38 EF B9 E0 D3 F7 0A 07 1C D5 2A B1 50 09 11 21 DE E6 EB 21 10
0A EA CA F3 E1 FA F5 CD 03 E4 20 0D 0A F7 03 D9 11 2C 20 01 09 F5 09 E7 DA F8 05 EF
CA F1 34 01 07 02 F8 E8 06 17 28 AF F2 07 D7 1D F3 F0 F9 24 FE 0A F0 CA 20 09 F3 1A
F6 CD B8 FC 08 FC 27 C4 F7 1F 26 22 F0 F8 D8 FD 16 3A 10 06 1D FB 25 27 F3 D6 EE B0
DD 04 09 0F 02 0B 25 EF F6 07 39 DF 07 07 DE EA 17 D4 E7 23 03 36 DC F1 0A 19 3E FF
17 0C F5 15 10 F4 0D EF 0C 01 F9 1A F3 F3 C7 17 00 13 F0 07 F8 D7 F2 11 D8 F9 26 C4
00 E6 22 EF C0 FC 12 03 F1 FD EC EE FA 01 19 FD EB F2 59 ED 04 2A 0D 1C 1A 15 EE E2
CC F9 28 FE 07 F7 15 C5 00 FE 1D CD FC F7 F2 17 00 CB 0A 0A 01 3C 12 FF 02 EA 0F 17
FD FF 0A EE F0 0D DB DD F8 2F 1C B2 FA EE DF 43 16 12 18 29 DB 04 0C 4A 10 FB 28 FC
FB ED DA 14 25 F0 2D AE FF 08 00 44 F6 00 DC AF EE 05 F7 E6 F1 FF FD 17 E6 02 11 13
F0 13 20 CD 0F 01 DC FC 0D 3A 24 80 00 06 0D 66 EF F6 FE 2D 12 08 D7 1D 0B 44 33 21
A3 F7 27 20 3B 0B 07 F2 F3 EB 19 02 F6 F9 DE 1E 10 D4 DD ED 13 04 D0 F8 E8 D4 FE FE
E3 01 E5 24 0F F4 E8 F9 FE F0 E3 FE FD F1 05 0A FF 42 E7 FB 1A F7 23 F7 24 22 C4 EA
2C 24 02 E0 10 FC E2 E9 05 F6 12 A6 06 F9 CA 77 09 23 DA 15 F7 D6 F8 CE F2 1D 25 06
FD 04 EB 1D 27 F8 E7 DD 04 FB 05 E0 01 03 FD D3 23 07 C9 04 F9 F6 14 F3 F4 0A 0B 16
F4 05 2C 2E 41 F6 1D 83 01 D2 09 DB F1 F3 DB 0F 04 20 F0 0E F9 1F 15 51 0F F8 27 F5
1A DD 16 22 3F F2 0F 01 F4 F5 17 E5 F3 ED CC D6 21 33 AE ED F9 DE 02 D7 FB E3 0E 04

A1 FC 0F D6 DE FC 2B FA F1 FF 27 0B FE FC ED 20 11 1E 10 B5 0C 3D 0B 10 FC B6 DA 0F
05 EF E8 ED 07 FF 13 E7 09 FE 2B 1E F8 F1 F3 D1 10 04 06 F4 3B 04 EC 01 FE ED F5 DA
11 06 17 08 1F 03 FC 0A FA FF E6 0A 02 F3 15 FF F3 AA 08 EE F5 F7 E5 09 F4 2E 05 1A
0B EE 11 5C 0B 03 1B 13 F6 00 11 F2 FB F7 D0 0C D9 D7 1D F7 FD 15 C8 0D 37 10 11 FF
D6 02 FD 07 45 FC 1B 1F FA 3B 0E 06 FF F4 A7 1D 00 24 EA F2 0D 29 00 FF 11 F5 0E F0
15 23 1D EF 46 F6 E4 5B F5 D1 13 DD F6 F5 35 C1 74 0D 80 23 1D F3 26 80 18 0C 0E C4
F2 F2 ED A4 00 F0 B5 44 F4 31 FC 22 FE 09 F0 EE FC CC 0E 11 FE EF 00 2E D0 EE F8 C5
3B 0B FC 0D 27 07 E7 D7 04 D9 F4 10 FB 05 F5 E1 F8 FE ED 25 02 B1 FD CD E6 3B F7 10
DB 0A FE F1 4A 01 DA BB F0 E2 2B F5 05 FD FD EB F0 30 EF 18 07 FC 1D E4 D8 DF 8B 22
CA CC 12 F4 EF F1 15 D1 FA 08 41 CE EF 00 D4 42 E4 09 28 28 01 2A 1C AD 14 23 D2 FD
ED FF 31 1E 22 F7 E3 F1 01 0D 10 BF FC F2 14 31 D2 E3 E1 2C D6 F9 0A F5 0A 0F E1 2D
10 25 2F EB C9 11 D6 FD F6 AB B2 B6 FE F5 1E 3E F4 EE F6 12 D3 2C 9C 25 ED DA 17 39
30 25 DF E9 27 F9 D5 15 FE ED C4 03 FD 05 2E CD 20 FF D8 17 05 AA F3 CF DB 21 1D 13
F9 1F 17 C6 D4 F1 F9 D4 07 27 06 C0 FA F2 D3 2C F4 EF 06 14 DA 12 EE D3 FB FF 01 25
13 10 03 F7 64 EE 86 07 FF 17 FA 22 03 F6 F4 FD 16 EE E0 11 0C E6 0F 2E DA F4 16 DD
E6 0A FF 0A 04 07 14 09 F4 2B E4 DC FF FB 27 E7 10 F1 09 12 0B 48 F0 FA F5 1F 3A 2A
06 F9 09 33 12 F3 E7 1E 00 FF DF 11 FA FB 0D 0E 02 DC 12 F3 0F E5 A9 3A 1E F1 1A F6
12 F2 F4 BB 14 F4 F0 0D FF EE 3E E8 05 EE F9 DF EB 4D 09 F9 F5 1F F9 C4 E8 0A B0 EF
38 0D FF CC E6 F9 FF F5 F8 02 ED 03 FA F2 F6 EB 16 05 12 F8 F4 18 E3 03 E7 EC 14 FE
03 0D 06 E2 FE F9 E3 D4 03 39 0C AA 01 FC FF 4E FA 16 FD 38 BA 03 04 0A E3 EE 12 17
F7 03 EA EC 01 F1 FC 46 05 14 E2 33 EF 02 E7 9E EB EE 16 D1 38 0E EA 26 EF 0D 03 B0
EE 08 2C 05 E0 06 CD 56 0E 34 1F 80 F2 F1 E4 79 EF E8 0B 26 EE FD 1A B2 FF 47 FE 14
A1 EA 1E C4 FB FB 0C 0D 06 F2 FC 0D F7 F9 EA 12 1D AC 13 05 1B 33 DC 09 F7 D4 01 0D
C2 E6 0B DE 28 FE FD 3E 03 F2 32 EC 00 F0 01 0C EE 25 02 12 09 13 19 EF F3 1D C9 E1
1C F2 2A 4A F6 FE 15 0E FF F8 E7 F4 00 FA 01 34 F5 E9 FA 10 DE E5 14 14 09 0D 07 0B
15 F0 17 1B 00 05 04 01 F6 FA 17 D8 05 0A 1E DC 0D BD EA FD 12 08 08 11 0F F6 0C 1E
F2 12 01 D2 24 F6 F5 FA 02 E2 E7 E4 F8 F1 F7 F8 04 14 1C 07 0E 2E F2 42 FA EB 02 17
CE 15 40 12 04 04 DA 04 F6 EF EB E2 00 11 03 D9 0F C0 17 E2 F1 2B 05 17 F2 C8 E9 27

D1 2A FF EA 00 FE B7 05 01 F2 E2 E2 F5 F0 D7 1C 00 24 DB B0 00 18 10 05 D1 D3 BF 24
36 03 F4 EE FB FE D8 36 03 F0 E1 CA 09 F2 D4 C5 25 08 05 D3 15 00 08 1B 15 EC 02 03
1C E5 13 14 DE F2 28 FE F0 00 23 1A FF 0B EC 10 EB D9 1E F6 05 FF E0 03 22 0C 1D E3
E4 D7 19 D7 DA 0E 01 F6 06 06 10 DE EB 06 DB 0A EC 09 44 F9 E1 59 E1 F0 FC 06 45 F5
E9 F9 0C 23 0C 09 F9 1D F5 2E 0A E4 FB 04 8F 07 E5 06 FC F5 EB 29 31 03 05 E2 07 EE
B1 14 30 E0 CB 0A C6 F9 F6 B3 CB AB 05 F8 AA DE 2B 06 80 1D 30 1E 01 CF 06 F6 F9 1F
2C DB EC EF EA 02 FA 4E 08 2B 0B EE ED F8 AA C0 ED F6 FC EF 0B F9 1A 12 39 E6 FA FE
17 00 0B FF D2 F6 03 29 F4 D6 FA 1F EC F4 F7 C1 E2 D6 30 23 16 E3 09 FC 07 20 F0 DD
D8 1A 05 EA EF F0 E4 F6 F5 06 FF F9 F4 FA DD E0 DF D5 F2 16 F5 20 1F 12 E2 04 EA 30
FB 13 1D EB 16 F6 FE AB 03 0B F1 10 05 ED D1 1C DD 03 09 2F D0 18 21 DC BC 26 E7 1D
B5 03 16 D0 C7 F6 07 DB F1 28 F5 F5 06 06 05 3F C8 DA 2B 26 C2 3B 0D 21 E1 0C E9 23
D9 E0 08 ED 1C FC F7 F4 F8 B5 04 18 07 FA ED 52 1C 06 CB F4 15 29 F1 23 ED DB 09 F5
22 F6 FF 26 DE F9 01 17 F4 E1 02 05 F3 F4 0B CB 00 EE 08 0F 15 CB EA 0A 32 13 08 0F
2A F9 09 2A F8 F9 31 D1 FC 21 0A 01 FC FF B9 3B E9 25 E9 04 DC EE 0A D0 FE 0F 0E 12
E5 FC EE 2F B2 06 11 31 FF 0D 11 0C FD 05 AA 0F 0B CE 36 F6 2D 1A F8 2F 32 D7 1C D4
F3 E1 D1 0E 11 F8 1F DB F2 1D 01 CC FF F8 F8 E0 0A 09 DE 22 24 15 10 F6 1A 16 EB 07
F1 EE E9 F7 E2 F6 07 21 01 FE 14 0F 08 FD FF 1B 15 00 23 15 1B 1D C8 24 0A E9 28 E0
20 21 F6 2E 12 0C DD F8 FC F3 F6 D3 FA F9 DE F8 17 F1 D5 00 DE FD 1B D2 E1 10 1A 24
4C F0 ED 57 FB F6 F9 00 F3 E7 14 14 FF F9 E3 FE 1A 2B E6 FC 17 D4 E6 07 06 F1 14 E3
17 20 13 2A 0D F5 3C 04 FE 47 DC F3 FD FA E5 52 F0 13 F0 39 9E E2 2E FC FE F4 03 16
1E 08 FC 03 E5 F0 F1 60 0C 15 F4 02 F4 F9 C5 90 ED 15 0C D7 2F 04 FE 1D 2D 0F 03 C9
E4 0D 19 5F C7 05 17 39 FD 3F FB FA FD F1 C0 33 E6 F7 12 47 B6 11 47 80 E8 35 F7 03
04 ED 16 CF E2 F6 18 F7 F3 F7 1A FD 08 06 EA 1F 1E 09 DB 13 FA 05 C2 16 16 F4 0F 1D
24 19 19 DD E3 F7 00 15 F4 06 E7 E6 F2 02 FB 05 E4 C1 06 0E 0B FC 22 F8 F8 2A EE 14
D2 DD 10 FB E0 FC 35 2B FC FB 14 43 F7 F7 EC 07 11 F9 42 1B 15 32 FE 29 FD FE 02 C7
42 03 11 DB DC FD 03 12 01 FB FE E4 09 F4 F0 EB 19 ED 04 EF FE 15 10 12 F7 F5 16 0B
1B FA 05 11 15 06 F7 20 06 F2 0A F7 FA 08 E5 DB FB 27 F2 17 25 11 FD 24 23 E9 16 DA
B6 01 1D A9 B4 03 23 0B 00 F0 12 FD F8 09 E5 DC 00 F6 3A EE FB 59 18 24 1D BE 02 22


