04 EC 4B FC F9 01 FA 12 F4 F6 FB EB 12 E9 1A 26 15 04 E3 09 F2 23 0A 16 08 16 D7 E7 1C 07 E6 08 FA 05 0C 1C 43 01 10 F6 17 13 14 08 03 F9 01 F6 1F 09 DD 15 19 E6 E6 34
00 F9 F7 D5 0E C2 F1 E9 E7 13 DF E5 D7 EF F0 F8 EC F1 10 FA 0C CE F3 E9 FD F8 09 F9 08 F2 FD 03 24 EF EC FB D5 F8 BD 02 1B E9 26 D8 13 E4 FC EF DC D1 23 24 15 10 E7 F3
FB CF 23 FD CB 08 D4 04 C8 EA F8 DB F8 F8 11 04 F2 F5 27 FE C9 14 07 0C F2 F5 F0 BA D4 17 F8 18 26 FA 07 E6 F2 EA 12 A0 04 07 DF 11 E4 F5 E6 E7 18 F2 DD 04 07 D5 29 26
DD D4 E7 D5 13 22 01 21 1C F9 14 FE DE 0C D1 0B F7 F1 02 FD 14 E8 F0 E7 EE C9 F5 1F EE D2 ED F0 FF E7 EE 22 07 CF DF 1F FD 11 05 BC F6 EB ED 00 00 E3 F9 E7 CF F1 F7 EB
08 F3 10 D3 F7 C0 EA A4 20 02 E7 FF 1E E5 E5 08 06 EC F7 E8 17 00 DA 0A E3 BA 0C F1 EF 02 E1 F3 DD ED 10 FF 2A B3 E6 D5 1C FB 03 33 04 F3 FB F1 24 D3 FD F1 E4 D9 F5 EC
11 F4 FA 20 02 E2 37 24 0D 35 0E 23 20 07 E3 1C EB F7 F0 F5 08 15 08 17 FB 25 DB 34 07 16 F4 25 36 FC 21 00 E0 07 09 20 FE 34 33 2B 38 F0 04 FE 13 F5 ED 20 19 10 FF 20
27 F4 E2 E2 F9 C4 04 E4 14 2A FA 0C 17 33 1A FA E3 1B 38 FD 10 0D F4 EF 0B 1C 0A 1A 15 07 1B 2D 3A 24 04 08 EB D3 DC D9 02 D3 40 E7 0D 08 2F 12 24 08 16 EC F1 09 FC 13
FE E4 FA BE 14 D6 1B F6 F3 E3 F1 E5 F4 FC EE FA ED 10 E4 EA F1 2A F7 FA F8 F9 F9 08 D0 E0 E2 29 E0 06 06 02 FA E3 DF E8 D4 E9 BF 1A 09 04 F5 FA 0C F9 E2 E5 1F ED EB EF
DA E0 DA D1 07 08 CC EF 06 0A F5 F3 06 09 02 EB E5 14 E7 D4 FE FE E5 08 E0 E7 E7 FB FF FC D7 EE 0F D3 C3 F9 DC EC 0B E0 EE EC DD 09 03 02 F9 FE E3 02 FB F7 0D F0 F7 E7
09 F0 F5 29 13 F7 ED AF 1F 0E 0A 1A 17 00 D0 20 FE EC FD D7 2C B0 13 01 F7 E5 1B FC DA 23 1B DD C5 F6 EE 0A DB EE 14 DA F8 02 D5 0E ED FB C0 E3 C8 E5 19 E5 30 08 13 FE
F8 08 FE C5 EB 2D CE 19 E0 1A E9 EA 0B F7 FB F8 FC 0F 1E 01 F3 0C 16 C7 F8 E4 F4 E0 1A F6 21 FE 14 FF AC 05 D7 F7 A8 E4 FE 00 C2 D8 D9 E0 F1 DC D8 0E EC C6 EC E0 06 2D
F9 F2 E1 18 D2 EF E2 D7 09 E1 40 C6 F2 3D BF CF 0F 0D 27 11 DA 00 44 29 19 E2 BA E7 1C EE CC E5 F4 F7 F2 DA F8 0D 15 DD 07 0B F3 E4 DA F2 FF F2 04 A1 EE D0 EE 15 02 F5
DB 1B 37 20 04 F9 DA 18 14 D9 10 E9 F0 F1 10 14 14 F4 27 FD 06 FE FE 12 17 01 16 E2 F4 36 FE F2 E0 C5 CE 13 02 E4 0E E0 28 F2 F3 F3 12 E8 E8 06 04 23 06 20 FC 16 17 2B
00 E8 F2 E1 F5 05 33 01 BF C8 13 FA FA 32 E1 EF F3 13 BE F5 FE EA FA EC 03 FC 09 08 EB 09 06 B6 D9 0B 16 CA 01 C0 F4 9E F5 25 ED ED 02 DF DB D1 FB EB E0 DC ED C8 D4 DB
F4 E5 ED FE EF 18 DF 0F DC B6 F4 F4 0E 0F E2 23 0E 1C EA 0A F8 27 D9 DA 14 FD F0 17 F1 EB 04 D7 BF BF 1B EA EC F6 02 DD 17 09 FE 21 09 14 13 0E F1 E6 CD 16 CC 08 35 0E
FB FC E0 F2 A5 08 B2 FB 1D E0 FD F6 F8 E7 00 13 F5 CE FF 09 D2 07 EB AB E5 B4 04 02 ED F4 10 ED E0 DE F3 E9 FD F4 09 FF E5 0E EA EC 0E 08 D0 29 E9 E3 E1 23 F0 FA 11 08
EA EE F7 15 E2 F8 26 FD 28 E7 04 0E FA F4 E9 31 01 FC F1 24 D3 0F 18 65 FD 09 D9 E6 10 FE E0 0B 19 A7 09 F0 12 FA 43 D3 06 27 1F FD 24 14 1A FE 20 EA 1D 03 0D 56 16 03
E6 F0 2F ED 10 F4 01 F4 F9 FD 08 0E 18 11 FA 21 21 DF 2E 0A ED FE 0D F6 10 F5 F3 25 FF 0D DF 00 FE FA E9 E0 1F 00 F8 D5 1A FE 36 38 FA 24 04 09 1F 0E F3 2F FB E4 2B EA
ED ED F2 B9 07 12 D3 EB E6 08 F4 F9 F0 E2 F2 FE F8 1A D1 D9 CF F4 CE CF 19 AA E2 F0 09 E0 D0 11 FB FA 09 DD 27 E5 F5 18 EF 01 15 F8 E3 F9 DA EC 00 DF DA FD C8 D7 F7 E9
0B CA FF EA E7 E3 2A 07 11 14 E1 FE C1 CB 16 E0 E8 F7 FF 19 00 F2 03 0B 16 C6 FC EE F7 F9 DF 01 11 C9 0A DF D3 DE 27 D2 2A D4 18 A2 FD 0B E9 1B 1C EC E5 06 25 2D F9 DD
22 07 F7 F2 01 DC 04 E3 0C F2 0D EB F3 39 DD E9 F0 E5 08 F5 D6 1B F3 F5 03 BD D3 C8 D7 F2 D6 E1 BE F3 17 F4 EB D0 F0 0A FA F1 F3 F5 D5 0B D5 01 EF DD 17 E7 FB F2 EE 02
EA E8 23 0B C3 07 F9 13 DB 03 F1 0D F1 D7 EB F8 C6 09 F5 10 E5 08 20 1E 1D D7 01 26 DC EB E7 E1 D7 EE 03 03 CA 01 29 F0 10 1D 15 F0 0F AC EE FD E4 D7 F1 F4 F4 B6 E1 F1
00 E2 EA FC 1D 01 0B 01 E7 06 F0 0C 08 29 12 FD DF FE F3 DB 12 B7 14 B3 E9 F5 19 F8 26 1E 16 03 05 E7 F6 DB 09 B3 E5 FD 05 08 F5 06 11 FB 0A FC 10 DA 2B 08 24 F9 05 12
FC 09 0E E0 09 02 FB D7 EE 00 03 D9 11 02 F2 D6 16 F5 19 13 F6 F1 35 08 EB D6 F1 05 FC F9 EB E3 FE ED DE EA 3C 0C 07 F4 F3 FB 06 01 1C E4 0C FE 10 FB FE 09 F6 CF F6 05
FA F8 07 D5 DE B4 E4 C9 07 2B E3 00 D2 E1 E9 F8 04 0D 01 E3 E3 E3 E4 F8 CD E6 EE EA E3 F9 F7 04 19 F5 EB FF 09 BD EE D0 0B D7 05 08 F9 D4 F4 DF E9 B3 FF 01 01 CD ED 0E
E1 F2 13 E0 BF EB F6 E1 EE F7 CA 2D F3 EE F6 13 CB 06 09 24 E0 FE FC 4C E7 34 E7 CE DD 00 E5 E0 FC B1 E3 F6 C2 D6 15 D7 09 35 D2 29 02 EA ED D0 E4 14 09 C0 15 E5 D9 FF
0B 21 E3 D7 12 04 F4 03 F1 09 F3 FE 0E 0D E6 01 FE EE 01 E5 F3 CD 0B D0 05 F6 E3 E2 05 F0 10 ED 14 E8 F7 CC 0A FF D1 06 1A 0C E3 09 FA 01 04 12 13 C1 28 E1 F7 EB EA F6
EF 05 1F 28 FA 01 C4 EF F3 C8 16 D7 E5 F4 F0 20 ED DE F8 EE EE FA E3 C3 01 E8 E5 D8 06 EF F1 FC 04 BA 0E CD D3 E1 1F EB 3D 13 E7 FB CC FE E2 DF FB 13 FE D8 E4 FB 00 21


