08
F2
F7
0B
11
F7
FA
07
F8
08
0D
0F
F9
0D
12
0B
19
D9
0A
F9
08
EF
E1
11
F9
02
E8
18
F5
FB
11
0E
DE
EE
21
E5
D3
F9
07
1D
ED
0C
10
E8
EA
CF
F5
F4
1F
08
01
0C
19
31
07
16
EE
EF
F1
F0
F1
0D
FD
F9
C5
F6
F4
0B
17
F5
01
EF
E7
EF
FA
14
07
02
FE
F3
FC
EF
10
F5
DE
FF
0D
EF
0A
FF
FF
FB
10
F0
FE
11
17
29
1E
45
1A
04
F7
EC
09
FC
0E
0D
12
F8
08
06
F6
F2
DB
06
04
0E
F6
FD
E6
28
0C
08
FE
D3
F4
E9
CA
F7
03
12
E9
EA
EE
E8
45
17
0E
17
EE
07
27
FA
3A
C7
FD
0B
0E
12
D0
F6
E6
04
FA
EB
09
13
04
E2
01
E8
0A
05
01
08
E6
F7
EB
06
E9
F6
B1
02
F3
0C
E8
F8
E6
0A
1D
FE
09
06
02
F2
09
1C
28
08
1E
1A
E1
F7
E5
F9
F7
07
EE
11
03
FE
FE
10
19
FB
FE
14
F2
FA
27
00
09
0B
0B
0E
F0
FE
29
DC
03
D7
05
BC
10
EC
21
39
1D
35
13
FD
FF
E8
0A
06
2D
F9
DA
E0
20
47
04
17
06
F5
FA
E9
EA
E6
FB
CD
ED
0B
31
E9
02
EE
EA
03
EF
FD
F8
02
FA
FD
11
06
0F
10
0E
FE
10
01
14
F0
08
05
E7
04
EE
0F
03
D1
D2
1A
E3
F4
F5
D4
00
F0
FB
FD
F9
E6
07
EC
F0
D3
07
F8
ED
05
16
FF
E4
08
35
C8
EB
01
15
B8
DC
26
0E
FF
39
FD
01
0F
CD
1A
14
05
03
01
E3
24
D0
14
FC
0B
16
1E
07
0A
F7
0C
E5
1C
FF
E9
0A
17
0A
EA
0A
05
E2
E5
0B
15
F9
12
16
EF
0B
F2
FE
DD
0E
FF
0C
F4
17
ED
09
06
E8
FD
FE
FF
01
13
DF
16
0A
F5
EB
EB
04
FF
DC
FB
25
0E
05
05
0A
06
02
17
37
D6
0C
03
F3
DB
40
F6
F9
FC
1C
EC
D6
FE
D6
F0
E9
14
FC
0C
FA
F8
14
0D
03
FF
F9
E6
D6
05
F1
F1
11
F0
06
E5
E9
F1
EF
18
13
0D
34
F1
05
E2
0B
D8
E1
16
40
FA
D1
06
E5
E4
30
02
F6
D5
00
EA
14
EA
20
0A
01
1B
16
EE
F0
17
FD
06
01
ED
0A
14
08
F2
FD
0C
FD
F4
C8
10
F1
DB
DA
26
17
DB
12
1A
08
D9
1D
36
33
F1
FF
22
22
53
F7
0A
FA
D6
EC
04
D4
F6
F3
F9
0D
02
EB
EF
FF
0B
0D
04
02
06
ED
10
13
EC
F5
13
06
F8
09
F8
27
10
00
0B
13
08
D4
0B
F3
0A
FF
12
E5
08
09
00
F1
9C
F1
0F
F9
10
05
F0
05
24
F0
E2
07
0B
E2
25
FF
00
2E
0F
2A
01
12
E8
25
01
09
CA
2F
08
F6
F7
06
04
0D
23
14
FD
0D
20
E1
E2
FE
F5
FD
E7
EF
FF
17
13
F7
04
DE
F5
06
FD
FB
07
05
1B
12
ED
EE
09
11
DB
01
F6
2E
0D
06
E5
13
0D
EF
E5
0A
0D
20
02
F5
0E
1A
EB
E4
DE
03
0E
FC
01
0A
EF
00
F4
23
24
03
FA
E1
16
F4
FF
1A
1D
E5
D7
D8
11
05
DF
21
1E
04
D0
F9
C9
0F
CF
FC
EB
EA
DB
E4
F2
2D
31
FD
07
EE
2B
E0
F4
07
07
ED
FC
F9
E5
F1
07
16
16
02
F8
FB
07
FA
1E
2C
FA
FF
D2
FA
E8
02
E9
15
08
B9
E7
EC
F5
F2
1C
F4
02
09
CC
1D
09
10
E3
07
27
04
EB
E3
F0
E4
06
05
FC
10
0D
08
F3
D7
03
1B
E0
F3
21
E8
EC
F0
31
24
09
31
F7
12
CF
E1
EC
08
F2
DE
15
06
01
10
FF
EF
F6
04
F7
EC
E3
1E
FA
F3
06
05
FA
08
FF
FA
10
06
08
02
F8
F1
F8
07
FF
FE
0B
03
0B
12
DA
FE
10
02
E1
1D
E7
0B
05
10
00
D7
EB
12
14
F4
2A
F0
05
EB
0B
16
F9
2B
EF
11
F6
11
EA
F0
ED
D5
FD
1F
1C
E1
2E
FE
1B
33
D3
2F
FC
F8
00
DE
DD
1A
FB
12
DA
F5
17
12
F5
F1
10
10
E9
07
DD
F0
CC
F5
FF
F4
0B
11
ED
01
C2
F2
02
EE
FA
FC
0A
03
09
E2
2B
F1
2B
F5
FA
FF
0D
1D
F2
E6
1C
FC
07
01
1E
16
03
E6
FA
EB
24
F0
18
13
0E
F6
08
DE
D0
0C
0C
01
FD
E5
0C
25
00
ED
EE
C5
0A
B7
21
F1
06
25
26
09
05
F9
05
07
21
09
18
00
0E
F8
EE
F3
18
08
03
26
E7
FF
23
F9
14
17
10
F1
EC
ED
01
DA
F4
F6
10
16
1C
F2
DE
E3
F8
1E
0F
1F
00
12
F1
08
13
1B
FE
F9
F8
DC
00
FD
F4
03
FD
F2
09
EA
1C
00
10
FB
20
08
13
09
03
F4
19
F5
1C
FF
DC
F5
F8
EC
D8
16
D2
00
12
1C
E5
12
18
D7
1F
F5
DB
FB
EC
30
09
08
ED
1F
40
01
E8
EC
EF
13
03
E9
E6
07
DD
07
FD
2B
ED
F1
F1
02
00
00
16
0A
09
FA
01
09
FA
05
03
FB
09
23
EA
FE
08
EA
29
02
FD
14
F5
F2
BF
D3
16
F9
F0
E4
20
FF
01
EE
EF
1C
C4
15
15
0C
F4
0F
11
00
E6
E4
F6
D2
19
D8
AA
16
D8
31
05
0B
25
11
0B
15
1F
03
F9
EB
06
0F
E8
04
21
17
DA
13
FB
10
09
F8
18
14
0C
F9
15
16
1F
F1
08
EA
0D
EF
E4
03
F8
04
F7
F3
1C
F1
14
EB
05
ED
E3
09
14
0D
FA
08
E4
1E
C4
01
16
D2
E9
E5
D8
E9
03
10
08
08
14
D9
E1
02
EE
19
12
2C
05
23
19
B3
18
C8
FF
03
CD
FF
05
DF
C1
D2
0E
FB
01
25
E3
E0
F0
03
D7
E8
03
13
04
ED
EB
00
EF
F8
19
06
E3
FE
ED
0E
F6
0E
E5
05
D7
FE
09
05
31
0C
C8
FE
E7
20
E5
06
11
00
0F
22
FD
F0
13
09
04
FD
EB
FB
F1
F2
A9
EA
1F
D3
FF
07
23
21
15
E6
31
27
03
F6
FA
0A
10
14
F8
20
09
FD
E3
CE
E8
ED
28
0A
E2
1F
BA
BF
F8
04
E1
1F
07
2A
13
18
01
31
59
F4
FF
FF
F5
F1
EE
E7
0A
F8
F1
03
FD
E3
FC
F4
FA
F5
F6
10
FA
01
04
FC
F5
00
0A
09
09
0A
EE
20
13
F5
09
00
F1
05
04
1B
E3
F3
1A
FF
FC
0F
F2
32
FB
FD
EB
E0
08
13
E8
0D
F9
0F
14
F1
E4
F4
13
DB
F8
1F
F2
D9
27
12
F4
F5
0B
EA
BF
09
0E
FE
06
1B
08
11
17
F9
FD
E7
FB
12
DA
FA
00
09
01
DD
F6
FD
23
FA
1E
0F
E5
00
13
EC
E5
15
22
06
09
F2
EE
FC
0B
EA
E2
E5
0D
09
03
14
27
06
F5
ED
F2
1F
FA
07
1E
12
E8
F3
F6
DE
F3
18
24
12
F4
0F
E7
12
0B
FB
07
F9
E0
15
E3
E3
09
0C
01
3B
19
12
FC
F5
09
F2
09
FF
FA
1F
FB
FC
10
F5
E5
D9
E8
12
16
F9
08
FC
10
0A
06
0B
1A
E6
04
06
14
07
05
27
FE
ED
E7
FA
2D
05
E3
F8
11
0C
F9
F7
00
EF
00
F4
01
DC
EA
E8
07
0E
FB
FA
2C
F3
EB
DB
21
F7
F0
EF
0A
FB
EC
20
05
D9
F5
ED
FB
03
FC
02
20
13
03
0E
E8
18
24
D9
29
E4
F6
0E
2A
F7
DF
F1
18
07
C6
FA
0B
F4
1E
14
00
FB
F6
1B
EC
10
EC
00
FC
13
FD
FE
FD
05
04
FB
EE
FD
F5
F3
06
F8
0E
F7
07
0C
F9
FD
F6
0A
0E
15
C1
06
0F
F6
05
F4
17
0B
07
FE
14
D4
F1
04
04
E6
0C
0B
08
1D
F6
05
F7
E0
21
1D
16
10
FE
C8
FC
EC
01
08
12
0C
F1
E1
EE
DD
23
DD
F4
FF
02
DB
DA
19
F8
15
DD
DD
25
F9
17
0B
00
EA
0B
E2
D4
15
EA
F9
EF
1D
18
1C
0D
EF
F2
F8
00
17
04
DF
F1
12
14
F0
EB
E9
0C
02
F6
F7
08
D6
FE
06
06
0C
15
D3
5B
FE
DB
10
F1
00
FF
1D
14
F4
00
12
FA
EA
FB
F3
0C
22
DB
E3
FE
E6
1A
20
0F
1A
D2
30
F3
00
06
04
22
B7
F1
FA
D8
DC
11
11
10
FF
35
19
FA
24
FD
0D
F8
01
DA
10
CF
0C
F2
14
0B
FA
01
E4
0F
0E
0F
15
10
1F
02
FA
04
D0
FC
EB
1A
EB
1D
F3
F7
FD
01
38
06
15
C5
17
16
01
00
13
D3
FA
19
1A
FE
FE
14
D6
FE
FC
F9
FA
03
06
00
DF
13
E9
E4
F2
F7
F2
04
28
05
FF
E1
06
C4
D6
EF
11
00
F7
03
03
D5
08
F9
E5
F6
13
FB
0F
EE
02
EB
06
15
E7
F8
16
CC
09
EC
1A
FB
04
03
EF
FD
13
F8
0E
0F
F8
00
F0
F7
F6
02
F0
09
06
D3
F0
00
FD
11
20
F6
F0
F8
0C
E5
02
1B
E8
1C
F4
1D
09
05
2C
0F
F2
00
D8
F5
F0
1A
FF
06
DA
DD
ED
FE
E7
F3
06
F5
D2
F5
B0
2B
1B
28
03
09
02
EA
FF
0F
15
D6
DE
C8
E7
03
28
0F
0E
04
EA
08
06
04
0C
0B
F0
2B
FF
01
0B
0B
11
EE
FF
E1
FC
07
07
0D
01
05
E1
EE
11
FD
EC
12
E8
15
D2
14
07
09
EC
E1
02
0A
BF
0D
00
EA
07
DA
0D
11
D6
09
FA
01
EA
EF
10
F0
EB
EC
E2
04
27
14
24
CC
C0
E2
14
0F
0C
03
D8
09
ED
F3
E1
FE
18
F6
03
27
29
0A
0D
01
15
F3
0A
08
D5
E6
03
FD
30
DD
0F
32
E5
FE
17
E3
13
25
18
0B
FB
F1
E0
07
FF
E9
06
28
07
08
F5
00
0C
0F
15
D8
EF
FC
FA
F3
FF
EE
0C
05
03
0B
E4
0C
0E
28
EC
0F
1F
FB
01
F5
EF
FF
F9
0B
EB
FB
04
FA
F0
D5
1D
11
15
A4
D5
E7
CF
F5
F6
13
E7
16
E9
13
E7
ED
2C
3D
EF
FF
F5
E9
F6
EB
F4
00
0A
03
F6
13
F2
11
F8
F9
EF
14
F4
F2
F6
0A
EB
07
F4
F7
F1
FB
F8
01
06
00
07
FF
02
EF
1D
09
E3
F7
06
1C
0D
10
F9
EE
E2
F7
07
04
0D
E9
CE
06
E0
FE
EE
05
E9
DB
D8
08
E7
02
F1
E4
F8
29
F9
07
CF
EB
14
E0
03
F8
00
22
FF
FA
04
18
FB
1C
EF
E5
FB
29
10
06
EC
1E
08
16
FF
13
04
2B
00
F8
E7
2A
09
FF
F2
0A
02
E7
F4
FB
FD
F8
CB
C5
FA
01
E2
20
EE
F4
1D
F4
EF
19
04
C7
1B
16
08
0E
14
24
FA
08
E9
FC
FA
F6
0D
F0
0C
F5
07
16
27
F3
F4
F0
E5
EF
14
32
F4
05
13
F4
F8
EF
1C
07
08
F7
E7
09
18
12
18
0B
F0
06
F4
EE
11
05
EE
0D
0E
0C
07
0A
21
03
FC
02
E5
FE
21
0D
1A
EB
FF
18
1A
E6
EA
18
04
0A
E2
23
0B
0B
DD
FD
FD
14
07
D3
FA
01
00
17
FD
F9
16
F4
EF
F5
F1
15
F8
E6
17
FB
13
05
11
00
F5
10
FC
09
04
11
E6
D0
F5
18
25
06
02
E6
D6
24
E1
F4
F7
16
FF
E3
C5
F0
CF
EF
09
07
05
E9
F9
07
00
17
F9
EF
FC
02
F2
F8
FC
0F
