FA
DD
EF
F0
FB
F6
F3
12
EC
0A
E6
ED
04
18
C8
EC
1C
02
0B
06
10
FD
13
F2
1D
F0
FF
E2
09
FF
09
FD
EE
0C
F9
0F
EC
D1
F7
00
0D
F3
1E
E0
E0
F5
DC
28
03
F3
E9
FE
CF
F5
05
F4
FE
E5
FA
DC
D6
F1
E0
10
26
0C
0D
01
F3
13
EB
ED
0D
17
00
18
00
F1
FC
26
F3
00
13
08
EA
EF
1A
04
FC
01
06
F5
07
08
E7
06
FB
1C
07
FE
0D
E7
08
14
02
FE
F1
E6
F0
D0
1D
25
0D
0C
0E
E7
FD
F3
E3
0C
0C
E6
EB
0E
F3
03
ED
FC
FA
06
F5
F5
0E
09
09
FE
0C
03
1A
D0
F9
02
E2
16
0C
D4
FC
04
02
02
FC
EE
04
0E
EA
12
09
C6
04
FC
04
FB
24
0C
F7
24
01
0D
11
03
C2
00
01
05
FD
05
FA
03
EF
D5
09
0E
F0
0C
0D
ED
12
FC
14
02
10
16
DA
11
0B
01
03
F5
EE
0C
03
FE
29
D1
0A
04
FD
D8
FD
FE
01
15
29
F5
04
F4
C9
F8
EA
EE
06
F2
D0
06
F7
F4
15
F5
F2
1C
F7
E5
16
C3
18
0F
EF
F7
E0
FF
00
F5
FD
FE
E7
F9
FA
28
13
EA
ED
FF
07
03
04
01
0E
03
EF
FC
0A
24
19
FD
0B
E6
F9
F4
16
0F
04
06
2E
E8
0C
CA
11
14
EF
0B
CE
0B
0C
02
14
D9
12
F9
E6
FB
0F
12
D6
19
F4
1D
0A
05
1E
F3
0B
EC
FC
FF
15
E0
FB
06
07
E7
F6
00
08
08
02
F3
E5
F2
1F
F8
E1
29
03
24
F5
F3
00
03
F7
14
0F
18
13
FE
0A
0E
EC
EC
1B
17
F0
03
36
FE
EF
1E
FB
1B
F9
EE
F2
09
15
F4
29
FB
FE
FE
DC
F8
F1
02
E8
03
FB
08
0B
24
13
05
E9
F3
F1
10
09
E4
06
1E
09
04
17
F5
F6
10
E8
08
1B
1F
FF
06
FA
08
E4
11
09
0B
16
D9
1B
FC
E4
02
FD
F5
18
F6
CD
11
0C
D9
12
03
F5
1A
F3
0C
F9
06
0C
DB
15
12
FF
FC
16
04
EF
FC
FB
FD
D6
F7
FE
06
EF
1C
FF
01
2B
05
04
FD
E8
DF
0A
03
F1
FA
F5
E6
19
0D
FD
F3
27
05
10
F4
F7
F9
11
1B
05
0B
00
14
26
05
DF
F6
EE
08
00
F7
F0
F9
F0
C6
1D
12
ED
10
25
F2
0C
03
08
F7
00
17
11
08
08
EC
03
0E
F6
F6
05
16
13
07
29
31
EC
06
FA
00
02
0E
D9
13
F2
DE
F7
00
0F
F4
E5
E3
FC
FA
09
D5
FF
04
E7
FE
14
F9
17
EF
06
F1
05
F8
E9
E6
2C
CC
12
EF
FA
F6
02
12
F6
26
07
04
D2
0D
F0
09
1D
D6
FE
02
CA
0A
15
E9
EF
17
0F
FD
D9
00
01
F7
F4
F5
0D
E4
FC
0C
23
1F
FD
16
FE
DB
D6
01
08
15
03
20
C7
0A
F4
06
FB
D3
2C
15
04
06
07
25
03
F4
F2
01
F6
1C
E4
F8
0F
F2
13
22
03
01
EC
01
FA
16
FA
F6
03
ED
00
39
0D
ED
1F
F9
F5
FE
CF
D7
13
0C
F3
08
10
C9
1A
FB
07
F7
07
08
0E
06
F3
0B
0D
F7
0C
FE
0A
27
F7
1A
12
CE
01
F0
EF
F3
F0
FD
E7
F7
0C
17
12
B1
05
0F
07
FC
16
E7
09
15
21
EE
0B
EA
EB
14
EE
EA
07
22
FB
03
FB
E6
F2
06
D4
0D
08
0D
19
F2
D0
FE
F3
1E
D8
F8
FA
2E
FB
B5
C6
F6
FB
08
F8
EF
03
1D
F5
D4
13
FB
07
15
28
F0
01
F7
C3
BF
FD
F5
0E
00
0F
07
DB
EF
0E
D9
09
15
0F
EF
0A
E1
24
19
EC
E3
E9
EF
F9
01
02
08
18
02
ED
20
09
18
11
0C
EE
ED
E5
13
FA
EA
FF
FB
0D
03
16
04
24
F8
EC
1B
E7
17
FF
F4
12
FC
10
D6
1E
17
F3
15
83
F7
13
EA
05
E4
FC
F7
EE
F0
0E
1D
FF
10
09
12
04
FE
10
EC
23
F2
07
1C
0A
FF
E4
E8
F7
D8
F0
FD
D3
CD
F6
DB
DB
CF
25
04
C0
28
12
1A
10
B1
F1
0F
F5
05
03
13
10
0B
F8
01
0D
D5
18
2C
FB
DD
08
1E
ED
F5
17
0C
15
F3
EB
05
01
EC
07
F8
02
01
F7
08
F9
0B
FC
F7
EE
05
0B
13
F7
07
F6
F9
EA
0A
E8
FC
0E
0E
F5
FE
E8
D7
03
2D
FE
FC
25
EE
13
37
F2
0F
F6
28
1A
1D
FE
F0
04
FF
07
FE
E7
F7
02
08
D3
FE
0A
E3
12
F8
F4
28
15
FE
E3
09
08
E3
27
FE
11
FB
F9
17
DC
F4
E3
04
D7
0A
F9
05
0E
04
DD
09
0F
0F
0B
E4
FF
F2
D4
13
F5
EF
F4
0D
0B
1E
0E
0E
24
FB
E7
0E
EA
E9
13
0D
D6
FF
17
FE
18
F9
E4
23
E5
07
12
F8
01
09
F2
C3
06
18
CF
12
06
F3
18
CE
07
17
F5
E0
12
F5
01
CE
F9
EE
11
FE
FE
1E
00
0F
FB
26
00
EB
F3
05
E9
01
E7
1E
CB
FA
05
FA
E6
E6
C1
F5
0B
F8
16
07
EF
07
E2
D1
08
1A
EA
0F
2D
1E
08
FF
FB
E5
F9
FB
F7
1F
E3
EE
FF
16
EE
14
EB
04
DE
0B
FC
E7
13
FF
0F
E5
F3
E1
F4
E2
F5
FC
12
0B
D8
07
0B
CF
0F
19
0F
D2
19
0E
1C
F1
17
02
FF
E8
D0
07
F9
03
FF
10
D3
11
FF
E6
F8
CB
04
F4
1A
E3
DF
0C
0C
0B
2F
F0
2F
16
13
F2
FF
CA
00
1C
E0
EE
FF
09
D9
F6
0D
0A
1C
C7
EE
26
17
04
01
FD
00
06
F3
DF
F4
FC
E6
FD
10
DE
0E
08
0E
F0
F9
09
ED
01
FC
F3
F6
04
EB
2A
06
14
00
02
11
03
F1
0C
13
17
FE
ED
F7
DE
F1
14
04
B8
F6
F9
1F
E9
EB
0B
EF
01
1A
F4
02
F0
1A
06
F6
0F
12
16
DE
0E
06
FF
0D
F0
F9
13
09
21
12
02
0C
FA
D1
2F
FC
05
11
22
F9
AA
FA
06
05
0B
D0
06
10
15
09
DE
14
EE
0A
F1
28
0D
F8
0E
1F
CA
12
00
19
0E
11
00
04
DB
0E
E7
04
F1
0B
F6
09
FA
27
02
DC
EB
FF
F0
FB
28
11
16
1C
E4
0B
1B
EF
18
F6
04
F5
FA
E4
1B
FF
F5
08
13
FD
E6
04
F1
10
0E
FD
0F
F2
23
F6
FA
F1
15
07
FD
16
27
11
10
00
DF
FE
F9
0A
EC
F4
09
F0
2F
F4
2B
39
11
12
00
21
0E
E8
1C
25
E0
10
15
08
FE
F7
0A
E5
FA
FC
EF
10
DB
EB
F5
D1
F9
FD
09
E2
10
09
17
F5
DB
F2
04
0E
ED
1F
10
EE
13
F7
EC
FE
D1
0D
03
FA
FA
00
0C
1A
EB
36
F1
17
FB
09
E6
08
03
E2
31
0D
E9
01
EC
FB
FE
FA
0A
18
1A
20
14
02
F7
D9
04
E5
18
E6
FA
FF
03
FF
E8
07
DA
FA
26
14
ED
15
EC
1C
FE
1B
13
FF
19
09
0C
06
C6
09
F8
07
09
DD
21
F6
13
C4
02
F1
10
12
0D
FA
25
03
0F
00
0D
F9
0E
14
F8
00
F9
13
EE
FA
FC
DB
E8
DD
13
EE
EE
FD
05
0F
ED
08
F7
17
F0
11
17
E3
10
0D
16
10
22
12
01
D6
EF
FF
06
ED
EB
14
E8
1D
D7
F5
F8
10
FC
1E
1E
1F
06
CD
1E
0B
E0
E6
09
FD
E0
F3
22
ED
EC
ED
0D
09
CB
13
04
FC
E6
E8
FC
1B
EC
09
F1
0C
DD
02
00
1C
F0
F2
0C
1A
15
17
F9
16
FC
07
00
ED
04
0B
DC
13
00
FD
12
10
0C
E2
CD
0B
00
0C
EA
F7
FF
17
08
02
03
0D
E2
ED
18
F4
EF
09
24
EF
EE
F7
F1
F5
0E
1C
F7
FE
F8
1B
DD
EB
F2
01
03
E8
0C
07
DF
03
0D
D0
03
F7
F8
0A
11
0C
DB
D2
DC
F1
F5
0E
2E
FF
EB
F5
00
02
F2
22
FB
EF
EA
04
F9
13
06
04
07
F5
08
F3
EC
FA
1B
00
11
05
F1
E7
EF
DE
02
0C
3E
11
F2
2C
F7
F4
FB
2C
F8
DC
E9
F5
FB
FA
0A
03
F4
1B
0A
E8
F3
04
15
0A
19
DC
0A
ED
0D
D4
0F
1D
23
01
FB
26
E8
D9
0E
30
F9
09
93
07
13
FC
14
FB
01
15
03
DF
0B
1A
D7
EB
1E
12
05
FD
B7
FD
0A
E8
09
F0
17
F1
17
15
15
1B
F0
BD
01
FB
EA
14
F3
12
02
C7
DF
11
1B
14
0D
F4
0B
0E
FF
0F
0F
05
C5
0D
18
00
F0
F4
EB
01
01
06
0E
0C
CC
FF
0D
00
1F
CE
ED
FA
F7
FC
D8
DF
15
E4
04
FB
16
0E
05
09
18
00
00
01
EE
04
14
F3
EF
17
C4
07
F9
08
F2
E9
D2
01
F9
F6
0A
14
FA
FF
01
02
02
03
10
0D
01
10
D3
11
16
27
F1
F9
F0
0C
FA
22
FA
06
C6
0A
FB
05
01
DE
F4
10
BD
F9
F6
E8
F2
D7
F4
02
F8
18
FD
F0
03
FC
D9
2C
E7
DF
0A
0D
21
EB
1B
FD
DB
04
0B
00
11
10
13
10
E7
F8
C7
0F
F6
EF
FD
0A
17
E9
07
28
FF
FA
33
F7
1D
00
DD
06
FC
0B
08
01
01
13
2B
16
18
E9
F8
1C
31
B1
CD
27
1D
E1
21
18
0B
12
EF
CE
06
DA
F6
0A
EF
FF
0A
04
19
03
FE
C4
1B
F3
00
0C
04
F3
DA
D4
F5
FD
17
10
0A
FC
1D
00
0F
14
00
05
E2
09
FE
0A
29
EF
03
E1
0E
19
0B
EC
E3
07
EA
01
1B
15
FB
EE
F7
20
DE
DA
EF
17
F8
F4
F1
F5
0C
2C
EC
FB
F5
05
00
DF
01
00
0F
04
28
B8
F9
15
DF
05
00
F1
08
E0
F2
02
0E
F7
11
EA
EF
EB
15
02
14
0C
EF
E6
F3
06
0B
FC
06
0F
04
10
03
F2
0C
14
17
FA
EA
D3
0A
F7
15
EB
FA
0E
F3
08
1C
16
F2
17
08
10
FB
E9
26
CC
0F
E2
13
05
01
12
16
ED
E8
07
EA
FE
0E
F2
1C
B8
06
FE
18
FC
0E
0E
05
07
1E
F3
1A
E4
F0
01
D3
12
B4
1A
E3
E5
01
0D
00
0A
E0
00
00
FA
1A
F2
2A
07
EC
F3
F2
05
FC
9F
FB
01
C5
18
0A
E0
EF
04
00
E9
30
05
05
FC
00
FE
00
0E
F5
29
18
EC
12
2B
DE
09
12
EA
17
DC
F9
07
11
00
F8
07
F2
0C
E1
F8
1D
D1
00
05
EF
E5
16
1E
D3
E6
16
E3
0F
09
F4
23
BC
FD
25
FA
ED
0A
20
FC
04
EF
0D
D8
0B
D3
0F
19
F5
1B
F9
1B
1F
E3
FF
12
14
FC
F4
30
02
EA
08
1D
04
18
EC
11
E6
1A
D5
0D
20
C9
F8
13
E0
21
FF
20
D3
07
FF
2E
FD
AC
0D
22
05
F6
EE
FC
07
F0
1F
0D
24
17
E1
E8
F6
1F
EF
8C
02
12
F5
09
B5
27
12
F7
0F
90
E0
FB
0C
0E
1A
01
92
F1
1D
C9
C0
F4
ED
10
0D
A2
AB
06
16
0D
19
FF
11
07
00
CD
1F
0F
C6
01
D0
E3
1B
08
B2
C8
15
03
1B
E3
F7
05
0D
1B
09
D7
F8
FC
28
FC
F6
E7
FE
80
B2
E4
17
07
F6
25
15
E3
F4
FA
C7
E1
0A
10
24
F8
DF
28
19
F1
D7
E0
DE
F4
2F
D2
EF
16
0B
06
15
09
20
EA
0E
E9
07
14
DE
22
E1
1E
FD
EE
D0
16
24
01
07
06
EB
EC
13
0C
0F
DD
26
13
99
EC
ED
F2
15
80
EB
09
F6
1C
EE
07
FC
FA
C4
02
0C
EC
ED
2B
04
E1
ED
04
CE
1B
DA
E1
36
09
15
0A
E0
D6
B6
1B
E6
AB
06
12
FD
EC
E3
14
03
F9
0D
E0
2F
E0
A0
DE
1C
0B
07
0F
14
22
04
28
14
12
E7
0F
45
DF
C0
14
1B
B0
01
0D
48
09
FA
F5
03
D6
FB
CF
E4
EE
05
14
27
EE
FC
03
0E
E7
EA
F7
03
11
EA
D4
DA
FB
1F
05
F3
0D
1D
FC
15
D4
0F
1D
F2
24
01
0C
04
F0
FE
07
21
0F
20
01
0A
C9
F6
FB
0E
2E
FE
F2
D3
13
08
F3
EE
F9
F0
F1
18
E1
09
3A
F3
FA
12
EC
C8
2A
DC
22
0D
E0
0E
CC
F5
E8
FB
13
10
0D
15
09
16
E9
05
1B
2E
FE
07
F1
FD
D8
0C
E4
ED
DE
1E
F1
15
1C
29
0E
03
05
F3
DE
11
31
24
F6
EC
FC
08
ED
0C
ED
3D
FF
EC
0E
1A
1F
DB
FB
04
14
F6
D5
0B
80
01
2E
E0
FE
32
FC
FF
E9
06
F5
B0
23
DF
15
E1
A7
22
09
27
18
0F
11
F1
F5
38
E5
FF
09
0A
E1
C4
19
91
F0
05
FD
02
E1
FE
FD
05
F0
F5
FE
F2
FD
21
DD
11
06
0B
F8
10
CE
FB
EB
DC
16
31
D2
07
01
FE
EA
27
CD
08
0C
FE
17
FE
1D
0D
05
EB
F9
FD
03
E2
0C
11
1B
F1
CA
F8
14
0B
12
23
EF
FA
0B
F3
EA
F6
F4
16
E7
07
CB
16
14
DD
FF
0D
C5
04
0A
CE
14
E6
0D
24
05
E3
17
DF
F8
13
F6
FB
FF
06
1A
1C
FF
C3
02
F6
CD
05
21
F2
E9
0D
23
26
3E
E8
D0
DD
13
F8
F5
FE
13
FF
23
E2
F0
06
DA
E4
1E
EB
19
08
FD
E7
0B
DF
E9
05
07
F0
E9
15
0A
3B
FB
22
0C
E5
07
25
F8
01
11
1B
14
F9
FD
F9
F7
12
0A
DC
10
16
09
EB
BD
FE
BE
03
13
16
F9
AB
21
12
C7
DF
FD
13
F8
13
D0
D6
F5
03
27
16
F6
31
FA
FB
24
07
F7
0F
0D
D9
07
F3
1F
D1
F8
F3
FA
18
DE
12
FC
07
1D
E3
EA
FB
14
1D
02
FC
F1
FE
13
CA
F8
FA
13
2E
13
1B
18
D1
DB
E1
D7
E1
25
27
02
F6
3F
02
D0
CC
FF
12
16
17
EC
00
03
E1
18
0D
00
0D
F2
10
0C
10
04
1C
0B
E9
15
EE
F3
EE
0C
01
FF
FE
F6
26
F0
1A
18
21
CD
2D
04
BD
C0
07
13
15
CD
F0
08
01
20
F6
E8
14
FB
FC
0E
14
17
0C
F7
E5
DC
FA
12
15
16
DA
F4
20
FF
16
01
00
DA
ED
03
0B
DF
0E
19
E9
F9
02
DF
13
06
EC
D1
21
EF
A6
D1
19
0E
0F
12
13
F7
1F
15
EA
14
F9
1A
28
F4
D5
31
05
FB
D2
12
26
FF
00
2D
17
0E
06
CE
0B
D8
EC
F0
01
F1
EB
11
F7
F9
ED
F8
1A
02
EF
D0
ED
F7
12
07
DF
F8
15
04
F5
14
EB
FE
0F
29
02
18
FB
21
CD
1D
18
19
0F
12
08
BE
F1
04
ED
11
FC
FF
E3
E2
02
E7
F3
F7
25
FB
F2
E1
FD
F1
F6
05
06
F5
E3
2F
F0
03
F2
F9
EA
0B
F5
CE
F5
EE
FB
05
11
0E
06
F8
DD
0F
01
05
13
14
FA
02
F3
D0
04
EE
38
DC
12
DE
10
DF
FD
17
D9
F7
21
2A
DB
FC
EB
09
D7
08
0E
11
18
FA
F3
0E
FA
F3
EC
05
07
F2
F4
F7
EB
80
EC
0D
E4
F8
1C
16
EA
F1
04
05
CE
FD
DF
1D
F4
F9
19
09
F7
0E
EA
19
0C
04
F1
02
0F
1B
0E
F7
26
1A
DF
EE
08
EE
13
1E
0F
06
EA
F4
09
FD
EC
EB
04
0C
23
0C
09
00
E5
20
15
EE
0A
0C
0C
CB
03
EF
FC
F8
E7
09
FE
E8
F4
EF
10
E9
00
EE
25
DE
E6
0C
09
ED
15
DA
F5
FD
0A
13
F0
E2
19
F6
01
FB
16
0B
2D
13
F1
E4
F7
25
0D
F2
00
CE
F5
2A
16
15
F3
05
0B
ED
FA
F3
0F
CD
08
FF
16
05
FC
F3
DB
08
D6
09
40
0E
EC
10
F4
E0
0F
23
F7
EB
E5
DF
FC
1F
0E
FC
00
EA
0A
0B
01
09
17
06
F8
D3
16
DD
0F
CC
08
25
17
F7
F5
FC
E1
E5
F5
16
02
FA
CF
FF
02
0A
EF
C9
18
FF
15
BA
0A
F9
EF
11
0B
0C
00
E0
F1
EB
F8
17
11
03
21
06
FE
ED
10
FB
00
ED
04
14
11
1A
FD
18
00
F8
F3
05
09
1A
F2
ED
09
03
E3
04
11
F1
80
01
F4
EB
01
F3
00
FD
0F
20
FE
07
EA
FC
0A
ED
0E
F2
FA
1F
FC
11
0B
E0
14
1A
F8
0B
03
F1
0A
24
07
1C
17
23
05
21
09
03
FC
DF
EE
04
FF
11
FB
F2
F1
F6
12
01
1C
0E
E1
1B
11
14
F1
00
F6
FB
F2
01
EA
06
0E
15
DF
F8
DF
1A
FD
0B
17
02
D0
0E
EE
EF
13
BD
10
0D
E5
D3
09
FB
1A
FE
06
29
06
13
04
0F
03
F9
F3
0C
E5
FA
F6
00
0F
CD
28
01
F3
DD
01
06
F9
ED
0B
21
05
E3
F7
0F
FD
FE
FD
05
13
FB
F9
0D
0D
03
20
0A
FC
F4
04
FE
F7
EA
25
0B
13
0F
1A
E8
E2
FD
0D
0E
FC
DF
04
05
0D
14
1B
FF
F7
1C
E7
F0
03
1C
1C
FC
26
09
10
F6
16
14
F9
D1
15
0C
38
0E
F1
D7
01
CA
FA
22
1C
FD
F5
18
F6
16
F8
0A
F9
1E
C8
0D
00
02
EC
EA
FE
02
07
0E
F1
E0
DF
1A
F9
03
19
04
03
1B
FF
0C
E1
13
E0
0B
BC
0D
FC
ED
0A
25
F8
02
05
05
16
CE
21
0F
0E
09
16
EF
F4
18
F2
04
F8
FE
07
00
F7
23
1C
F4
F9
F5
F1
EA
06
F6
01
0F
E9
0D
F0
F8
E2
DC
FD
E8
FA
03
1B
FA
06
E2
0D
1D
EF
F4
FC
EB
04
F8
05
02
E1
F5
FC
0D
16
18
1B
0A
E8
01
0A
DE
11
EC
17
03
FF
08
0D
EA
F9
07
FB
F6
F8
FC
07
13
F6
05
0A
E1
FB
16
FC
FA
ED
EC
FD
F8
A8
06
BD
07
F0
D7
1A
03
08
FB
0C
FC
E3
ED
06
ED
1A
C5
1A
11
F0
0A
04
DF
01
C9
F8
FD
FD
1D
09
D3
08
ED
FF
FE
FC
2C
18
E8
EC
DF
07
01
14
01
2E
E1
E0
09
07
EF
0B
EA
15
EB
EF
05
06
03
FA
11
06
F2
0A
F0
0E
E1
03
0D
09
FB
FF
13
F0
F3
FA
13
0A
09
E6
14
FD
EC
0A
02
02
E7
00
FF
FF
F2
EF
F2
F8
ED
EC
16
E6
13
02
16
08
FC
E5
10
10
07
08
00
17
FB
E3
FF
1F
ED
08
04
F4
33
EE
02
05
C5
01
F1
E9
0A
FB
10
C5
EE
30
F9
EF
EC
FD
06
10
FC
F9
F1
12
0E
EB
E9
26
FB
F6
CD
FA
07
EB
DA
EA
10
F3
DD
D3
DA
FD
1F
FD
CB
1F
06
09
16
17
F9
C3
01
08
10
F2
1A
E7
0C
06
E4
DF
18
1C
1E
F5
11
05
FC
F5
F5
04
07
80
0C
D8
E6
14
FC
09
F5
F2
0F
16
F5
0A
FF
0D
FC
FC
CC
12
16
FD
18
02
E5
FB
F2
DF
03
0C
00
FC
0A
05
14
0F
E2
FE
09
03
28
24
F7
D6
1C
0C
00
F4
0F
F1
F9
03
F7
FF
1E
15
05
09
03
0A
F3
0C
F1
19
12
C2
0D
DB
FD
E8
EB
E7
1D
06
F7
E9
00
EE
FC
FC
FE
05
DD
13
05
CB
D1
F1
00
17
DE
F6
32
13
0C
EE
F1
FC
08
F4
F1
CD
02
0C
EE
F8
AF
0B
0E
EE
E9
F7
02
04
F4
1D
09
DB
EC
E7
08
EE
0D
18
0E
12
FF
EB
EF
FB
0C
F9
D3
11
E1
02
F3
F5
E3
13
F8
24
1B
0B
2C
EB
F6
07
01
20
EE
E9
08
FC
F8
F5
10
0A
FD
0F
CB
EC
0A
0B
BB
1A
F3
0B
04
0B
13
FC
F8
18
FD
0A
08
F4
0B
ED
D5
CE
17
2C
08
D9
24
09
FD
04
F8
FA
21
B6
03
0A
08
F7
EE
ED
0A
FE
20
E2
06
ED
E7
F9
FE
09
37
EA
FD
E8
FE
F6
02
DF
00
E2
F7
FF
E5
13
EA
F9
F6
15
16
14
0D
01
15
07
EA
1E
17
1E
01
0A
23
04
0B
F2
0E
FB
09
06
F7
1C
05
0F
F7
03
D8
05
EA
E6
25
F9
D7
E9
10
10
EA
FE
11
12
EE
10
0E
26
0F
FC
F0
F9
C7
FE
11
25
10
ED
F2
02
1B
03
11
33
1A
EF
FA
11
AE
10
19
12
FB
13
04
FD
F7
14
12
E5
07
00
14
08
F7
05
0D
2C
F5
DB
1B
F1
F8
1B
E7
0B
11
B2
F0
E6
11
FC
FE
2B
E0
00
F2
FA
D8
12
13
FE
F0
FB
F7
09
03
0F
11
13
DE
F3
D8
F4
F0
E3
1C
08
C7
09
ED
FA
F3
F7
E7
03
30
11
E7
ED
1A
30
F7
11
E2
18
E9
09
08
FD
20
0F
EE
0F
FF
DE
11
0F
F6
27
00
0F
E0
01
07
12
F7
FC
07
0A
F3
DB
FA
F4
03
09
DE
E7
0C
08
FE
1C
FA
F0
F9
C5
EC
FA
EA
F4
1A
E4
0B
15
F4
BD
F4
E7
F2
FC
2A
01
EB
09
0C
28
20
14
D7
DF
FF
04
DB
F9
18
03
2F
FE
FD
E3
F8
FB
FD
0A
F5
0E
F9
BF
EA
1F
1B
15
F3
08
03
0D
F9
1B
F3
21
FD
F2
E8
1C
0D
ED
EE
2E
FE
03
F6
F0
F2
FE
FB
EE
DC
13
FF
F2
10
1B
E3
08
10
0B
ED
DD
16
0A
F5
13
00
ED
18
DE
07
E2
FC
04
1C
F2
07
36
0A
F1
1B
F6
F5
CD
11
ED
EA
F4
1A
F0
FA
02
EC
11
FF
12
0F
02
12
FF
D0
16
0F
0B
0D
0B
F6
0D
06
E0
ED
19
FD
04
18
35
19
FB
0B
FC
F3
FE
0B
15
0B
EE
24
EC
E9
E0
F7
0D
1F
FC
22
FE
17
CF
02
02
21
0D
00
15
09
02
FC
F6
08
F7
19
F7
F6
10
03
12
05
EA
04
0A
06
FC
FD
0B
E5
04
0C
C5
F9
11
FF
18
04
FF
2C
02
11
03
D3
0E
07
21
00
DA
F9
1C
E5
04
A9
1C
0B
0C
13
01
E8
0C
01
03
10
01
EE
07
DF
F9
17
F8
1A
FA
12
F8
E4
01
08
E5
F3
03
F1
DA
F7
FA
EC
E9
F3
FD
02
14
13
0D
FF
F5
1A
24
01
EB
11
E2
F4
CD
1A
08
FE
0C
F7
F9
FB
07
FD
17
D4
F8
FE
08
15
FE
05
0B
F8
2E
1A
25
05
E5
FA
00
15
EE
FB
C8
15
DC
01
F9
21
FA
0C
04
04
E4
24
04
19
02
22
F9
F4
00
0D
FE
D0
02
F1
F7
32
F2
0B
EF
EA
03
F9
EC
00
09
FD
FE
F0
04
C2
00
F4
F9
26
F4
16
F9
F9
D8
F3
0A
11
FD
F1
FB
18
E5
03
00
1F
18
E1
DE
04
FD
06
1C
F5
E4
F3
DC
FB
06
28
20
C8
E9
F4
E2
C9
05
0F
EF
19
1A
F7
E9
09
F1
05
D5
ED
14
0B
00
1D
F4
F0
F7
0C
E1
FE
17
01
00
0B
EE
DD
00
18
FE
08
11
01
12
08
FB
04
E4
1F
FD
14
15
0F
15
FF
F0
02
F5
15
FF
0B
EF
0F
11
24
FA
