09
15
F1
CF
DF
0F
03
11
01
0A
02
01
FB
DB
E3
FF
11
F5
00
0F
F1
02
E1
DF
29
03
04
FD
03
07
DB
ED
F8
D7
F9
EB
FB
02
FD
F3
FE
D5
08
14
FD
02
0E
F8
F4
10
EC
02
F6
08
D0
F1
E7
02
0C
F0
FE
FA
23
08
D2
00
02
DC
10
CD
A6
BB
05
12
8F
ED
DC
04
E6
F6
CD
FB
E6
F4
01
40
DD
EF
F2
EE
04
DC
18
E6
11
DA
C6
B1
01
15
05
FC
B4
DF
FA
FD
F8
19
D9
EA
EF
DC
C4
F6
EE
FA
24
09
28
EA
35
0C
FA
F1
F1
DC
E7
DD
05
FA
FA
15
20
E5
EA
20
19
28
1A
00
D9
20
CB
22
E9
E5
03
13
00
C2
1D
FF
F2
03
16
E9
04
12
02
F8
BD
E3
0C
D2
F4
12
24
0C
DC
07
EF
D5
D2
09
E9
29
29
E5
10
2F
08
D9
20
05
F7
F8
2A
10
D7
F6
04
F4
F7
14
F8
F7
04
04
15
02
C3
D7
F7
05
28
06
FD
13
12
BB
08
34
FD
E2
EB
06
1C
15
D1
D6
EA
01
F3
E6
2C
20
C8
EE
E5
F5
27
34
07
FF
FC
14
18
F9
11
3D
02
1A
1D
05
0D
2E
E8
F5
E7
E5
25
D6
D1
11
07
0B
FC
EE
03
02
FA
07
FF
03
25
0D
FD
FF
F1
FE
11
F9
0C
10
07
04
F9
E1
05
06
1A
08
09
EF
05
FF
0D
18
F0
ED
F6
EC
D1
F8
C2
13
F7
02
0E
13
FC
F3
F5
AE
05
F0
1F
0E
F9
EA
EA
05
E8
F5
F7
F4
0B
06
E3
F0
08
05
0B
06
FD
07
02
02
05
F2
FF
0B
FB
07
04
02
0C
0A
FE
09
00
FC
00
0E
10
06
FC
FB
F8
F5
F9
F8
F8
02
02
F9
FA
0B
05
01
00
FD
09
06
FB
F2
00
FA
06
04
FE
F8
08
00
02
02
FD
09
F7
FF
09
FA
06
FA
F8
D4
04
13
F6
1A
F4
E8
0E
10
CF
FA
00
DC
14
F0
14
B1
ED
09
F1
DC
F0
FE
F8
E6
08
01
06
06
16
F7
FD
1D
FB
09
03
02
23
E8
F9
F0
22
F7
E9
E8
ED
E8
0C
FE
0B
1D
F5
01
F8
F0
EF
FB
07
07
17
0C
F4
15
CF
1F
D1
D3
07
F7
E5
F0
ED
15
22
EE
02
23
D8
DC
F8
F8
07
CD
FD
17
0B
F8
25
DF
F2
FC
0A
E9
FC
FB
EB
07
F8
10
FF
E4
15
FA
0F
0B
D4
2F
26
13
04
E6
DD
DD
EA
E0
16
FF
F8
FD
07
ED
AF
0C
F0
B1
00
29
F3
1B
F5
10
F3
FA
09
21
00
1D
FC
EA
0A
12
06
2F
06
06
EE
16
FF
0D
EE
F9
10
02
ED
D6
05
E2
0E
14
00
DA
FD
E9
ED
0B
E8
EE
E3
06
02
05
F5
FD
22
13
EA
D0
0B
06
05
0B
0D
03
DA
F9
1B
FF
04
C0
E7
E6
06
1C
02
CE
0F
03
13
01
EC
0E
05
E2
EF
0F
0B
E6
0F
06
14
BA
F3
10
D6
16
1E
F3
F9
E5
DF
18
03
0C
16
FF
FE
EC
1A
37
1F
E3
F5
0A
D0
E1
EE
EA
EF
E9
EF
0C
D1
0E
1A
FD
E9
14
05
CC
D7
F7
1B
F9
12
F9
00
20
12
04
ED
0B
31
F6
19
13
03
1A
E8
DC
F2
F5
F8
DB
00
E9
FE
F5
E7
E2
F7
80
15
08
D7
0D
FD
26
1A
0F
B5
EE
2E
1F
32
15
0A
F1
EE
EC
E6
F4
0D
0A
12
04
ED
03
FF
A3
EC
F1
1D
28
10
0B
FF
E3
01
FD
23
21
0F
E0
07
14
F9
26
1D
D5
04
EF
FA
EA
1D
1C
EC
38
E4
FD
F5
E7
39
00
00
12
06
15
E1
04
E9
39
DE
0C
FF
FC
12
05
13
D7
18
17
E8
13
1D
1C
F6
01
0C
FF
F2
DA
00
02
2F
36
0A
EA
E8
F0
17
1D
E7
2B
05
04
30
D6
DD
F9
05
2C
0B
13
0A
27
DB
24
15
C2
D3
04
E8
FD
08
06
0A
E0
F0
1D
0D
07
1E
11
24
FE
F1
DB
11
E2
3C
06
14
20
E3
D0
EE
F6
00
29
E8
E3
1F
11
17
00
FE
E8
28
FD
12
02
02
EF
F8
06
11
22
F8
E2
EC
DB
0F
11
16
FC
23
F5
EA
FD
F8
FE
E9
F6
EE
DF
E9
EA
FD
FA
02
02
FE
D7
F7
0C
FF
E8
BD
02
14
D9
CA
FF
F6
F4
F4
1E
FC
FD
04
F2
E8
29
20
F5
FB
CB
FE
0C
16
CE
DF
01
FC
0D
FC
CC
E3
E1
DC
29
10
0B
10
FB
F3
06
E7
F8
F5
CD
1C
28
FB
ED
06
F8
02
20
11
08
FC
10
FE
00
E5
03
F4
0D
E5
AF
11
20
16
08
F0
F0
E9
E0
E9
FF
0C
12
FD
FA
04
18
FE
DF
04
D8
18
D0
0E
16
FA
D2
09
00
FD
FA
F4
2C
06
0B
0E
C7
DE
D3
C3
11
DB
04
9E
01
D4
F4
1D
10
0B
F8
F2
2C
12
01
FA
22
C5
07
20
08
F1
F5
E9
FF
FF
FB
2F
2A
1B
FC
1C
03
FB
0D
D4
19
FE
C3
E6
EA
00
F3
02
E0
36
E8
15
08
1C
CE
F6
1B
11
FA
ED
1A
F4
FA
FD
08
FF
F9
FA
F8
F8
02
FA
01
FE
F8
04
FE
07
07
F8
FF
02
05
07
08
FB
07
03
FF
F8
01
00
FC
07
02
09
0A
FE
02
08
FA
05
FF
08
FA
F8
FA
05
09
FC
FD
F8
F8
04
06
05
02
FE
06
02
03
03
FF
05
F9
01
08
1C
04
FC
3C
15
30
29
2C
11
EA
07
0E
DF
1E
0A
1F
09
FA
1C
09
F7
E7
0F
EC
35
FD
E7
F6
D8
0E
1F
1C
EA
F4
13
E2
EF
0F
24
ED
16
10
E9
12
DB
FC
EB
0C
E6
0F
1A
B9
EC
FA
1A
F6
F5
DF
F2
EB
00
B6
DB
05
C7
1E
F7
01
EA
E4
02
19
09
0E
27
FB
E0
08
EA
0C
FC
2B
DB
E3
F8
FD
13
EB
10
04
AD
1E
14
EF
F7
24
E9
04
F4
EC
ED
01
FB
21
FB
0C
C4
D6
12
1C
04
05
E4
F4
F0
04
E1
E0
E0
02
FF
C5
04
09
F7
EF
D4
0E
CC
0D
C7
F7
BF
14
E1
F9
E4
20
0F
F8
EC
DF
04
19
E4
FD
06
E7
00
06
02
C4
09
F8
F5
BE
26
0E
16
10
F2
E4
12
07
F4
03
DD
E0
DE
07
C6
CD
04
D2
02
20
18
ED
F8
F0
18
02
1A
03
19
00
F1
24
F7
00
15
31
1B
DF
FA
FB
11
FF
FF
E8
FA
15
F1
F1
F0
D9
0D
0E
BB
00
CA
00
F8
04
EE
EE
1B
E6
F9
FC
17
FB
0A
20
ED
E3
BD
FA
F4
11
E3
F1
DD
C8
E7
02
EA
00
E2
0E
07
F2
0E
FB
22
05
E9
05
E5
E5
1C
08
16
05
08
F9
05
01
07
09
02
FD
FC
FD
F9
FC
02
F7
00
09
07
F8
05
08
FA
01
04
FB
F6
F9
F8
FA
05
04
01
05
06
F9
FC
07
07
00
05
02
FA
04
01
0A
F5
00
05
03
FB
01
08
02
04
09
F9
08
F8
01
08
09
09
02
F8
FD
01
FE
0E
FD
DF
FD
10
1A
E8
1F
08
06
18
D0
94
11
0D
08
C9
C9
DA
07
FA
FF
FE
01
03
FE
FE
E9
10
17
D1
17
F9
F3
E7
18
E0
11
0C
C0
00
DA
E3
1B
0A
0C
F7
FC
FF
12
FC
1A
1B
30
DF
12
EA
25
18
EA
F6
F5
00
1F
06
EC
D1
D7
FD
19
15
04
FB
FD
DD
07
FD
00
EE
0A
F2
EC
10
0E
F8
F9
E5
F0
19
FB
00
EB
17
FA
D6
24
03
F9
EA
0D
0D
1F
09
E2
08
F9
10
EC
1B
FB
0C
03
F2
CD
F2
DB
21
FD
C2
0D
F4
FB
17
E5
2C
CC
0B
EE
EF
02
FA
E6
E6
1C
ED
0F
15
01
26
FD
D1
0B
E5
03
16
02
2F
11
FD
FB
20
F0
DF
0F
1D
22
FE
F5
F6
19
E4
17
16
2C
F2
E1
FA
EA
FE
38
0A
07
0A
1D
20
D1
0E
14
05
1F
0F
0C
0D
CE
14
F9
E5
CC
FF
FE
E1
0E
DF
FA
E4
13
16
1D
E8
01
31
FB
FD
E9
0E
E7
E3
ED
2E
ED
D9
18
F7
29
D2
EF
E0
07
16
FB
E5
D5
1D
FB
FA
EF
15
0D
05
02
17
F8
35
21
FB
3D
05
11
0C
F6
EA
15
03
24
F4
09
FB
EB
18
FE
10
DA
E8
16
04
EA
D6
FE
02
ED
ED
0E
27
16
0E
0C
11
FA
E8
FA
F4
E5
ED
FC
DA
10
F7
EF
CD
F0
FA
E4
F6
2D
FB
BC
FB
E7
ED
09
D8
0A
08
F3
09
0A
E4
0B
0E
E5
20
18
52
D2
BF
DD
10
22
FA
F1
DF
F5
F9
BE
1A
12
EE
EE
E8
EC
01
DB
F3
15
17
EE
F3
13
28
1F
E8
D9
EC
05
00
FC
0A
CC
F8
DC
01
F9
0B
F7
FA
04
FC
E0
07
00
12
FD
EE
C1
F2
1C
E7
07
1D
EC
26
2C
E6
1B
15
18
FB
F7
FC
F1
00
06
18
33
01
F9
1D
EA
12
C6
22
F4
D1
1F
E4
23
03
E1
0A
EB
1A
FC
07
14
EB
20
BD
DE
F7
F4
ED
06
F8
CD
FD
14
10
EF
0C
00
EE
01
08
F8
FF
05
EA
C5
10
0C
F3
FE
DB
F3
FA
35
23
2D
F9
11
02
F2
F1
13
05
24
00
D7
EF
F8
31
11
FD
C8
03
06
E1
FC
24
04
D1
00
F5
E7
D2
07
F7
EB
31
16
E1
08
EF
18
F6
1C
02
0B
FD
06
0E
94
D6
09
F9
CC
22
F4
FE
0F
ED
BF
F3
16
F9
00
F6
07
E6
11
E4
DE
E6
FA
FF
2C
04
F7
E9
1D
E7
CC
06
EB
1B
F8
B7
CD
FB
F9
EC
21
FC
03
1C
F0
19
DB
05
F2
14
20
F0
F2
15
01
F8
04
00
03
C3
F2
F9
FF
ED
EC
05
AE
E0
03
A9
18
0E
08
14
0C
05
06
16
F8
15
07
08
1C
ED
EE
BE
F4
FB
1D
E3
15
EE
09
D5
1D
D8
14
2E
0B
C5
F1
FA
FB
C8
EE
03
82
0E
D7
05
F9
23
2B
03
FA
F1
B4
03
DB
13
0B
13
FC
04
12
F7
D3
07
E9
EA
2D
DF
EF
13
FD
F3
E4
D1
0F
29
FE
0A
D5
F1
1A
FA
D8
15
0A
06
D9
02
F2
F4
FD
14
03
28
15
19
D8
DA
ED
0A
0B
0A
FE
E6
06
F5
18
02
E0
07
19
F6
E6
FB
EB
E3
DA
FF
0A
22
F6
F2
F1
F2
02
04
18
0D
04
D4
EE
BF
E2
E8
D5
F1
E6
FD
29
BD
F5
FD
04
E6
00
0B
E7
13
F1
F5
08
1A
00
0C
18
F8
F7
1E
E7
F3
CD
FA
D8
FC
FE
CE
E6
D9
E3
14
42
07
24
D9
0C
2E
1D
24
FE
20
19
1E
C4
D6
13
05
0B
1E
F0
F9
F6
E0
0A
E2
18
DB
08
F0
EC
01
F1
E6
C9
C2
DF
3A
FD
30
15
FD
E5
FC
08
D7
28
EC
E8
F9
FA
DA
0C
B5
D3
09
21
BA
FC
14
26
46
14
03
CD
11
20
00
2A
FB
FB
0D
01
2C
1C
1A
2F
E0
E9
2D
F4
F2
F2
11
F1
F7
F8
2A
00
24
05
F3
80
D0
FC
07
00
FD
CF
06
05
19
EA
11
27
02
F0
1A
B4
D0
F9
15
D8
F7
32
E5
1A
FE
F5
F5
FA
ED
F4
80
FE
E3
31
FE
FE
22
17
1D
CA
E5
C9
F3
EC
0B
03
D2
10
21
D9
08
0B
30
D7
DE
C1
F3
DC
03
17
E9
0C
C9
05
EE
20
C1
0B
06
D0
03
22
04
0F
04
E7
D4
CE
C4
0D
F6
F7
0F
03
EC
02
1B
18
F0
F1
11
E9
FC
FC
03
0F
FD
02
E6
04
D8
E0
09
01
0C
F1
02
0D
1E
F6
F5
06
AD
FC
F4
27
C0
00
01
0A
F7
06
10
E8
F3
09
E9
09
F2
FE
F2
0B
CC
E3
F2
06
FC
1B
F8
FA
F8
CF
09
18
F5
08
05
00
05
07
10
E5
F4
16
11
24
D5
D7
1C
11
0B
EC
00
F9
F4
D3
EC
EC
06
FE
F2
12
10
0F
CF
EA
FB
E2
17
18
B4
0F
F9
F8
FA
F8
11
D4
0D
16
FC
1B
EC
FB
01
E8
EA
D7
E2
0E
ED
12
98
E7
02
17
E2
02
CD
28
D6
05
F3
FF
10
F5
F6
16
02
09
FE
FA
F1
F1
01
07
E9
E7
D5
24
33
F9
EA
F7
DD
F2
D3
1F
E4
D5
13
E8
FE
DD
20
FF
04
EA
FE
D8
9E
CD
DE
0B
17
B9
1F
08
28
28
09
A0
14
14
EE
07
E1
DF
F0
E4
1E
2F
14
B9
E3
18
1B
E3
CA
0A
07
08
2C
AA
01
20
B9
E5
09
D7
24
DC
F3
18
F8
1B
F3
13
EE
02
12
EB
06
00
0C
0E
0A
F5
FE
06
19
18
FD
EA
E0
D6
F6
DD
04
E4
FB
FC
0D
EA
F7
BA
FC
1C
FF
EC
E3
04
01
FB
1F
00
F5
FE
0E
DB
F7
1A
ED
EB
F6
05
F9
D4
FE
E2
E6
04
08
E4
1F
F4
E9
CA
DD
F7
F9
FE
0C
0E
FE
BF
93
02
F9
F8
E6
DA
FB
E5
F0
11
FB
E4
FE
19
25
D4
EB
F3
EC
C4
FB
3A
13
F7
28
11
F6
E0
1D
FE
18
1D
29
11
09
01
18
1A
26
E8
F4
FC
E2
EF
1F
01
FA
02
29
08
D5
D8
36
0C
FA
ED
0F
23
28
19
06
F5
08
13
FD
EF
EB
1A
F4
E7
D8
B4
CC
EB
05
D3
E0
11
2B
E1
EB
EA
17
F8
1C
13
DE
DD
07
01
F2
EF
E6
03
05
DD
1D
0A
F7
F5
0A
EA
17
F9
0A
13
01
FD
E0
FC
EF
09
10
07
16
F7
FE
11
FC
FB
1B
E1
D8
0D
0A
18
19
0B
1B
03
FA
0C
FA
E4
08
FA
02
F4
FE
F5
F1
15
DE
01
1F
08
0A
AD
0E
9E
E6
02
0B
06
EE
E7
10
1C
D3
07
1B
EE
04
FA
14
F8
07
C1
1B
19
F9
FF
08
0B
02
15
FB
21
F6
F8
DF
F4
F4
DF
1F
07
06
08
EC
FB
0E
1A
EE
01
E0
FB
06
FA
B0
FF
1F
EC
F7
0B
D9
DF
02
22
10
FC
2B
09
E1
01
D6
BF
0C
22
1B
E8
04
F0
E8
F0
12
0D
D9
FC
00
F7
08
08
F1
F4
09
1D
FF
1C
E9
E2
08
0F
01
10
06
11
DD
F2
F1
EF
18
F2
11
CA
09
10
FA
F4
1D
F0
0E
05
BF
0B
CD
E6
04
FA
F2
F9
F3
11
23
0F
E5
13
03
F7
FD
C1
E9
ED
1E
01
E3
F9
A1
FE
ED
E8
07
0B
EC
D3
02
D6
09
0F
F6
D1
EA
0C
23
02
03
DE
0B
FD
D7
ED
0D
F7
08
F4
08
10
F7
F8
F0
0F
F1
00
24
C6
FB
00
19
0B
E9
3C
04
44
2E
FC
14
09
DE
0D
04
F2
2A
FE
0E
F1
11
00
1E
17
14
E5
EF
13
18
F1
02
0F
26
0C
17
00
12
F2
1E
06
07
EE
F3
E3
0A
38
1A
11
0C
29
01
F3
0F
03
02
11
E1
03
AE
E7
CF
E3
EB
1F
FC
CF
F2
25
E6
02
F5
FB
E7
18
FD
AC
22
18
D8
D5
0D
05
05
F7
F8
F4
02
02
02
ED
03
2A
F2
23
DB
22
F1
F7
FF
11
F9
1A
16
E9
E0
CC
06
00
FF
06
CA
F0
22
E1
0C
26
E0
FD
22
E8
04
11
1B
EB
15
39
E0
F8
1C
FE
39
2A
F9
F2
07
1C
15
DB
DB
FD
01
29
D8
16
E1
0E
DA
26
F6
34
DB
10
09
0E
FF
E6
11
EB
34
36
1C
02
32
2C
F2
3C
E0
2E
E2
E2
E7
13
05
46
E8
ED
ED
D3
F4
17
DE
10
03
F6
D7
DC
0F
F3
F9
07
F3
FB
FB
F4
19
E0
CA
18
FE
1C
F1
07
CC
10
D2
F7
FC
F8
00
16
DF
EC
0A
FF
E9
03
1A
0B
0C
08
D2
15
DF
07
00
04
CE
E8
19
0C
D3
D8
CC
15
1C
C3
F6
2A
D9
09
DC
0E
EA
11
25
DF
F3
0C
CD
E7
11
1D
1F
0D
44
01
01
F4
0D
E7
E8
40
F6
CB
41
E0
E7
E5
F5
F5
15
F0
31
02
F2
2C
02
D6
C1
00
1D
16
EE
F9
2F
FC
D8
01
F6
06
F3
0E
EF
EE
03
27
13
ED
01
EF
03
F7
03
F3
E3
11
11
E5
01
FE
E6
02
10
E3
E3
09
E4
D5
12
E8
EB
DE
E8
05
05
DC
F4
FD
D2
DC
0A
F3
1B
CF
FE
00
00
BC
F6
0B
F1
F4
19
F3
F8
DC
F2
E8
F1
FA
F2
FA
04
DB
E5
06
F4
BE
13
00
14
E5
FD
DA
1A
F3
FE
0E
3A
E2
21
FC
22
0C
08
0C
22
19
FC
F3
00
E2
2C
DA
CA
13
0C
F4
EF
23
FB
F3
CF
F6
0C
09
EF
E2
EB
D6
EC
EE
05
27
BC
F8
22
14
19
FA
F7
05
07
D0
02
FD
08
13
17
F2
E4
E5
F8
DD
DC
FA
F1
0B
04
04
1A
FC
0D
0A
03
E6
23
01
1A
F0
F8
F8
12
F3
00
03
D9
FE
33
36
DD
17
0F
EE
04
12
2E
E8
F0
04
0A
0B
FC
09
00
FD
D3
DB
FE
0B
AD
D9
E8
FA
1B
1D
EC
F8
E2
F7
EA
03
1B
FD
09
06
3B
06
03
0D
E5
08
0F
0F
F3
F9
E5
13
FB
17
F6
02
E4
07
CC
09
E7
FF
E0
13
0E
04
13
11
2A
07
14
19
FC
FD
02
FA
00
D3
FB
16
07
E1
02
F5
D7
DC
0E
ED
06
09
24
00
E1
E2
EB
E6
EC
1B
E1
22
FB
D8
21
E6
E9
DC
23
E7
0C
08
F8
1A
0A
F1
0A
DD
FE
03
05
FE
08
08
FC
00
03
F7
FB
01
00
02
04
FA
FF
0C
07
05
05
FA
05
09
FD
03
04
FF
06
FE
FC
0A
07
FB
04
00
07
F9
FE
F5
09
00
F9
03
06
F3
F9
0B
06
F9
04
FA
06
FE
0B
F4
FF
01
04
0A
02
FD
07
FB
EA
F3
F3
0F
EC
00
E3
13
25
05
06
D6
DC
2B
D2
28
E2
20
F3
0E
FA
03
EC
06
C8
FF
F4
C4
FD
F3
43
22
E5
07
03
04
F0
01
EF
0D
31
26
02
00
F9
D1
E2
E1
FE
1A
D7
0F
1C
FF
01
1E
09
1F
FA
F7
F5
05
0A
03
DB
0E
17
CF
E5
ED
F8
F5
06
F9
FB
C6
C8
02
0B
E8
28
FF
03
0D
F8
01
17
E7
AE
F8
2F
1C
07
13
0B
09
DB
D0
F1
FD
E3
FA
EE
1B
0E
E0
D8
FE
F1
E0
00
D2
D3
0C
1C
0E
01
07
FF
F2
10
FF
ED
D8
FD
1F
EF
E6
18
EB
F3
17
FE
1A
10
12
0F
F6
1A
BB
E1
F0
D6
F8
F6
12
C1
45
00
1E
F9
16
22
F2
00
E9
02
24
D4
05
3C
F5
F8
E9
00
26
42
F9
D9
FB
0D
16
04
EC
F2
20
0B
F4
DA
F4
03
CA
12
08
19
1A
FB
14
1D
DE
FB
DF
FF
0E
F1
0C
07
1E
EC
2B
EC
0C
2E
DA
E4
E5
F4
28
44
32
AB
06
00
E2
0B
F1
1E
0E
31
1C
FC
D9
DD
0F
F9
F2
E8
B7
EA
12
17
E6
03
FE
F3
FE
E7
ED
0B
EE
E9
C6
F1
96
02
F0
CD
FB
02
0C
17
FD
40
27
E2
00
15
0B
ED
E9
F3
F2
FE
1F
18
12
11
FD
E5
F6
03
0F
D6
21
28
0E
F9
01
17
05
E1
EA
F5
03
E7
0D
E5
0E
CC
0A
21
12
09
F4
F3
F3
FB
F7
FD
23
FB
06
C9
CD
ED
0B
FD
F2
14
18
F5
06
F3
DE
0B
FC
14
FB
E1
0B
06
0E
04
11
FD
D5
F2
06
FF
03
CB
F0
FD
E3
F4
0D
FD
0B
E9
21
EB
19
E3
0C
E1
00
FD
23
03
E5
0E
13
0D
0A
FD
00
14
FA
03
D8
0D
FD
03
15
18
17
04
E2
DF
0A
00
E1
C8
0E
28
06
03
04
0F
12
D5
EC
E4
EB
1E
EA
30
03
0F
1E
03
D2
05
00
1A
F6
EF
05
05
EB
0B
11
FA
ED
0D
FD
0B
D0
E5
E9
1A
B5
F5
02
15
02
01
F7
03
1C
D6
17
03
17
F3
FC
E9
D0
D9
FC
F4
3A
05
A1
E8
E7
1D
03
F3
F1
10
FE
FB
EA
FB
D6
DB
DF
39
D4
0A
E3
BC
FC
D7
08
D2
01
FC
31
2F
D4
EE
FB
E8
07
1B
CF
01
0A
A1
F4
F4
27
BF
CD
FA
E2
26
DD
06
D8
14
EE
13
EA
EE
F3
FE
06
C7
D7
FA
FE
00
E2
FB
FA
17
12
1E
01
00
F8
E0
E9
C4
FB
FB
02
0A
ED
E1
E0
04
03
13
0C
0A
FB
E6
06
F3
FA
07
F5
F7
F7
FA
D6
01
D5
F4
14
B6
01
27
E7
FB
DD
F1
D0
F3
F6
EC
C5
CD
F9
E5
FA
03
27
00
15
F1
0D
E8
26
20
04
F0
1A
D4
F8
F6
F1
CB
CD
07
F0
EF
FC
E0
F7
02
0F
F2
23
FD
BF
EE
E4
D4
08
1D
ED
1B
F4
0C
F3
F9
F4
04
F8
FE
F6
F5
D8
E9
D2
23
F0
FD
C6
FB
10
01
F8
FF
DB
F6
FE
E1
FD
04
10
1F
FC
ED
EA
F2
FE
DF
0D
CD
15
DB
F4
07
FE
DF
FC
F4
19
01
E8
E4
39
ED
0A
E4
06
0C
DC
1C
BF
EF
B6
15
FD
C4
06
E2
ED
0A
EC
FC
FD
E5
E7
F0
0E
CA
D8
ED
06
08
BB
D1
27
05
E9
CE
EE
F2
F8
ED
F5
DE
F9
E3
E9
FB
ED
D9
B7
06
0F
C9
F8
03
19
F4
EB
19
D8
1B
11
F8
EA
EC
E9
08
08
E7
E7
02
E2
04
C1
05
FF
12
18
0C
E3
BB
F9
F5
04
E3
E9
FB
EC
FA
DB
EC
F2
09
01
F6
E6
FF
0C
1C
FF
CE
F2
0A
B4
16
06
0B
06
EE
06
F8
D2
99
01
D6
05
19
FD
04
14
22
EF
04
1D
06
0D
0B
DF
E6
1E
1B
EC
EF
FE
10
06
FF
0B
27
F5
D3
E2
14
14
1C
1D
FC
16
1B
C2
26
36
FC
E0
FD
FB
0D
02
E5
F3
07
04
F8
EB
0D
F8
C1
11
EA
00
19
07
FC
1C
E5
0C
1A
F5
0D
23
F9
15
14
F1
FE
F3
09
EA
0C
D3
14
F9
FB
01
F9
17
FE
F4
14
0B
06
12
FA
EE
12
0E
DF
29
EF
E3
1B
E9
14
1A
C9
13
F5
E3
11
00
F6
07
0A
02
FB
EB
D2
FE
FF
F5
F4
02
CF
E8
E6
05
04
0D
06
FF
F8
DF
F2
C4
FE
09
06
FB
DC
08
E6
19
D4
03
ED
09
05
10
DC
F3
01
01
05
FB
00
0B
FD
09
04
FE
F9
06
00
00
0C
FB
07
02
01
04
01
01
07
06
FE
FA
F8
FB
FA
04
02
09
09
05
02
07
05
F1
F8
01
F6
FC
00
F9
FD
04
07
FE
F7
01
F8
00
04
06
FF
F5
04
FC
04
06
FC
FD
FE
05
0B
0D
13
1B
F6
0C
05
E2
18
01
C9
F4
E7
E3
1D
EA
21
D3
0F
0B
FE
F1
01
12
F5
D6
15
F0
F9
04
FC
F7
0D
0D
0C
FE
01
DC
08
ED
DF
01
2F
EA
01
F7
DC
D5
0B
05
16
13
D7
F9
05
D8
FE
FB
FE
C6
FF
04
F2
F7
EF
0A
C5
22
0D
F5
FD
E5
ED
2E
FE
D9
02
FA
E4
DE
12
13
E1
07
FE
3A
16
E7
0A
F3
11
D2
13
F7
FC
07
06
F8
E4
BE
EC
17
22
E7
08
BC
05
0B
2B
00
21
09
1A
05
F9
ED
0B
E3
D2
10
F4
06
EC
F7
F4
C0
16
FA
17
29
02
23
FB
F7
FE
1C
FB
0A
F8
CD
0F
F7
07
30
08
21
C1
13
FF
F4
10
0B
F1
1A
04
F2
F9
F2
F6
14
0D
FF
DC
FC
F7
18
F5
DE
F8
17
1F
0B
F5
01
21
F7
FF
B4
09
FD
F2
CB
EE
00
0B
D9
04
F5
F7
A7
E5
D8
0A
0E
DD
09
F0
FE
F7
FB
C3
12
E8
07
14
FA
20
01
20
14
19
08
FB
16
00
FD
11
D5
08
02
D7
2F
FE
1B
10
EF
FA
E5
DA
1A
10
E8
FB
F4
24
04
E9
1A
E6
E9
FB
FC
AC
D5
02
13
CE
19
F2
DF
DD
05
11
FE
04
D9
ED
13
0D
0A
F0
F6
2C
E0
0D
EA
21
FF
0E
C9
05
FB
E7
E2
04
F2
F9
0D
E2
CF
10
0C
F8
DE
EC
EF
0B
F0
F1
05
E0
EB
21
C5
10
24
FA
EA
EB
DB
00
E8
0B
07
17
14
F7
FB
FB
D4
EF
DE
DF
14
09
DC
11
02
03
08
1A
0B
0D
DE
08
12
F3
06
E9
E5
FC
E0
1F
10
18
FE
D5
B9
0A
20
FC
06
29
FF
0E
BF
25
25
0D
2B
D5
26
CB
F6
1D
1B
23
FF
EE
08
03
F4
2D
18
1B
0E
24
1F
16
F0
EB
0B
F2
ED
13
F9
19
14
17
04
DD
04
2B
15
13
D8
27
DA
F1
07
05
E6
F0
16
18
F2
CB
2C
FC
D4
E5
EC
02
A6
F9
EC
E5
FB
E9
10
F7
FE
15
FD
08
16
E9
B0
FE
C9
13
FF
09
05
19
00
F6
FA
06
B8
D7
FF
1C
1B
22
0D
E8
D3
E0
09
01
22
04
DB
EC
03
0C
15
13
E7
0E
CD
14
F4
DE
01
08
DC
09
F9
FE
14
18
00
EC
D4
0D
FA
02
09
E2
17
F7
D6
F3
0D
FE
09
F4
FE
01
E7
C6
F8
D5
E6
EB
29
F1
02
F3
10
00
0F
0D
E7
00
D8
D3
0D
13
E7
05
01
F8
0C
F8
EC
DC
1A
DD
19
20
16
00
1F
EE
E4
F3
E5
F8
DB
11
ED
15
F9
06
10
09
D5
C8
0A
FC
EA
F1
FD
D8
09
02
FA
D0
BF
E4
06
0E
1E
F2
15
DF
08
CE
1A
30
00
03
F7
EE
23
16
E2
FC
F4
0F
EE
FA
03
09
B3
18
01
EA
07
DF
02
0D
F4
FD
D2
DE
E8
E1
01
04
F6
BD
ED
B6
F3
36
18
FC
F3
F4
1E
0E
04
06
F5
E0
0A
09
06
FB
E5
F4
03
F0
EA
1C
1F
F6
0B
13
FF
01
00
F0
0C
03
D6
E9
D3
22
FD
F0
F2
EA
DD
09
FC
1D
0F
0B
06
EE
E6
DD
EB
F9
F6
04
FF
FE
FC
FF
08
06
08
F7
00
FA
06
03
04
01
07
03
FC
FD
F9
00
FB
FC
07
FA
01
FD
FB
FB
09
02
04
04
03
09
06
FF
FA
04
00
FE
07
FE
09
06
07
FE
FC
FD
FB
FA
FB
F7
FA
07
F7
03
FF
FF
FE
04
05
05
FB
2E
12
26
30
1A
26
31
31
12
E4
AF
FD
0E
EB
18
2D
2B
0E
0F
0A
FE
DB
29
1E
14
09
DC
05
E9
F1
08
17
19
F1
0A
02
1E
15
01
0B
26
17
01
07
F7
FC
E7
D6
0F
04
FE
D4
FF
26
FB
00
E2
E8
C4
02
E4
40
AC
E7
0A
FC
02
27
DE
0C
EB
20
E3
0D
FF
09
05
0A
FB
F2
09
05
13
EC
F3
F7
13
FF
17
05
E2
18
FB
F2
01
10
D0
08
FB
0B
EC
0E
FF
1F
01
19
F8
EB
EC
13
DE
03
EC
FA
0B
FA
FC
E3
F4
CB
0C
D2
DF
12
FA
E9
EF
F5
D5
FA
BB
C5
EA
17
13
0A
E8
08
EF
ED
F5
BB
02
03
0A
09
0D
F7
03
19
D2
E3
FA
0A
FA
C2
40
F9
13
FD
F7
DF
FC
0A
E4
F3
EC
E5
F7
EE
C1
FC
0E
D0
F9
12
FC
DB
BA
EF
0A
03
14
0E
1B
10
20
04
07
0B
FB
01
F9
FA
0A
1A
22
FB
F3
C4
0B
0F
E6
EF
B4
EF
01
E4
EA
E8
C6
FD
03
02
07
10
FB
DB
14
02
FC
10
FA
FD
E5
DC
F4
05
E4
02
F7
E2
01
D1
08
01
EC
FC
DE
28
F6
F6
15
F4
FB
06
F3
FB
02
E8
1E
E6
0B
F2
22
F5
08
F8
05
03
07
09
06
FB
FC
FA
08
FB
02
08
00
F8
FF
FC
FE
05
FD
F8
FA
01
01
03
F9
08
F5
FF
05
FF
F7
01
FF
09
FF
09
03
F8
F9
FD
F8
FD
FC
08
02
08
01
FA
FE
FF
FC
FF
FB
07
F8
07
00
FD
09
05
05
02
F2
0B
E7
F9
00
DD
DD
0D
06
F1
24
E0
F9
FA
05
EA
C9
E4
BE
1E
FE
F5
F8
E6
FF
FF
07
F8
0B
00
ED
F6
FB
F5
0E
F3
07
F3
D8
F0
EB
15
F9
20
F9
EB
1D
EC
CC
E7
1C
10
0C
14
D8
03
F4
FB
F2
E7
EF
E9
DB
F4
1E
11
E6
F7
04
18
0A
05
F3
01
FD
25
34
EE
E7
DC
FB
EE
21
03
FE
EB
34
DA
1B
12
CB
22
BB
F7
F0
2E
0D
04
11
25
08
00
33
0B
21
14
20
F5
1F
EB
0F
0D
FA
CC
E3
D6
12
ED
FB
FA
FD
FF
1F
11
0D
CB
F1
FD
DE
07
12
DD
FB
05
0B
21
17
FE
03
20
0F
02
06
F5
15
13
0B
00
FA
18
F9
FB
08
14
01
17
EA
06
14
FF
FF
F6
1A
05
13
ED
1A
08
29
1C
0F
1C
0E
13
0A
DB
F7
0A
FB
09
04
F8
F1
09
1A
FF
04
F7
05
F7
06
02
13
14
D7
0D
33
0C
1A
0C
09
00
F4
FD
1C
DB
FD
03
25
15
F5
11
04
12
E4
0B
EC
0F
34
D4
FD
EC
E5
FB
08
F8
F6
03
17
20
FC
EC
18
29
DE
E8
EB
15
FB
E9
DB
EC
FE
24
D3
07
FF
02
25
03
1C
12
27
22
E1
F2
F0
F4
08
CD
F7
19
05
04
06
FE
0A
F6
EA
05
04
D6
F6
1E
D0
26
FA
EB
F9
09
EF
F8
03
06
FE
CD
13
FA
EF
02
F0
E6
0A
FA
00
21
0F
FC
FF
FC
1D
00
2C
DA
D4
F5
F3
F4
09
EB
A6
DC
09
C7
07
F4
E5
E8
EC
01
FA
EA
27
F5
3B
04
03
1C
23
08
C1
F4
D6
F8
0E
01
02
E5
09
F2
08
E6
1E
1C
1B
EB
0E
E2
19
FF
01
00
F4
E3
F6
19
E8
FD
03
E4
FB
19
D1
1D
06
19
08
FD
12
F5
23
2B
10
28
31
13
33
03
0A
E6
1D
13
D8
FB
FA
13
12
D5
05
C8
31
1C
F2
17
07
FE
CC
F9
10
DD
CB
11
ED
E3
FB
23
FE
15
FD
13
CD
0C
DE
1E
EC
04
F6
EA
FE
FD
0A
FF
07
FA
DD
36
D9
09
F6
16
F1
E7
DE
11
0C
15
CB
D4
E3
11
27
2F
0B
E0
0F
0A
07
0F
03
F1
BC
E4
DE
EB
07
17
F9
F4
36
07
E2
C4
05
04
FA
1A
00
D8
F5
06
EF
C5
D4
01
E0
FC
2B
06
E9
02
EE
BF
DA
18
0D
FB
CA
D4
E9
17
E6
AA
E9
11
C9
15
0B
E3
E4
17
C7
C7
F2
E7
DC
F9
C6
A9
1C
0F
FF
FF
EA
F8
F2
35
07
FB
15
F4
06
11
0C
28
E9
0B
E6
F0
F5
08
12
02
F6
F4
0C
E7
F4
DF
04
DE
EA
18
26
00
03
F1
04
F9
26
19
2C
07
FB
FE
00
EF
05
24
EE
20
D3
F7
E7
D4
FA
09
DD
0B
17
03
9C
00
F5
F4
DC
F3
0A
F2
11
E0
F9
E7
04
21
06
F8
B8
E1
FA
E7
E3
0B
07
01
DB
2E
00
E8
05
D7
DB
11
E4
DF
1D
E4
E8
F7
1F
19
FB
F6
10
12
1A
FF
11
E8
18
13
04
DF
19
C9
41
15
0C
04
DC
F6
1D
0B
FC
E0
01
EC
0F
0D
19
FF
EE
F8
00
05
0C
09
21
FB
F0
08
FE
E7
0E
F0
22
FD
0F
FC
0C
F2
05
F5
21
F9
CE
F9
FA
DF
FF
D7
D3
E7
12
0E
B7
00
0E
0F
0F
BF
07
F2
0F
EA
FB
0F
14
F4
D7
02
00
1D
16
CD
F0
EB
FD
EB
D9
EE
ED
D5
DC
D9
DF
1B
ED
E2
F4
FF
BE
0D
11
EB
26
04
22
B8
16
ED
05
1D
23
E2
04
18
FF
E0
EB
09
EB
0E
E9
EF
E1
E9
D9
FE
EF
01
0F
32
F8
01
21
E9
E8
E1
F8
25
BD
FF
02
E7
FC
F4
AA
0B
ED
16
EE
F5
EA
09
E4
19
09
E1
F4
11
CE
FF
F3
11
F5
03
FE
03
03
1F
FC
11
F8
DE
FE
15
07
09
FD
F7
13
DE
1D
19
FC
C1
D3
AD
ED
F7
01
E0
10
C2
F0
E7
F3
03
FF
E0
C8
37
CD
F8
00
DB
F7
1C
D7
0D
EF
FF
F5
D2
DE
FF
CA
F7
F5
EB
0A
06
23
F1
1F
F1
F5
E1
E2
F6
00
E3
E9
FD
26
E5
0E
D9
F8
C9
C9
E1
F4
0A
FA
02
E5
FC
D6
0B
DB
0E
03
13
E0
D7
F6
19
F1
1B
FB
FB
EB
E2
00
0A
E8
04
F7
00
2A
0E
00
E1
E8
B8
F4
F1
2E
01
0A
10
E4
09
05
15
10
E0
0E
F1
22
02
FC
0A
07
07
F8
E1
CF
F6
F6
18
08
06
EB
05
FA
1B
FD
F0
F7
16
DE
EE
EA
EA
FA
F4
B8
DE
08
DF
06
1C
FA
EC
F7
CE
D6
1F
CA
DF
CE
E0
0E
FD
FA
EB
C2
11
FC
10
D2
05
0A
28
00
0B
F4
E3
F6
C5
E4
C9
EA
F0
FE
E4
09
0A
F1
ED
B2
01
12
FF
F1
FE
0D
D7
08
EF
F2
EB
0C
04
FC
0F
F3
0E
DB
DB
C1
CE
D9
09
F9
DE
C3
F2
1E
04
DE
03
CD
E5
C5
F1
F7
01
0B
13
1A
1C
FA
01
C2
16
E5
E5
E8
09
FC
D9
0A
F2
19
F6
F6
F6
25
2D
E5
2E
F2
02
BE
E0
ED
EF
1B
F2
F5
F9
FE
F1
D7
1D
F3
1F
33
03
28
0B
1C
04
00
DC
F0
12
F6
01
FB
C4
FD
C3
F7
33
12
D4
D2
F6
06
CB
C8
07
0B
09
1B
E6
D5
02
03
01
1F
DB
F5
D5
E9
11
D8
F5
03
0B
02
07
26
DF
02
23
EB
07
FE
1D
1D
CF
09
17
FF
E5
D1
FD
00
BC
16
ED
16
F3
05
EB
E5
C4
00
0C
EA
12
FC
0D
FE
E5
14
D2
A8
13
11
DE
EB
F9
CC
F1
01
F0
0B
CB
F7
EF
1A
EF
0B
F2
ED
12
00
C9
F0
1C
0F
F7
0C
03
FF
ED
D1
1A
FE
17
FC
E9
DD
EF
01
E0
FE
0C
F5
1C
1A
C1
FF
F3
E8
9B
F7
23
02
EE
F1
0F
F8
EB
04
15
16
0A
10
00
F8
FC
11
F5
0D
F6
EA
06
E2
E5
10
0A
F1
19
0D
2D
FA
F7
BF
05
FC
00
0F
3A
25
0D
05
DE
FF
05
F1
1A
EC
05
F1
E4
DF
C3
D6
E1
F6
E0
0C
01
1C
CE
E9
12
F5
F1
0F
FD
F3
D8
EA
12
F7
D4
F1
F0
22
F7
F2
F8
10
C9
F2
FC
F1
FE
1A
00
F3
17
F4
07
F1
00
F2
CD
05
E6
FF
FE
ED
F2
1E
B5
D5
F3
E1
07
09
F6
16
FD
FF
0C
08
DD
FC
04
0E
F4
FE
FA
A7
FB
F6
07
06
15
19
F1
13
EE
11
F6
16
E0
EF
F2
0F
2C
FB
F8
00
F6
DD
F8
18
F5
0F
E1
10
DE
0D
ED
FA
0F
06
F1
EC
F3
E3
0A
01
10
F7
DE
19
D6
19
1D
DF
FA
14
FE
17
F8
FA
E5
F5
18
E8
12
17
E8
E8
1C
EB
F5
03
0E
E4
12
04
FD
F0
EE
D9
C7
13
0B
0D
F1
FE
EC
04
00
E9
05
CB
E6
04
0A
F9
EC
05
01
08
0D
FA
15
FA
1A
FE
12
03
11
E8
0B
E1
FE
0F
F0
EC
C5
08
E2
FA
E1
F0
DC
F3
F4
E8
DB
F8
F6
14
D6
F2
E5
D8
00
11
16
1D
0E
E3
0A
FF
F9
ED
BA
C9
F8
26
F5
0D
0E
C3
F9
E8
00
15
13
F7
CF
07
08
19
1E
DC
E3
E1
F4
D5
03
E7
B8
E7
13
1B
FB
08
CB
01
FC
E5
22
19
24
EB
F5
06
E2
D7
14
0E
F5
03
14
D5
ED
04
02
E0
E3
11
E6
F8
DA
EF
0A
24
ED
F8
13
E6
F2
30
03
E5
EA
F4
E2
0C
EF
21
F0
20
FC
F4
C3
DC
00
EE
FD
1A
D5
D7
F2
EF
F6
04
35
33
1E
01
DF
F2
03
DB
F8
DD
FA
E9
F0
C4
E9
FB
10
FC
EC
E0
F2
F5
F8
FF
F9
F1
FA
05
C5
08
F8
DA
E6
F8
FB
14
15
ED
FE
F5
F4
0C
E9
22
2F
07
0F
A8
1B
05
FC
18
F0
F1
06
10
E9
F6
BE
F9
0F
00
09
CF
C8
EC
CD
C9
21
CB
E9
F6
F2
1F
EC
FF
D8
29
0E
D9
DC
FF
DB
10
13
DF
05
00
00
0D
D3
00
12
0D
18
D3
15
F4
25
E0
0F
13
2A
D1
14
0A
25
3C
F6
06
DF
E7
0E
30
15
C0
2B
EC
0F
EE
EC
22
0E
F3
22
EC
30
E0
EF
0E
F2
ED
FB
DB
1B
1B
D9
F6
E1
03
F3
E7
EC
01
07
04
11
27
0F
E3
09
EF
20
BF
17
F3
E6
C2
D9
ED
DD
22
0A
DD
E6
09
BA
0D
DB
F5
F4
F5
FC
12
10
F9
EE
18
00
EA
E2
F7
E9
F2
0B
EC
F0
0F
E9
F9
11
F7
09
18
EC
DB
34
10
19
F1
02
F6
E9
2F
04
10
08
16
F0
08
E1
14
EF
DA
08
08
EC
2D
EE
FC
FE
F3
20
1E
16
18
08
EC
10
FA
F0
07
1E
F2
F3
00
EC
22
F3
EF
F5
F7
15
0E
E7
05
E3
E2
19
08
FB
FC
F8
C8
01
FD
04
EA
08
16
00
F1
E4
E1
0F
FB
F1
E5
E5
DD
0C
EA
F1
00
E2
F6
1D
E5
0B
07
DC
FE
E2
E4
CA
01
E6
CD
FF
D0
F4
F7
1B
DD
F7
0A
F3
05
D3
02
18
15
F9
E9
D7
00
DA
F0
FF
01
10
04
D8
09
DC
F1
FC
12
03
E1
FD
05
D6
0E
FA
25
E1
ED
02
09
0B
FA
F2
24
00
FE
E4
ED
10
F3
F5
15
FB
01
FF
E1
F0
1E
FC
0E
06
E4
FD
0D
EB
2A
16
D3
1D
09
21
0B
1C
EE
FE
0C
F0
FD
12
15
FF
06
E8
13
07
DC
D9
D4
23
EC
EF
ED
E7
1A
08
04
E9
D8
D8
02
F3
1B
E0
13
09
0B
F1
FB
07
BE
1B
0C
31
05
06
0D
CB
FA
F5
24
EC
E5
06
F0
FC
FC
FB
F7
03
E3
FC
F3
0B
EF
F7
02
18
07
19
21
01
F7
D5
CD
B1
28
FB
F3
13
07
FB
F1
13
F6
14
02
0C
07
22
0D
FE
F4
00
E8
E2
F2
CD
E2
06
00
FF
BC
1A
1D
ED
F8
FB
12
09
18
0C
F3
F2
0F
D6
E8
E3
1D
F6
10
EB
E7
09
FF
F1
11
0E
1C
ED
13
1A
18
F6
E4
F8
C9
01
ED
0B
F1
D4
C7
E8
FD
00
FA
00
FC
12
08
08
F7
CF
E8
05
FA
FD
FE
F9
FC
FE
FA
FA
03
08
F9
0B
04
08
0C
FD
F9
10
FB
09
00
00
00
F6
F9
05
FC
02
0E
07
02
FF
FD
FF
FC
07
02
FE
07
06
FE
0C
FC
FD
03
F6
04
FB
F7
04
FB
FE
F8
FC
03
04
03
FE
FB
F9
01
FB
FF
F7
02
0A
FD
D5
F3
E8
15
F4
1E
F7
01
C8
F0
1A
ED
F4
11
03
FB
0A
F0
27
DB
02
DC
03
F9
04
EA
29
10
08
1C
E2
FF
FC
FD
FB
FB
EF
3D
06
FF
DA
E0
F6
E9
9C
D0
07
B6
07
EE
11
F6
06
E7
0B
FB
FF
FB
F9
10
01
BB
EF
12
CE
E6
A7
F6
E2
DC
E4
0D
C9
DB
EB
E8
CD
15
14
D7
D7
FE
FB
C7
B7
03
E8
FB
DF
EF
18
F6
0B
E2
E6
D7
EE
07
0B
F6
F7
12
E9
D6
18
FF
CD
09
C7
F0
06
23
06
FA
09
D4
0A
ED
EB
AA
FC
EB
23
00
D5
FF
F9
1E
0C
0F
0E
03
0A
12
08
13
EE
F5
FF
19
F1
F8
2A
E4
FB
06
04
1C
10
10
F7
EF
DA
E7
2C
06
F9
1C
03
E5
EF
03
0B
1A
15
F2
EB
10
F0
22
06
F2
1C
18
F3
E5
F2
F2
BE
15
08
00
04
E8
FF
22
F9
F1
20
29
FA
F8
06
04
24
05
D7
D2
02
2E
CE
01
03
01
FE
F2
0C
D7
0E
FB
FA
1D
FF
EF
D8
21
1A
B8
C6
F5
01
DF
14
E4
FD
02
0F
2C
EB
0E
1D
E3
CB
F7
EC
ED
EF
35
E3
02
E1
D2
0C
E3
1A
2C
E5
1A
12
0F
1F
FE
F8
01
E2
C7
F5
FC
ED
F7
07
12
17
10
C7
EC
E9
04
12
00
0A
EF
02
FC
1B
FE
F9
00
0E
E3
DD
10
F3
DE
E7
C5
AF
1B
F4
03
E2
10
FD
04
F0
FF
FB
E5
06
DE
F8
E5
14
04
F2
F0
05
EF
0D
C1
04
08
F5
08
18
10
01
FE
F1
06
0F
0C
DC
D7
1A
00
07
C2
F5
36
FD
04
01
0B
0A
05
FA
03
F9
EA
15
02
00
0E
1C
00
F6
EA
01
F8
D9
DE
19
12
14
02
EE
0D
0C
E1
F3
17
2D
10
D5
D6
06
13
DD
DF
03
1F
1A
FA
1D
1A
1E
D0
14
CB
E5
1F
FA
2E
2D
00
01
0D
FC
28
20
1E
E7
CB
F2
17
FA
00
02
E7
EB
04
0B
22
00
08
F9
F9
F1
CB
20
E1
FB
01
18
EF
28
FC
09
DF
00
DE
0C
E0
D9
EF
EC
F3
19
08
C7
1C
E3
02
F4
F9
F5
02
00
D4
DD
FF
BC
DF
08
2B
E2
E7
F9
C0
FA
EB
F6
BF
00
EE
0F
27
EB
E9
1C
FC
1A
16
01
FA
10
80
1D
14
2C
C9
CF
25
DC
1A
EF
F3
00
06
00
02
F9
01
13
2C
F1
B2
C8
0C
FA
EE
F0
D6
E4
DE
F8
07
EA
00
04
19
EE
D2
E2
F1
F6
F3
00
FC
E7
D5
05
ED
1D
00
F2
00
07
F8
18
05
EC
BC
04
DE
07
13
FB
FA
18
DC
FF
17
BF
15
D3
EF
C7
F1
F7
FA
E4
FC
E6
DE
09
20
1C
FC
0F
D8
E8
D8
0F
0D
15
19
02
E6
19
E8
EC
F6
E1
FD
06
FF
EF
DF
14
E2
EF
CD
18
ED
D4
E9
EC
0A
24
23
F4
EA
E1
0D
F7
EC
EE
F9
E9
0C
E8
01
EC
38
DA
E6
EA
D9
ED
FF
FB
C4
0B
F8
EE
10
05
FE
F6
01
12
F2
07
C1
06
0E
00
E4
18
CB
0D
EB
03
E8
29
B5
FE
0B
1A
F9
BE
D7
2C
F5
03
04
2B
06
C9
DF
DB
00
D9
21
DA
E2
1B
06
E1
0E
FF
FB
E2
E2
E5
0A
E3
88
E9
02
EC
08
C1
C8
F9
FA
06
BD
22
AC
C4
FC
EA
FB
14
F5
0A
CE
EF
D9
12
02
FB
E4
07
0D
F2
07
D6
F4
E2
28
13
EA
F9
EB
E4
36
01
F7
DC
FA
12
FB
CB
E5
FB
26
23
03
0E
A7
CE
23
F7
E3
FF
E8
F9
F6
0A
04
BF
01
C3
E1
E2
00
14
24
0E
DE
EA
09
CA
11
08
03
19
1B
F8
FC
DF
CA
D7
E6
F1
F2
EB
01
E6
17
10
00
FB
E3
08
0E
FA
CC
16
FB
F2
F9
EA
04
E5
F0
FA
2E
FC
F1
C9
C8
D5
2D
0D
E5
0B
F7
E0
19
3B
FF
FB
1C
0B
DF
DA
C9
06
09
10
ED
D3
07
06
DF
2A
FE
EB
33
2F
F4
17
D1
F8
31
FC
04
2E
F7
12
0C
F8
FD
0A
D3
F5
26
D7
F6
F7
E8
07
0F
1F
EC
FB
0B
0E
06
08
DB
DC
1C
0B
F1
F9
27
F3
11
F3
D4
1A
A3
13
01
D7
1C
F5
F4
F1
10
06
F8
FE
BB
0C
EC
E5
01
12
DE
03
CD
0C
13
0A
0A
08
FD
CF
F3
DB
02
03
09
FA
DF
18
EB
12
E1
EC
F7
ED
DF
07
D2
FE
FA
04
06
FC
04
01
04
FA
04
04
07
02
02
09
FB
02
01
00
F8
05
F8
02
FD
05
FB
04
FE
06
00
03
F9
06
F7
FE
02
F6
FA
03
04
03
FD
FF
FC
02
05
FC
03
01
06
FB
03
F5
05
F8
02
F7
FA
FA
02
05
02
08
FF
01
FE
F6
14
0B
F6
ED
F8
EE
06
05
CB
F3
E9
F1
22
0E
18
E6
FE
0B
FA
09
FC
06
F4
ED
F3
E3
F8
FE
EE
F8
2C
11
01
09
F5
EF
F8
E6
FB
F9
0A
D0
1E
09
D4
0A
07
FC
13
F8
CC
FB
27
E6
11
04
E4
AC
19
04
D0
E4
00
13
F2
08
02
0B
CC
E4
F2
D8
DE
1D
04
15
F4
FF
0C
1B
EF
CD
0B
1E
3D
07
3B
C9
1D
00
FF
E5
10
12
F4
08
DE
F7
E6
0E
09
CC
F4
07
22
17
00
08
03
F8
E0
EF
03
D7
02
D7
F7
0D
F9
F3
EB
06
DB
ED
2D
DC
34
24
F4
3C
0F
0E
E9
13
FA
14
D7
F3
FB
F4
19
2C
09
17
DC
29
FC
07
13
01
04
1E
20
FD
0C
00
FA
1D
F6
F7
EF
17
F6
20
E3
F8
02
1B
FB
0B
EB
0E
05
E3
0B
E5
10
05
EC
D3
ED
F4
FD
04
DB
08
F5
D9
FD
F1
F3
F9
0F
0A
EC
13
E6
E5
0B
DA
07
1A
29
0B
04
08
1D
0E
34
1D
FF
FE
DA
01
18
E5
1A
EB
13
19
F9
0E
16
11
18
07
F2
01
18
F3
FE
F0
1C
07
CF
0D
DF
0E
F0
EE
DA
E5
F2
0C
1D
F0
EE
DE
16
06
FA
01
D8
D7
EC
D8
15
E2
00
04
11
F8
FF
07
D0
C4
FD
D7
0D
0F
EA
F2
FE
04
00
0D
D8
E3
0C
2F
DA
C8
15
F2
F0
D6
F3
0D
0E
10
16
DE
DE
12
E9
11
E5
DC
FD
FE
16
F3
DA
E5
0B
F7
17
F7
27
F8
C2
05
F4
BA
12
1A
F3
EA
25
B6
09
EF
E1
30
C7
E7
CF
12
D3
F6
ED
02
1D
20
FD
13
E3
13
FF
FC
2A
EA
FC
F2
04
BA
56
2F
03
EF
CE
D1
39
C9
FE
DA
00
2B
DA
B1
00
FA
15
D0
14
E3
2A
F1
EC
09
1A
E6
FB
FC
DA
0D
36
F4
E1
CC
13
0D
10
EB
07
19
1A
1D
BF
00
05
1F
DC
00
BA
01
F5
E7
DB
FE
F0
A7
01
F8
20
E7
E4
2C
EF
FE
0F
F4
EE
33
EB
AD
00
1D
1F
FF
01
EF
21
FE
05
FE
14
C8
9E
08
2F
11
22
0C
E3
01
B0
05
29
1B
F2
EB
E6
05
12
22
F9
C6
EF
DF
16
E6
15
05
FA
D8
EC
EF
E3
09
0B
06
07
D5
12
E1
FD
1F
FE
03
EA
FC
DD
EF
D5
ED
C8
F5
E7
E5
FA
1B
EA
09
F4
FE
07
04
C8
04
0B
18
06
DF
D9
F6
DE
EE
10
15
D7
FE
16
22
FA
FC
CA
01
03
08
EB
20
E2
24
25
D7
FB
F2
01
06
9C
EA
EB
FA
0E
18
13
32
D8
10
FD
ED
CE
02
AD
14
02
C5
01
CC
FD
F5
1D
F7
DA
F6
DB
FF
E7
12
F6
EB
0D
F1
27
1E
1A
F5
D2
F9
1D
0A
00
FD
F8
A2
17
0B
F8
EE
CC
C1
E6
E7
FD
E6
F6
FC
EB
F8
2C
08
02
FD
D3
01
E8
1F
0B
11
10
FF
FC
0B
01
0C
D8
29
D7
07
FA
0B
BD
FF
1F
CF
0A
0A
FF
1C
FA
F1
0E
F8
F4
0B
E0
B4
F8
D7
0C
08
EA
03
C5
03
06
EE
FE
18
11
DB
E5
EC
FF
CE
E7
D1
02
01
F9
FC
06
08
03
FA
FA
F9
01
02
00
FC
04
FD
FA
01
03
F8
FE
FA
F8
F7
FB
04
FA
02
00
FD
04
07
05
00
08
03
FB
05
F7
04
FE
FE
FF
FF
FC
00
FF
04
FF
02
02
02
FD
03
03
07
FE
FD
F9
FA
09
04
FA
0A
12
E6
F8
C7
01
F5
1B
1F
0B
ED
20
03
22
D3
F6
15
09
F1
FD
2F
02
17
D7
C9
CB
06
1A
F7
18
1E
14
1D
10
08
00
F6
26
20
EB
F8
2D
FD
06
19
EE
E2
D8
1E
0D
01
D5
13
F7
28
0D
09
02
00
E1
16
F8
2E
9F
EB
FD
2E
11
31
D2
FA
FA
0C
02
03
E9
FD
04
03
0C
FA
0B
E0
18
10
FB
15
D4
06
0F
14
18
F0
15
F8
F0
F6
DA
04
E6
20
D4
FB
3B
F8
0C
FF
09
EC
D2
07
E1
06
20
ED
01
19
DE
04
01
E3
13
E7
EC
3D
C6
FB
D3
EC
CD
FF
CE
9E
CE
06
E8
0C
B6
F0
EB
05
16
E5
0B
05
00
EA
04
F6
03
1D
BE
DB
28
03
27
A8
37
E4
42
1B
04
EB
1F
14
D9
F0
08
D0
12
11
A5
14
F5
EF
0E
1F
E4
D6
F3
EE
0E
0F
1A
0E
19
00
29
D0
10
02
E4
F2
0B
0F
19
26
20
05
E7
E6
0B
0E
DB
12
C7
DB
EC
F0
00
FF
EB
EC
F4
E9
14
18
09
02
07
FD
EA
17
0E
11
DC
D7
F0
21
E6
09
DF
CF
0E
EE
FE
02
E5
05
F6
2E
FE
10
1A
0E
E7
0C
09
0D
FE
F9
1A
D4
ED
F2
07
03
02
F8
01
01
F7
FF
09
09
FE
F9
F8
F9
FF
FA
FB
01
FD
04
08
03
FC
FE
FD
FE
FF
FB
FD
F9
FD
06
05
05
01
04
07
01
FF
F9
FA
04
00
04
F7
02
05
F8
FE
F8
01
FB
FF
FA
F7
02
08
FA
01
FA
F7
09
FB
02
05
06
F5
D3
E9
FE
E7
D6
E4
08
FB
FE
E0
F4
DB
F7
E6
08
01
D8
E1
0A
01
E9
F0
C3
E2
01
E3
AF
FA
05
04
E5
F5
D4
09
C1
EE
FB
C4
07
B0
FE
F3
FD
EC
FC
17
03
D8
D6
11
DE
E8
FF
1A
01
03
ED
EE
00
02
DD
FF
F2
18
10
EE
06
01
18
EC
EC
C6
0B
D7
02
06
02
16
D7
EA
F9
20
DC
FC
DE
1F
ED
06
EF
CF
1D
E6
EE
F2
2B
F4
FC
FB
17
EB
10
19
09
1F
F6
20
05
00
ED
F5
20
01
0B
F0
E7
0C
EB
EA
0F
EE
FF
FF
F8
12
DD
2A
2E
FE
0D
08
93
15
18
C8
EF
01
EE
07
0B
07
0D
04
FD
19
1E
1F
1E
F7
13
F6
DA
22
0E
E3
00
DA
0D
F8
00
0F
D8
34
EF
15
F8
16
F7
2C
2A
1A
24
DB
3D
E3
E1
E5
0E
FA
14
17
FD
02
0E
FE
1E
21
FD
1A
0D
13
00
EB
1C
FB
FD
12
13
FE
1E
FD
02
E4
E1
3A
EB
0B
26
11
1C
04
12
FA
11
B4
F9
CC
07
FC
08
F3
F8
BF
DF
EB
2F
D2
21
0A
04
E3
03
05
21
CC
23
18
FD
04
06
F7
0D
2D
F0
D9
17
DE
C7
27
24
12
10
09
12
F4
12
02
1A
FD
FB
E3
F8
FA
01
F4
03
F9
09
E5
ED
11
05
11
1E
D9
0B
FC
DA
0B
14
F3
11
DF
05
15
F8
0B
FD
F2
09
F6
EF
F5
07
E6
0B
14
E6
0E
1C
E5
FA
18
DA
0F
F4
F4
B2
1C
F3
8D
EB
0A
F0
17
E6
EC
EB
F7
22
DC
F8
19
E2
09
D3
00
0D
F6
FE
F0
D0
FE
1A
F8
FC
DA
0A
FA
FB
04
03
25
03
FA
0B
FD
FB
15
01
D8
FC
E9
F6
1E
23
F1
00
10
FD
1A
24
DC
0A
E7
F6
F3
31
1F
F2
25
07
FF
12
27
FF
3B
16
FD
FA
1D
17
F6
DA
07
1C
18
E9
1A
FB
21
27
D6
05
B7
FF
DB
DD
26
F0
AF
06
9D
21
F3
0A
1E
F3
F6
EA
0F
1A
F6
1C
E3
05
F3
D6
D8
19
FF
E9
25
23
D1
20
17
34
F6
FE
F7
18
FD
F0
04
23
F8
09
E9
F0
1E
2D
25
13
13
15
E0
1F
C0
10
C5
E0
D0
05
F0
EB
04
FD
EE
14
F0
F1
1A
CC
F8
1C
FA
D5
FB
0E
15
A3
0E
EC
20
F7
19
0A
B4
0A
EB
D5
06
1D
FB
FF
EF
A2
FA
02
0A
D9
04
09
CC
00
FF
DF
05
1D
D2
F5
06
D3
C0
F7
D0
B0
0B
15
F0
F8
F0
12
ED
19
E3
DB
15
0E
0A
0E
05
FD
CC
13
F2
EF
03
F9
1F
FB
FA
F8
EF
F7
0F
1E
EF
F7
F9
11
E9
EE
FA
E5
09
10
1C
1F
00
0E
20
E6
FC
F9
C9
17
03
0A
0C
06
A0
D1
0C
FA
DB
12
04
F5
CF
F6
CC
07
10
08
24
FE
11
D2
E2
D7
36
24
FD
F3
F1
F3
05
EC
07
1B
FA
0A
FD
1C
04
02
07
FD
09
FD
01
EC
E7
17
F4
2E
27
E8
F8
F4
23
31
17
0C
F3
1E
F0
02
05
ED
F2
F8
D7
19
09
FA
DE
EC
E4
0C
BB
00
21
E1
34
32
00
ED
03
0B
F1
09
07
E9
DF
03
F4
F6
DB
CA
FE
0E
08
E1
F6
0C
30
0C
00
08
00
14
9E
FF
26
00
13
E4
D4
EB
1F
3C
CC
FA
05
2C
2B
DC
07
20
1D
CF
0A
0F
02
21
F3
ED
F0
E8
09
EE
EE
E9
F7
06
EE
EB
D5
EF
09
E2
EA
13
F0
EF
E1
12
C9
0C
0D
D8
FC
FD
0B
B4
31
06
0A
28
18
D8
F8
F2
EB
B4
12
F3
FF
EE
F7
E4
EB
13
DC
1C
F5
09
FF
0E
DE
0C
E1
F3
E6
F3
07
04
ED
F2
29
1A
13
EC
A4
DA
D9
EC
E8
EB
E9
F0
D6
10
1D
E9
F4
1A
D0
EF
FC
0A
C5
0E
30
F6
03
17
EC
13
E6
EA
0B
E2
0E
2C
FA
02
10
06
10
14
08
BF
F3
B3
D9
01
FF
12
1A
D8
ED
E8
0A
06
09
E2
E9
DC
CE
F6
1A
CA
EE
19
E3
17
EF
05
F9
E7
F7
03
F3
D2
C0
E3
FB
DE
D2
12
19
42
0A
FC
B3
DE
02
C7
E3
14
10
F6
EC
FC
01
09
E3
EE
F5
17
ED
DD
FB
D7
D6
FB
FE
D4
1F
EB
C8
CF
19
FE
EA
F5
C1
1F
F8
EA
00
23
03
09
FE
FA
30
09
09
1A
18
D8
E1
D4
31
1E
04
18
E1
E4
DD
26
15
04
1B
15
15
0B
B1
0F
25
F3
E9
F8
E5
DA
E9
E3
12
FE
02
FC
FE
10
F8
E7
E9
04
FA
E8
21
FD
F6
02
B0
E8
FA
EF
0E
11
09
0A
FC
E1
F5
12
C6
FB
C2
F8
FC
F8
09
E8
D8
35
00
0C
E2
19
E8
2F
E1
FB
EF
E8
DA
E3
F1
AA
E9
E0
D1
EE
0A
1C
B7
D3
DD
20
1E
05
DE
1D
10
B1
FF
EA
DD
E1
F7
08
03
D7
04
04
BF
EF
A4
29
CD
F6
0C
DF
DA
0D
35
03
F4
13
9C
EB
07
EC
E9
28
0F
FA
0C
09
D5
F6
CC
16
FD
EA
FC
05
FD
BD
19
0D
17
FE
E5
03
20
3D
00
38
D9
00
F5
E4
F5
21
2D
FE
07
02
FA
EB
DA
EF
09
18
29
15
11
1F
FF
32
F9
F8
FC
24
1A
01
DB
CA
F1
C5
E4
2A
2C
EB
EB
F1
FF
F6
E6
FF
10
38
11
1C
C0
E5
E3
22
18
EB
E0
E4
16
16
FD
22
E0
0D
0F
18
49
03
E4
2F
C8
18
1F
27
0E
F8
2A
1C
00
00
F5
14
33
D3
0F
11
08
2C
E1
F5
F3
BB
EF
17
07
E9
07
23
F9
EB
10
EB
D3
17
14
E9
21
04
FF
23
F6
F8
18
D4
EB
02
EF
06
06
01
06
19
E1
F0
E3
0F
DF
11
1D
F6
F2
EE
F0
FB
16
21
C2
E0
F9
F0
F8
DE
F5
16
EE
0C
EC
E6
13
1A
25
80
13
1F
E4
ED
F6
F8
E2
FE
F4
F1
15
F1
E0
0C
11
CE
14
E8
EC
03
E3
EE
E5
0C
02
DD
06
15
D2
27
ED
EC
CE
15
0D
01
11
17
1D
0E
08
0A
15
12
C3
2E
F0
F3
05
1D
EF
DC
E3
0C
F6
0C
08
F7
E9
EB
09
F2
F7
08
FE
05
E7
0C
ED
20
01
EC
1C
19
1C
FF
00
07
E5
E8
E0
DD
F9
F9
03
0E
F4
2C
F9
27
18
06
03
EB
0D
F9
D9
FC
BC
0A
10
D9
E0
DC
01
07
15
F6
F6
01
E3
11
EA
D9
06
FA
10
E6
FF
03
EA
F8
C6
E4
E9
D4
C2
FB
F0
02
FE
10
13
DA
D3
0E
08
2B
14
00
DE
09
A8
02
12
EE
D6
ED
EE
B7
09
F2
F2
F5
07
FE
0F
EA
F8
24
F1
FE
F8
21
11
F5
15
F4
F0
DA
0E
FA
DD
0F
DF
E8
F4
02
BA
EF
F0
FF
F8
06
10
E1
0B
12
FD
D4
D3
15
08
11
F5
A0
03
ED
F8
F4
FF
FC
E7
F9
F0
E5
CF
1F
09
FE
EF
E1
FD
1C
FC
02
28
FF
00
3D
F4
F4
08
0E
F7
09
DC
F6
01
C8
F1
E6
FE
CF
01
0C
CC
CC
1E
D9
07
EE
CB
14
E1
DE
FD
03
E2
FD
00
17
15
DC
E5
0D
96
00
F1
E2
D3
FD
1C
F0
E0
05
D4
F7
C9
F5
FB
2E
E9
F9
F9
FF
1A
F1
FC
02
FE
F8
07
EE
01
B2
F4
F4
E0
14
0C
81
E3
02
07
13
1D
0F
DE
0F
13
E6
08
44
12
15
1A
16
AE
EA
FC
03
E9
1A
E9
EA
FE
CE
1C
29
F2
EE
33
E2
EB
AC
EB
F1
F0
0F
FE
F7
05
F1
22
0B
07
C2
CD
D7
FF
E5
DB
0D
E9
C9
E8
EC
C1
C9
05
20
10
F4
EC
FB
FC
45
EF
FF
E2
0F
0A
03
C6
F0
07
17
07
F8
F9
01
04
06
FB
D3
FB
03
CD
D6
08
DC
F1
F4
F6
08
16
E0
FD
0D
E3
DD
E9
F4
16
09
FF
11
EA
13
FB
24
FC
EC
0A
EA
13
04
0D
F8
F4
09
08
F8
D2
D9
BE
CF
E3
F1
9A
08
F4
04
F6
FF
D9
D7
2A
1B
00
D1
EE
F1
26
1F
E4
12
FD
03
18
D6
F4
25
02
2A
E4
0A
08
0C
F5
FB
0F
36
EF
23
FA
29
21
33
34
0C
25
13
29
10
B8
F4
FE
E7
FB
EC
0F
F6
F7
DE
E5
F0
E6
B9
F3
05
CD
03
DC
31
FE
19
AD
EC
FB
F0
DE
12
0E
F7
FF
2E
22
CF
D3
EA
F7
FE
B0
C5
F6
F2
E3
DC
0B
C9
04
09
FE
EA
0E
E0
E9
E4
C6
07
17
DE
FD
1D
05
E3
02
FE
A8
F5
F6
BE
1C
CB
FB
FD
04
F9
EC
02
E5
D1
ED
D2
D8
08
07
06
FD
FB
EC
C7
11
0A
DF
0B
1B
F8
E7
F1
1A
F3
E1
00
00
F7
1A
E6
25
FC
EB
31
2D
13
0F
15
F9
EE
11
1D
E5
0F
E2
EF
F1
FB
C2
FD
FF
FC
FB
18
0A
FE
09
FC
CD
FE
12
12
E1
E6
EA
13
2B
ED
01
0A
17
FF
00
0D
E6
1D
F7
FA
E6
F0
D7
F0
1B
0A
19
CC
ED
14
FD
FA
00
D1
15
05
F0
C5
EF
2A
D7
F2
F7
EB
0B
20
E0
FB
08
0D
03
E9
FC
2D
1E
CA
F9
E1
E7
07
0B
06
1B
CE
12
BD
E8
15
FE
01
F8
02
D6
F6
DF
F6
1E
0B
1A
01
0F
D7
F7
FB
0F
21
18
12
EB
F3
0F
24
E6
F9
ED
0E
04
E8
E8
FA
CF
E9
01
1C
F5
FF
0F
FB
0A
39
E8
2B
0C
2A
F5
0C
D8
ED
1A
D9
02
0E
3F
ED
FC
F7
1E
EE
C0
E2
FE
02
F1
00
F5
D5
07
0F
06
EE
E8
FA
0C
FD
05
DF
D5
F4
0C
FB
F3
10
B5
31
0D
FB
02
06
09
D2
00
FA
13
F4
F8
06
F8
DC
FC
FA
F2
0A
FC
FD
1B
FF
F8
F8
19
03
ED
17
44
0A
F2
BF
D5
CC
12
05
04
F6
05
0D
D3
03
F7
0C
F6
01
E1
13
0A
0A
E2
F7
D1
FA
03
F3
00
FF
01
FE
11
FF
2A
09
E9
1F
17
03
F5
CC
FB
17
06
E5
DC
F9
03
ED
03
E3
11
1A
16
CD
0F
13
D1
CF
03
03
1E
FD
07
11
E1
DE
FC
F6
CF
FD
B8
F8
FE
20
09
E9
09
FD
D7
F0
0A
EE
D5
F1
09
FB
01
F9
FF
FB
FC
FF
08
FB
03
07
08
FF
FF
F9
F6
08
01
04
FE
F8
FA
FE
08
F7
0B
06
08
FC
FA
0A
F9
F9
09
06
F8
02
F7
00
FD
08
F8
F8
FF
03
FE
FA
00
01
FA
F7
01
01
04
F9
FA
FD
F9
FB
F9
F6
02
05
E7
15
E6
08
ED
1D
0C
12
20
11
E8
E1
EA
0D
F7
02
0A
06
0C
0E
EE
3F
A8
93
02
FC
E0
EE
02
38
17
22
0C
25
EF
0B
1B
F7
18
13
39
10
E6
14
D8
11
14
C1
E3
0A
DB
F1
11
28
BB
10
C5
FD
13
0E
0C
08
FD
06
D0
F6
F9
F1
02
B1
BA
CF
E9
DD
12
E5
17
C9
12
EC
14
24
D6
D1
F8
E7
29
C6
03
FC
02
F7
F5
12
B0
05
DD
BE
FC
1F
11
0E
DE
DE
0D
03
06
1C
E9
CE
14
D9
C7
F8
1E
F4
09
1A
E2
0A
F1
F0
E0
D3
F7
22
ED
00
DD
D8
01
F9
21
23
05
01
F0
19
DB
E2
F6
04
12
F3
EA
0B
E8
0E
F9
07
F9
F8
0C
09
FD
E6
20
1C
FF
05
08
0E
18
01
2F
DB
FD
0B
EC
11
0A
B3
2B
0F
01
08
15
E8
F0
F8
10
F4
2B
FB
06
FE
EA
FA
15
0F
D4
0E
0A
DB
F5
27
E3
00
0E
11
D3
02
F5
FA
CC
CB
2A
0A
F6
CC
DC
09
F6
44
00
C9
E0
06
1D
F2
DC
D8
21
D6
E4
DD
08
EE
01
07
25
FF
10
FD
F2
FB
01
DC
FE
D1
3E
03
0E
15
FB
0F
03
0F
27
C6
2C
41
1C
05
DE
FB
F5
CA
FC
07
FA
0A
81
F7
14
06
E6
ED
05
DF
0F
F7
05
E7
D0
F9
FF
1A
FA
F1
05
07
EB
D9
14
FC
CF
EC
D2
C2
0E
F3
FA
F0
09
F6
FF
F8
FA
0E
DA
1E
10
0F
16
11
19
F5
EE
E5
13
04
9E
04
0E
D5
DF
1C
02
09
EA
1B
ED
D9
F7
D4
F2
1A
0B
EA
EA
E3
19
FB
10
13
DE
FA
F3
FC
F7
C6
0B
05
E8
ED
F3
33
03
F5
16
E0
1E
26
D9
12
F8
15
04
04
FA
01
00
1F
28
1C
DC
AE
F0
2E
03
E2
2D
ED
EA
FD
FA
45
26
F1
D2
FF
E6
FC
F2
00
11
E9
FC
EB
21
F8
F0
11
CE
0C
09
E6
08
04
01
10
0A
00
FC
14
21
D1
12
EB
C0
00
F5
1B
BA
F0
F4
17
FE
24
0B
12
D6
01
D5
0C
DC
CC
12
14
F7
1A
EC
16
18
F8
E9
F0
E1
15
FE
EE
E2
A9
3A
B1
FA
1E
09
EC
08
C7
DF
E1
CD
0F
DF
0C
DC
0D
29
EB
F0
1D
F6
00
23
0D
EF
21
BA
EC
ED
0B
F9
D0
FF
CD
0B
0B
F6
E7
15
01
20
F5
23
0E
15
1B
D2
D3
FE
03
E4
FC
C6
F8
07
17
02
ED
ED
F4
0C
E2
F6
C8
F8
DC
02
F1
E2
FB
E8
02
E8
F5
F7
0E
E1
DE
36
13
F1
F2
D1
FC
03
F7
0F
FF
FF
09
00
F8
09
B0
F5
D8
C7
C8
0B
EC
CF
FD
13
F3
FE
13
30
EB
0A
21
EE
06
D8
0D
0E
05
EA
09
FF
EB
FA
F4
18
F4
08
11
06
2E
9E
38
CB
EE
F3
01
E4
EF
DD
0B
07
FA
DE
22
01
08
F8
F5
0A
06
15
D4
FF
F7
F8
DE
0E
E7
11
F4
E8
EC
E9
08
F9
E5
F4
EE
E1
E2
DE
19
F1
F4
E4
AF
10
03
EB
1F
03
1E
DF
FD
FE
C6
0B
E1
02
16
E7
03
FF
22
0F
CE
0E
07
DB
D4
F7
FB
F8
EE
9C
D7
0D
F5
A8
BC
1E
EC
00
D9
D7
22
E1
04
F8
FE
0D
BD
13
D8
01
07
06
C9
00
E0
FE
C8
FE
18
F9
E9
E5
15
1A
F3
04
F3
F4
FE
CE
2D
1C
14
FD
10
F3
D8
25
D4
30
10
C1
04
E0
FB
E4
EC
03
F7
D1
09
D7
E2
C0
0D
E7
17
35
00
1D
0D
D0
09
D1
07
0A
04
FB
F3
08
0D
E5
FF
0C
F6
05
03
0C
D3
D4
D0
F7
00
D3
FD
0D
F3
DF
07
ED
C7
E4
FB
41
E4
1A
E9
F8
13
EF
CA
07
EE
E6
EE
F5
03
B4
F7
F8
DB
E0
18
FC
F8
1A
F7
1F
19
FF
EB
0C
ED
F9
FF
FB
1B
D7
D9
16
16
F5
DD
FF
09
FE
09
F9
16
FD
1B
E5
F3
FD
E7
F4
F7
30
27
F4
20
E5
04
13
05
05
E7
1E
D1
16
06
DF
DF
1B
F6
F0
F2
01
AC
EF
F8
08
01
17
28
F8
EB
14
F8
FB
F3
E8
F6
FF
FB
F0
EE
C6
F8
06
1A
F7
10
1E
FA
F7
D3
F3
25
EA
F3
F4
10
F1
06
00
F3
13
14
D5
F0
D0
F1
D7
18
E7
D4
0E
06
04
EA
CA
E6
00
F6
F5
F1
02
E5
1C
F9
01
F6
1E
0B
F8
05
07
F9
06
F5
01
FF
FA
01
F7
FB
00
F9
05
FF
08
FC
04
04
00
FB
F6
08
FF
FE
09
0A
11
0B
03
FF
F5
FB
0B
FF
F3
0A
00
09
02
0C
0C
05
04
00
04
FF
00
FF
FF
07
FB
FD
FD
F8
05
0C
FC
07
FA
09
01
04
01
08
01
F5
F5
C5
F4
06
FA
14
DD
FA
00
2B
F9
06
10
ED
F3
DA
E8
ED
D7
09
F5
A1
0B
F4
05
00
0F
24
04
01
B8
F1
E0
0A
0C
14
07
EA
08
DF
12
EC
04
FE
16
EC
EC
AC
CF
03
11
03
F1
17
F6
34
FD
23
FB
FD
F2
E5
D9
07
EA
08
E3
F0
D2
06
FD
E7
04
00
07
E9
EA
0D
E7
E9
F9
01
FB
15
FB
12
DF
12
1F
03
E2
06
15
F0
FF
F0
09
20
0E
1B
F8
E0
0D
06
08
15
06
03
17
4A
17
12
F3
08
F7
F5
14
F0
2C
EF
20
08
CE
08
EF
DF
EA
32
E2
06
EA
F5
0F
E5
EA
E2
07
FE
0D
C1
18
EC
08
07
FD
D8
18
F8
FB
05
E1
EC
F9
0F
EF
EE
FF
FB
D8
E8
10
05
F3
D9
13
F6
E3
04
DD
E1
E9
17
1F
F2
F6
FA
DC
08
01
F1
18
18
0C
19
E2
0A
F4
E4
F5
E8
F5
ED
F6
0A
0F
BC
2A
05
F6
14
E1
1F
0C
F3
DF
05
15
E0
07
01
09
B9
F0
E0
DE
0A
03
FA
13
C1
FC
E6
D0
28
E9
05
17
D8
02
26
0D
F0
F7
E2
C6
E9
23
E5
F6
FB
DC
E8
C6
0E
15
0A
D1
10
F8
FD
F7
1A
10
12
22
00
13
D2
01
0C
F2
FC
25
F8
FE
FA
FF
10
FC
1F
D2
15
DC
DC
D3
FF
FE
FF
FB
D9
00
F1
05
0F
BD
F2
11
18
2A
F3
D6
04
F2
25
2B
EE
04
F6
0D
F1
08
19
F9
FE
E9
18
EF
1B
07
D6
DB
0B
02
F5
11
0C
1E
F3
D7
06
01
0E
14
F2
FE
02
03
F9
2E
13
EA
07
F6
2B
DB
FA
02
F5
FD
F0
FA
FA
04
1E
EF
05
13
ED
10
01
F6
EF
C1
16
11
12
E7
10
E7
EE
F8
1B
BB
0D
EC
FE
E6
0A
D8
F8
ED
FC
DF
F5
11
EC
05
E8
E3
13
E4
F8
FB
0F
00
32
33
23
06
FF
00
BB
0E
F9
08
0F
F4
0C
17
FB
FF
E1
10
FB
00
EB
10
E2
C9
20
FF
DF
F5
08
20
F3
18
17
14
F7
19
DF
06
23
C5
F3
CF
0B
18
FC
2D
2E
0C
FB
2A
0F
E9
EB
45
19
F9
E3
DF
FC
06
ED
0D
21
FE
02
D5
F8
1B
24
2A
14
0E
10
02
01
F5
05
C3
FC
1C
E7
00
0B
FF
0C
EA
0C
FC
F3
18
FC
FA
14
E5
F2
FA
08
C5
DF
FC
07
E6
11
F4
F8
00
F0
04
15
EE
F9
EF
E2
ED
E0
03
FB
05
02
EB
F7
01
DA
05
FF
E0
FF
E9
FE
15
00
11
F5
02
CF
12
E2
03
1A
E8
F5
F3
E9
C5
DF
18
14
F8
28
EC
18
D4
35
04
08
F6
17
0E
04
13
1D
14
EC
2A
F8
DF
E5
F4
FC
DD
FC
EA
F3
F5
B1
E5
EA
FE
FB
29
15
F4
E0
FD
08
10
F4
E9
11
24
F6
FB
C7
E8
0F
CC
09
E6
ED
E9
E9
E7
00
F4
05
FD
E2
05
39
18
03
EE
FE
EA
11
01
EA
09
F0
E8
09
F5
F6
1A
06
15
26
1A
17
0C
08
E1
F7
F5
EF
F0
F4
0E
F0
0F
F5
F6
12
01
EA
12
87
F7
E2
15
FF
00
13
F7
EB
0A
F7
02
F9
04
03
04
F7
F9
04
08
02
FA
FC
FC
FA
06
01
F8
07
FA
08
FF
02
F9
05
09
FC
03
F9
FD
F9
07
01
FA
FF
FF
08
00
FC
FA
02
FA
08
02
03
F9
01
FE
04
04
08
04
08
06
02
03
FC
0A
09
FB
F9
FF
F8
F7
05
B1
E2
FF
0C
24
F5
14
26
0B
F5
E3
17
1F
36
06
DC
F1
F0
FC
DF
DB
DC
1A
E3
F2
44
D1
1E
EF
06
05
0B
E7
E7
CC
21
F8
08
00
0B
FF
11
08
08
FB
F1
DB
06
06
06
14
14
0D
05
F4
02
11
D8
10
EE
E6
F9
DE
17
E3
DA
EB
FA
11
F3
15
05
21
E4
EF
E0
1A
07
DF
F0
C7
FE
FD
07
F9
E4
FE
F0
BC
0A
1A
09
DD
0C
07
0D
F3
F1
F0
FF
BE
14
FB
03
E4
D8
06
FA
0B
C6
E3
E5
EF
F2
DC
E3
FB
32
03
DF
DE
D5
EE
12
13
18
BD
D5
FE
D6
01
F3
D5
EC
DF
0B
E5
D3
EA
FE
FC
00
F6
EF
D1
B2
00
E6
E6
B9
E3
0F
E8
C3
F5
0C
ED
19
C9
09
FC
09
D9
F8
DA
E3
04
F5
F5
C7
13
0F
11
0D
DD
0D
0E
09
0E
11
D6
E8
F9
02
0C
06
1E
16
11
FF
22
D9
E4
0B
E0
F5
F9
E5
EA
05
F9
13
02
CF
EF
03
DD
05
C1
F0
01
25
F2
F9
11
F9
03
00
FD
05
F1
FA
E2
EB
D4
F1
D1
0C
F4
13
EA
FC
F6
06
0C
E4
F0
FC
EF
07
F3
0C
F7
09
0B
0E
13
F7
F2
08
EB
EE
E6
DF
FC
FF
FA
FC
FF
F7
F7
FF
F9
F6
F7
05
09
06
FA
06
F9
F7
05
FA
F7
09
FF
07
06
FC
08
FA
FF
FF
FF
04
04
FD
00
F7
03
06
00
F9
FF
00
03
FC
05
0B
06
0B
FC
02
09
FD
F7
FA
F6
01
FD
FD
01
05
FE
07
F4
FC
E3
F7
F5
07
F8
EB
F3
21
F8
EE
14
E4
FF
04
21
0F
0E
F8
D4
1B
F5
07
20
E7
EC
F5
02
0D
E1
F5
E0
02
FF
FF
F8
12
EF
20
13
D8
1E
FC
E7
05
E7
06
FF
CC
F7
F8
D4
FE
F9
0C
DA
0B
ED
2D
17
1D
F4
0E
0B
F6
08
F0
FF
EE
11
0B
12
F1
FE
16
06
F3
2A
0A
E7
F8
FE
FB
1F
04
00
F7
F4
FF
06
12
FC
E9
12
03
F0
12
FE
CE
FB
FB
E5
F4
F5
F9
0E
FB
F2
0D
E3
13
F8
41
FE
EF
F7
E5
17
06
F9
11
1F
F5
FA
DC
FD
0A
E6
FF
1D
08
FF
02
F6
19
EE
11
0F
F9
17
E9
11
0D
E8
0E
05
DC
13
27
03
F1
FF
21
D3
D8
22
06
21
FB
F5
04
19
1E
F4
31
EC
09
FD
FD
EF
1E
13
F7
EE
07
23
ED
1A
0A
0E
D7
1E
03
0B
EE
08
05
E1
F2
FC
18
D0
F7
01
EE
F4
02
E3
03
02
01
07
0E
12
E6
28
E0
02
FC
EC
0C
F9
03
FE
FD
07
FF
16
23
20
22
D0
FE
29
07
07
EE
F6
D9
32
F5
ED
FD
E7
0A
0F
0D
1F
F9
16
D5
D6
DE
0A
25
EC
07
F4
CF
F4
EB
FA
FC
F5
C8
01
02
FE
E7
29
0E
12
37
34
F5
03
18
0F
FD
B8
F9
EB
EB
0B
0D
02
FD
03
ED
EC
DB
FA
0A
FD
F7
EB
B4
C2
E1
11
1C
0D
F5
10
FC
18
F1
06
09
09
CE
16
14
F6
F8
17
CA
0D
16
04
01
F9
0D
18
09
BC
1C
11
14
EF
ED
22
F1
0D
F3
F6
FC
CD
F6
14
0F
D3
E7
06
F8
16
F9
13
21
2A
FE
FA
03
0B
07
06
FF
0C
21
F7
07
0F
0A
FF
31
CF
03
05
2A
0B
06
FD
0B
1D
E6
FD
27
36
22
2D
F7
06
FC
09
08
FD
19
04
FE
01
2E
F7
F2
FF
08
C0
F5
E2
FA
0B
EB
F5
0F
FF
12
10
1E
B9
F2
F5
F8
F2
F9
0D
CC
FC
CC
D6
E7
E2
10
06
28
13
D7
13
1C
C5
C6
22
FC
ED
FF
D6
E2
02
E9
E2
18
20
16
01
F2
F3
1D
03
27
12
09
FE
DD
14
0D
03
E6
03
16
F1
F8
35
B9
0D
0C
F7
F3
DF
F7
E6
11
31
08
D8
36
F6
EC
1F
02
FE
FA
FC
0C
1A
E5
D0
13
11
B9
E4
E8
F9
1E
EC
0D
06
0C
F7
F6
E2
CA
FA
FE
DA
E9
0B
0F
12
10
E0
EC
16
09
05
F6
C8
F3
05
0B
05
C6
B9
DB
07
11
01
00
DF
E3
1A
F3
FB
D2
17
17
F7
02
FF
F2
D0
F1
20
0B
D2
EC
00
15
05
F5
07
95
0B
E6
DF
E6
FF
F5
F1
E4
D1
08
EC
11
06
23
F5
0D
DB
F0
D2
EE
EB
14
F9
F4
EE
DE
F1
CA
F1
1E
13
02
F4
02
16
02
FB
06
12
CE
FE
F0
FB
C9
02
F7
EE
04
0F
C1
0C
CA
0B
05
F4
08
E2
E6
F0
B8
EB
C8
05
0C
FC
F4
F4
05
E6
FF
DE
23
FE
E1
FA
08
F7
01
D1
10
14
CF
01
D8
F5
F6
EC
CA
09
F6
F7
FC
F5
EE
EB
0E
02
07
12
07
F2
1A
FB
20
05
0D
01
03
F8
10
00
DA
DB
ED
F3
D2
00
E0
CD
F6
F7
03
F3
F5
FF
12
F2
E7
EA
25
E5
0B
D2
E7
04
E7
E9
0A
E6
F7
DA
E6
11
F5
F4
F1
F7
FD
0F
C7
24
12
0E
0E
FF
F2
19
DF
F7
F0
05
15
FB
0A
15
ED
2A
E1
F9
19
0C
F0
09
0B
00
E7
22
18
01
E4
B0
29
15
0E
03
EB
FB
F2
F4
09
F3
21
0E
E6
10
FC
F9
04
1E
20
C9
04
05
0C
F2
08
EE
E6
0C
E2
0B
23
28
D5
CF
F8
1C
11
BC
F9
19
F9
DB
02
E3
17
FD
02
27
DB
F5
1B
23
EF
FA
0A
11
14
0E
18
07
16
DB
EE
1A
FE
FE
F9
01
E0
FF
FE
0E
24
12
F8
21
A6
F2
E5
F8
EC
06
E3
03
01
1A
F8
09
1D
10
E3
E8
D5
F9
FB
F1
E4
15
28
0D
17
0D
03
F3
00
E9
F4
C7
1A
F9
2B
F5
0E
F7
FD
FB
C9
DF
F4
FC
EE
13
07
E2
11
D1
F1
FD
EE
32
F1
D6
CF
02
D0
F6
F8
F2
13
C2
FA
00
0F
DB
01
E0
FA
F9
0C
FD
FF
DD
ED
EE
EB
B1
06
03
EC
D3
08
C4
16
FA
0F
D9
F5
07
F1
F2
FB
12
0F
DC
E7
F4
18
FC
F9
FB
ED
F9
E9
08
D8
E3
E6
FD
FD
EE
E8
E3
F3
C4
F2
F6
2A
FF
F0
1E
E8
CC
E2
FD
09
01
10
FC
F2
DD
21
DF
F8
FB
1F
EC
F4
EA
E9
0C
10
18
FB
05
1C
FD
D8
E5
F3
CB
F0
EB
10
11
DA
1D
05
CE
E2
FB
0B
D8
BA
E8
0A
E6
0E
F5
F4
14
38
D3
BF
B8
D5
D3
0B
F4
EF
0D
F2
F5
EC
F7
06
E1
05
F9
35
FF
1B
E4
04
DF
09
DF
12
FB
EA
D7
20
E5
FA
CE
DA
10
E9
F6
DE
E8
D6
06
0C
23
2A
2A
F7
DA
D0
F8
04
10
05
16
F2
FF
DF
18
DA
CB
ED
C0
09
00
F7
EF
F8
14
2B
F0
EE
F5
F3
DD
D3
03
E5
DD
0D
1A
00
17
D1
04
D4
0D
13
E8
F5
01
E9
10
02
0F
D8
FF
1D
19
14
12
EA
EA
29
21
E9
17
D7
0F
EC
07
B2
F7
FE
01
0D
11
0B
30
F4
EB
04
F7
EF
03
F3
FD
EC
DF
05
0D
ED
13
08
F7
E1
01
DD
10
05
01
E0
F3
EF
FD
C2
2A
13
03
F7
0F
06
01
F3
ED
EB
08
08
D8
FF
02
EB
0A
F6
E3
ED
08
B4
F6
0F
19
EE
ED
DB
08
00
00
0F
CF
1C
F1
06
14
DD
EA
F7
FA
21
12
FB
14
14
F2
BA
CB
EF
E0
FA
FC
C4
FC
FE
18
17
F2
CA
0A
21
1D
E9
CA
DE
EA
DE
E2
06
08
02
16
00
E5
0C
21
EA
22
FC
0A
F1
25
01
06
0E
27
E7
20
0E
E2
F0
01
FC
36
E4
0A
CE
0C
F5
01
01
EB
FC
FC
14
F8
E8
1B
ED
FE
12
DF
B9
EE
0A
E9
F7
EE
04
04
E1
F9
DF
DE
E7
06
07
08
38
04
07
EA
FC
DA
0E
03
EE
17
A6
F3
E8
FE
00
11
26
15
14
FC
AE
0A
CC
F6
14
0B
07
FF
12
0C
2E
F1
16
EF
0C
04
08
15
F3
FB
EF
D2
F6
FF
05
00
12
05
09
F3
F5
F9
0E
1E
D4
0D
01
06
15
0A
0C
D7
D8
0C
63
EB
F2
05
19
FF
0A
E6
01
FB
FB
17
EF
E6
06
12
FA
FB
14
09
F9
0A
DC
19
E6
E8
F8
14
ED
FF
36
00
1F
0A
EA
04
EB
01
E2
12
FA
0D
06
F5
0A
03
F1
16
0A
20
E8
F3
E7
E7
FA
06
06
F9
0F
E2
00
FF
DD
DE
17
01
B0
FC
F2
DF
DB
EF
29
12
07
23
F3
FC
10
06
03
EE
0F
F2
02
DF
F8
F1
F4
DD
1C
13
38
F3
D6
F0
0E
E6
01
EC
EB
F3
D7
F1
09
12
0A
EF
D9
EF
FF
0C
F7
16
F3
CB
F0
E1
03
C1
DE
05
F3
FB
00
E0
DD
08
0A
E0
EB
00
E2
EE
F0
E4
F8
01
05
E7
10
EE
DE
04
DE
06
E7
F3
F4
DD
FE
EB
01
0E
EB
04
FE
0B
19
E0
03
ED
E4
D3
E4
02
29
FC
D1
28
F2
42
CF
03
0D
C3
1D
0E
F3
EA
E2
FA
D1
E0
0C
F7
17
06
CF
00
21
EB
ED
0B
01
0A
07
1E
02
32
FA
F7
FB
1F
F5
DD
35
E5
EC
DB
D8
E8
25
03
06
16
0D
E6
09
19
0F
00
AC
02
F1
28
10
1D
3A
E3
DF
1C
05
1A
F8
02
07
E6
FC
E1
0E
E1
F5
F5
CD
F3
20
03
10
FC
F2
EB
FC
FC
0C
1D
E3
23
14
1A
08
2C
2A
00
0C
20
FD
E5
D9
DE
FE
02
13
D6
E4
FF
D2
D8
18
D6
FF
14
FB
C9
EE
FB
05
F8
EC
D7
0E
1C
F5
28
30
E2
18
0D
01
FE
11
00
F9
08
36
F7
F1
29
FE
16
0C
DB
17
FE
2F
2D
1F
F9
18
FC
09
F6
F8
ED
08
1D
34
FC
0D
DC
25
F9
09
DE
FE
2F
F4
14
D9
EA
D7
35
19
E2
39
F9
32
F1
FB
E4
27
E4
08
E7
D2
EA
F4
08
1C
E2
14
03
E7
F7
02
07
03
F4
F7
E3
0C
EB
FE
28
17
09
19
F4
06
02
17
01
1A
D5
13
01
C9
03
03
01
3A
D1
20
19
0D
18
01
11
ED
EC
29
16
42
0C
03
DD
EA
11
FF
BC
E9
F3
FF
05
E5
DF
16
D6
FE
FD
F0
F0
CA
14
ED
0D
E6
C0
EB
FC
1F
FC
15
2C
17
F7
20
F5
EC
DB
0E
FC
EC
0C
0B
FC
E0
DC
DC
FE
F7
17
F5
0D
21
19
E0
F4
E6
FE
E9
FC
17
26
12
1B
2A
E6
FC
FE
14
00
E5
FF
0C
0C
EF
17
0C
0C
18
E7
EE
F0
07
F7
19
00
EF
FA
04
04
0A
CD
0F
E4
E3
26
FB
E1
EB
D0
F7
0C
01
FF
0D
10
F5
11
F8
16
F3
1C
33
FF
C0
08
DB
25
00
10
07
DB
D3
F0
EB
FC
06
02
E4
E7
FF
D7
08
DE
D0
20
F6
F5
DD
02
F2
03
E6
03
FF
13
04
0D
C7
15
E8
F8
00
0B
00
E9
0A
F8
E1
0E
DF
F5
27
F6
FD
ED
04
02
F8
EE
EF
0A
13
00
EC
0D
0E
CD
12
F1
D9
02
E8
0F
0E
E1
FD
D8
FE
E9
CE
0A
C0
F2
DA
08
F5
E0
E1
18
F5
E9
F1
D8
19
06
13
06
ED
1D
29
22
9D
D3
EE
F9
E7
B5
EA
CD
D3
02
0E
C3
12
1A
D5
C7
0E
F1
0D
F7
D5
CD
F3
E3
15
0C
C8
EC
D3
DF
0D
FB
07
05
F7
DA
F5
CA
07
EC
0A
CA
E6
0E
05
FF
05
E7
1E
ED
18
1C
F3
C0
04
E8
16
FD
BF
EF
E9
E7
D0
13
04
16
E3
F4
13
E9
07
EA
ED
D3
EA
EF
02
37
15
17
0C
1B
13
F6
FB
02
08
E4
F9
F1
FF
DB
13
22
0B
D6
FC
D1
EA
F5
0D
21
E2
DF
F3
04
C7
E3
18
FE
13
01
C2
0B
0B
F0
E8
F0
0B
F2
FA
F9
18
03
1E
FF
F4
FA
FA
02
00
F7
0A
01
F5
08
FB
FE
05
05
F7
0D
FD
08
FC
F9
0C
FD
FA
06
07
F8
F0
F1
FB
03
05
05
F9
F2
F5
FE
07
FD
05
01
08
08
F9
FF
FF
F9
04
FC
00
00
F9
FF
06
03
FD
FE
FA
F9
05
01
FD
02
06
09
F9
2F
09
FC
0A
28
EE
F1
E7
18
06
FD
F8
01
02
FB
F0
F5
0F
E0
D6
FF
F3
2D
0A
C0
0A
F2
D6
EC
08
DC
08
FD
03
17
D9
E4
17
D6
F7
1D
11
E2
DD
16
F5
07
02
00
14
FC
02
07
FB
F5
D3
06
04
11
01
BE
06
0E
14
11
1C
F7
E0
F1
FF
04
FE
05
E6
12
02
00
05
F0
19
18
EB
0B
E6
FA
07
15
1A
D3
03
17
F2
E9
07
01
F9
F0
C6
09
FC
F7
FE
F7
F8
07
EC
D6
E5
FE
E5
F6
0B
EE
08
E1
09
0C
FD
0D
F6
0F
FD
D5
08
0B
09
13
01
26
FE
0F
12
FB
16
28
0B
F6
EF
09
DE
0A
03
DA
0A
F6
F1
FE
04
F4
0E
E7
0F
03
FD
22
FB
10
15
E8
22
01
FC
0E
F2
14
1D
05
FA
E2
CC
0E
05
ED
EB
13
2D
C9
F4
07
E9
13
D2
E6
02
E6
3A
15
0A
11
EC
27
FD
FB
18
04
1E
E9
E6
E8
0F
FE
FF
23
F0
07
09
E9
2B
05
1F
DE
F7
F1
F6
06
0D
F7
08
04
EF
28
F9
0A
F9
1A
F3
11
DD
FF
23
D6
CA
FA
F3
F6
26
FD
C3
03
00
DA
00
BF
AB
36
FC
F0
ED
0D
02
01
F3
15
F3
E8
DA
F8
0F
F3
F0
EC
0F
DD
01
F3
05
19
0C
08
08
11
C4
0B
02
02
F6
01
E3
0A
14
DA
CF
EA
F8
F3
C3
E7
D6
BF
F8
F6
01
F6
1B
FB
FF
01
EC
ED
10
01
03
D2
07
F0
FB
C9
EA
F8
06
E9
F8
E7
B6
0F
F1
19
CC
ED
F1
F7
08
E6
15
19
C9
04
EE
12
EE
DF
F8
0A
D1
E2
0D
DE
FF
ED
FF
F5
E1
E8
17
E4
09
10
1E
10
03
02
05
FE
E7
1D
F2
F2
1B
F5
F8
E9
F6
C9
1B
19
E6
FE
DE
C5
E3
12
F5
02
EF
0B
DF
00
E2
E7
DF
ED
B9
20
F1
04
E9
06
D2
0A
15
CF
F4
EC
E5
15
0C
EF
19
E3
F9
02
E9
0B
F9
F5
12
FF
06
F2
D9
21
CE
F9
F9
14
03
0D
FF
10
1C
D7
FF
0A
F9
13
FD
FF
FF
0C
FD
07
1E
EB
05
F6
F6
2A
13
12
EA
0F
01
05
0D
FE
F1
E7
EC
08
F5
E8
1C
ED
10
F5
01
00
F9
15
1C
FB
EA
D6
27
1B
28
20
DA
F2
FE
C9
E3
E1
28
EA
00
F3
E8
AB
06
FC
DF
0D
FB
0C
FE
D2
DD
F5
E2
DD
C0
18
FA
01
10
FD
CE
F1
25
D1
12
1B
DF
E3
EE
F7
F6
12
F7
17
0C
BD
10
FE
F5
0F
05
17
11
DA
EE
03
04
F0
FA
F0
21
FD
DB
EB
DF
FE
FC
FD
11
26
F2
0B
D5
F7
C4
D6
F5
10
FA
C5
17
EC
2E
DE
10
DF
12
10
E6
13
15
01
14
D2
2E
EF
FA
0A
09
EF
E8
00
E2
00
EC
06
03
EF
F8
F0
0E
E8
F0
DF
F0
F0
F9
E7
11
03
14
09
F6
10
0B
04
FF
11
FB
05
CF
D8
E6
09
F2
EC
00
F2
F5
23
EA
F7
E8
F1
E8
D9
18
F8
02
FD
E8
02
08
E6
1B
07
F8
08
1D
FC
CC
05
EA
F5
1F
E2
FC
15
1C
EB
06
F5
F7
C8
C7
E9
0D
E5
D7
EC
D1
0B
0F
CF
F2
D4
C4
F4
C8
FF
0E
E5
C4
E9
F7
E1
D5
F2
12
F6
A2
0A
11
0B
E9
CD
E7
E0
02
E8
D7
03
13
0F
E1
E8
D7
01
BA
E2
FF
D6
06
A2
05
05
BF
0A
CC
FF
22
20
E6
F7
E8
F3
19
D4
E8
E9
D7
BF
00
F2
00
EB
22
12
D8
00
14
EB
F5
DC
0E
0F
DE
F4
ED
E8
F1
10
F4
F4
FA
0C
F3
FF
D7
D3
E7
F9
EA
00
FF
FC
F6
C5
E5
C5
E4
F8
FD
D4
EA
FD
09
E3
11
2B
CF
D4
06
ED
EC
E6
F5
FE
13
19
D9
00
1E
15
24
03
03
33
13
FD
FE
D9
F8
D6
10
F3
1B
E9
D7
13
18
FC
1D
19
08
0D
18
F1
01
F9
FB
0A
F4
FA
F4
DC
08
09
0F
28
1B
01
F9
23
05
04
DA
0C
D7
0B
0D
F5
F8
12
FA
E2
EE
14
C4
F5
FE
12
FB
04
1D
F2
EA
F8
FC
F1
F7
FC
F0
0D
FC
E1
E8
C3
EA
04
1B
16
00
21
0A
FE
D8
0C
1A
D8
F9
EF
FB
E0
FD
D7
F0
03
24
E2
F9
E9
02
CD
FD
EB
E7
08
E0
EC
D6
CF
FB
03
F6
EE
E8
D4
EF
F8
05
F9
F1
19
F8
0A
1C
05
CE
FF
02
FC
FB
F9
0E
FB
0B
FB
03
FA
02
FD
03
07
01
02
F9
FB
00
08
07
0C
0A
0B
F4
00
FC
FC
FA
F1
F8
F7
01
04
F8
05
05
FE
03
05
F9
FD
01
FC
04
FD
0A
FA
FB
FE
04
04
0A
09
F9
0C
FA
06
FB
01
06
01
F9
0C
D6
1F
18
DC
04
E8
F5
09
21
E7
23
F2
08
07
F2
D4
03
01
FD
04
C6
05
11
01
ED
03
FF
21
03
FB
0E
D9
16
00
DB
FE
FA
0A
F7
D6
EB
11
EB
00
F7
D9
D1
35
F7
05
F2
F7
10
17
E9
DE
21
F7
DB
FA
F7
FB
F9
08
E8
B3
03
D2
E3
03
09
F2
EB
FB
FB
F6
02
DB
0F
F4
1E
E4
0A
F8
19
03
1D
F2
FD
01
FB
24
0D
CF
FC
F0
1F
0A
B4
D5
E6
0E
04
0B
EC
0E
19
0E
23
1B
30
DD
18
E1
01
E4
DB
B5
FD
0D
01
F6
EB
FA
E4
11
13
0A
01
09
07
08
F0
EB
E5
FE
F4
09
BE
F9
FA
EA
02
06
EE
E7
0D
F0
0D
EB
08
D8
09
F4
F1
06
0C
C0
08
0D
12
F1
EB
F0
00
DD
ED
F2
FA
0F
07
1E
EA
06
01
FD
F8
F2
E6
FE
D9
F9
FC
08
E1
FA
E6
F8
DB
FB
D9
D3
EF
0E
F7
0C
12
DC
1A
DF
FA
F4
F5
05
09
20
D9
F0
15
0F
EB
FC
EF
1B
F7
F6
F7
04
F5
EB
F4
E6
16
02
E7
19
0A
C7
12
1C
DA
EE
D5
40
08
12
FB
FA
10
18
E7
05
F2
14
23
E3
16
02
F7
0F
23
11
1B
12
FD
04
00
0B
F3
F5
F8
05
FB
04
EE
21
08
1E
24
F2
0F
E7
F1
E4
0B
FB
0E
F9
D1
19
14
EA
38
EC
00
10
16
09
ED
FC
F4
03
0C
1E
03
0B
01
F9
F2
16
18
FC
06
07
16
F6
05
F2
FF
EE
EB
DA
FD
18
F8
05
E1
DB
F5
D3
10
10
DD
0E
08
0D
FA
F9
04
F6
F2
02
2C
FA
F8
0D
F9
FA
09
02
15
12
0C
0E
D7
0F
07
2C
2B
21
D6
DB
0C
0F
06
EE
D7
EF
F8
EE
FC
09
F3
D3
FE
1B
13
07
D6
E0
31
D3
C7
FE
D5
F0
E9
09
0D
C6
F9
05
FD
B9
D6
2E
11
06
C9
06
BD
FD
16
18
F6
D0
03
0B
23
09
DC
00
A2
FF
03
EE
DF
F9
0D
F0
F9
02
F8
F2
05
11
0B
06
ED
EB
E2
12
FC
D5
FC
E9
04
F7
C3
F3
36
FD
18
0F
FF
CF
FA
13
0B
EC
26
DE
FF
04
FF
05
18
27
F8
18
DD
16
34
EB
14
F3
08
FA
ED
01
12
14
0C
00
D8
FD
0B
04
F7
E8
0F
F0
D1
FB
07
F5
2D
12
F9
FF
08
CF
EC
F9
EA
FD
04
EC
FF
E6
00
0A
ED
ED
CE
05
DE
10
D5
09
20
06
0C
08
00
14
0C
ED
FF
0E
09
0E
06
1E
E5
0F
EA
08
B8
F3
CF
10
E2
FD
0D
F2
F2
FA
DC
DE
EC
F8
0A
FE
10
F3
EB
02
19
C4
EA
F0
F9
F3
24
11
09
13
0E
D6
1D
FE
EA
00
06
F5
D4
1D
D3
03
EA
F7
13
F3
F7
17
E0
FB
01
11
04
EE
05
20
EE
01
CF
FC
03
08
07
00
DC
07
0A
EA
FA
20
F4
07
F1
ED
1C
0C
F1
01
E9
FB
FD
BE
FE
F7
05
09
F0
EC
DE
E1
FF
14
17
04
03
F0
09
ED
FE
06
F5
0B
EE
0C
FC
1F
EA
F9
E4
00
12
0A
CF
0E
E8
DF
11
0F
DF
E0
0C
07
FC
07
03
05
F9
05
02
0A
03
FD
FA
04
00
F9
F9
FA
FF
00
06
00
02
FE
F8
03
06
FC
FD
0A
FA
FB
07
FA
FB
FC
05
FC
FB
07
FD
FB
F8
FF
07
02
00
FC
06
08
00
FF
F5
04
05
07
FD
FC
01
02
FE
FD
08
F9
01
C6
3A
F1
FA
F6
E7
03
0F
28
17
CB
0C
15
F1
FA
E3
0B
17
0A
E9
FA
E9
FA
E4
07
02
DF
CE
E9
FF
0E
0C
12
06
F2
EB
09
17
FD
18
F2
19
16
08
1F
09
E5
03
D3
0C
18
03
07
14
FB
FC
00
ED
F2
0B
07
22
D0
D8
23
00
13
EF
E9
0B
07
0D
0F
04
F4
FB
0B
0C
0D
E3
C9
E3
FF
FC
F9
D2
17
07
10
CF
E7
1F
F0
EF
FD
04
F5
28
01
F4
06
EB
CE
17
01
15
12
D9
FC
15
E6
B4
F5
08
0A
F3
F3
F5
10
09
0E
D9
BD
E1
F6
D6
17
11
DF
D9
CB
BF
0B
FE
D5
FB
DC
FC
E5
D4
03
07
0E
EA
FD
EE
DD
DA
00
C5
D9
DD
06
18
EB
D5
17
F5
E5
09
E4
EB
0E
04
04
07
E8
E1
F0
F6
F3
B9
10
FC
03
1D
F5
02
FB
15
FF
06
DE
DB
E1
07
16
02
FE
FB
03
E6
FC
05
E8
0D
EA
FB
EE
DD
03
0A
FC
F6
FA
EF
DD
E7
EE
0A
D3
09
FE
FE
E5
E8
07
C7
00
05
EF
16
CD
ED
CE
03
E4
B9
C4
09
F7
F7
F7
0C
0E
F9
FF
F7
01
FD
D8
08
F7
0A
D7
E8
FD
0C
F0
05
F5
07
E6
E8
09
D0
09
F9
FD
FB
FB
F7
02
F7
F9
03
FE
FB
F8
03
02
FF
FE
06
05
F9
02
FB
FD
04
06
07
F7
00
F8
FD
FF
01
03
F7
01
0A
04
08
05
09
04
05
FE
04
FD
08
FF
FF
01
05
0A
FE
FD
02
09
05
FD
F5
01
F8
06
F7
FA
0C
D9
11
00
E1
D0
DC
ED
1A
08
EE
0D
08
E8
0D
08
E3
24
0F
D2
08
FD
F9
21
D5
FD
15
F7
0E
FB
EA
F1
E9
F5
25
0D
EE
0B
1E
21
F7
FA
F1
11
F1
CF
07
13
91
DD
D8
DC
12
0A
DA
E9
EF
DE
0E
EB
13
E1
FB
E1
F4
FC
04
ED
F1
19
0C
08
F4
05
FF
F2
02
28
26
E3
DC
F8
EE
F1
0B
FD
0B
0B
F7
FC
D8
ED
08
24
19
F4
0A
F9
01
F2
E5
FC
F2
1E
FA
FD
0D
F9
F5
E5
F2
FE
2A
C2
F4
E9
F0
F9
01
18
FE
1B
F5
11
F5
EA
00
D1
11
13
0C
FA
1A
EA
02
03
1A
F4
FA
ED
01
1F
1B
E5
11
FD
03
FB
21
FC
06
DF
2F
E1
F6
0C
17
12
02
08
FC
03
19
F7
FB
F9
26
F2
FD
07
05
03
0F
EC
08
0F
EE
FF
07
FA
F9
03
FC
FF
0C
0D
F1
E2
FE
EC
02
EF
02
18
04
D0
00
AA
FD
16
F9
FD
FD
DF
0E
1D
DF
F5
14
0D
17
10
F1
00
D8
0D
13
F2
2C
2F
E3
08
13
FD
22
18
02
D1
F0
2E
16
12
F6
D2
F6
00
EC
03
0B
16
D0
01
FE
CC
F6
DC
DC
F5
F4
FB
D8
20
1A
1A
F3
00
0C
FA
F9
17
CD
09
1A
23
D9
10
08
1B
D1
CC
05
17
BE
03
0F
02
05
F4
06
0A
E6
F0
0F
13
D6
FC
FC
F3
EC
06
16
04
13
06
04
0D
00
1B
10
03
F9
0D
D2
03
00
FA
F3
FA
EC
E0
F2
CC
E3
FF
E9
E5
02
17
00
F8
EC
FB
EB
14
F0
0B
34
F0
03
21
16
CE
EB
BF
03
00
08
F9
08
1C
EE
F6
E0
0E
06
06
24
10
00
04
0A
06
E7
18
13
C1
19
FE
16
0A
EC
05
E9
03
D4
D3
29
35
DA
D3
EE
04
1F
07
05
FC
17
FA
D9
0C
26
0A
E6
0C
DE
B2
EF
DC
DC
FB
DB
FC
20
F9
10
17
F2
C9
DF
EA
12
F5
FB
EB
BA
F7
D6
E1
F4
E7
14
CC
E1
F2
0F
0F
01
DB
CA
11
08
0B
02
FE
F5
D8
FC
E8
E5
1A
0D
F8
FF
EA
01
F9
0E
FB
F8
D6
E8
07
01
06
FB
16
18
0A
F3
0D
BD
F1
EC
1C
FB
FB
FF
14
FD
2A
05
EA
2D
0E
E4
1E
02
FB
CF
F4
06
EF
01
CF
0A
05
AF
FB
F0
E7
EF
F1
12
F8
F7
FC
FE
A7
F2
EC
E6
ED
F1
FE
17
0A
24
E5
EC
00
18
06
EA
CE
04
D2
FD
00
E2
BC
0A
EC
F3
06
E1
FB
0F
0D
18
10
F5
FE
02
13
1D
05
05
ED
F5
FC
2A
0A
FD
FA
00
05
07
EB
CB
0A
D0
07
0E
17
E7
04
E1
DD
EE
05
FF
15
02
DB
FD
08
BF
0D
07
01
0C
E5
EC
F1
D4
FF
E7
C5
ED
E1
01
15
07
17
0A
14
07
09
EA
EA
E4
F5
EA
E0
04
DE
F7
FB
CF
0A
E1
1E
19
1E
19
D6
03
F9
DC
F3
EA
F2
19
05
D9
13
E0
17
02
EB
0C
03
E7
01
22
FC
0E
00
01
0B
F7
E4
CE
F8
DF
20
0D
07
E1
F4
03
C4
D9
E6
11
F0
EF
E8
FC
F5
28
20
FC
15
11
F0
17
17
1D
0B
19
DD
FB
F1
D5
0A
E1
E5
07
07
0D
F5
F9
EC
FC
16
E5
03
E1
F6
02
EC
EA
10
DD
C5
03
F0
D5
F6
E2
17
EA
EF
F8
F4
14
EE
CE
E9
17
1C
1C
02
FF
04
0B
07
07
F4
14
23
F6
0A
1D
03
E1
04
F6
F2
F9
E2
06
03
F1
1B
04
07
EE
F7
1D
1D
1C
03
ED
F8
06
F6
EF
DE
1F
ED
0A
0E
2C
10
EA
32
28
F5
29
F6
22
01
F3
EB
EF
08
FD
0C
07
17
04
C1
0B
1A
10
B7
FB
EF
2B
01
ED
05
1C
BF
FF
24
FA
F3
00
E7
ED
08
05
FD
03
CC
F3
EA
0F
15
FE
08
0C
F8
10
EF
FA
EC
03
1E
00
1A
06
0B
EA
D6
F6
FE
D8
F7
EC
14
E6
F8
FC
F8
11
EA
E1
E7
0A
DB
EC
E8
F9
F1
1A
EB
FC
FB
04
08
EB
F0
00
F5
17
FE
04
FF
0D
CA
06
1D
F6
16
EF
E0
05
0A
F4
CA
06
18
F0
28
E8
23
11
D6
C8
F0
F1
F1
04
EB
E3
D4
36
FF
E5
07
FC
DC
01
11
01
E8
06
D4
E8
CA
01
DA
0A
E4
F2
04
07
EE
12
F9
FC
DF
D1
F9
DB
07
05
09
0C
AE
EA
FA
FD
E1
DB
07
F6
0A
E7
F4
D8
CE
EF
F9
E1
E4
DB
D8
06
04
10
ED
ED
F1
0A
F0
E1
0F
F8
15
07
EF
FD
F6
F3
DD
FE
F6
D5
13
15
E2
F3
0C
C5
D9
15
FA
E9
AE
F6
14
EB
DD
F1
C4
E6
E6
0C
F8
02
F2
EA
E8
E9
F7
F6
C5
8F
EC
FA
C7
18
00
16
09
09
10
E7
E7
0F
DB
E7
CD
12
0B
C8
FB
EF
E9
0A
E5
27
04
EF
ED
12
FE
1E
C2
01
E3
1F
00
F1
14
00
F3
ED
01
DF
05
D7
F5
FE
F4
E1
03
02
15
24
02
0C
97
03
F8
21
F4
0C
0F
CA
04
D7
EC
C8
ED
DF
F6
1D
03
FF
FC
00
E8
18
F1
FF
01
E6
F2
D9
F2
FA
EC
14
FE
0C
28
C4
21
E2
21
DD
DD
0B
DC
1D
11
07
EA
BE
10
F4
D4
F8
F6
F4
E0
1F
0B
EC
08
E6
1F
D9
02
B2
DC
0E
0D
17
29
0F
FB
F1
E6
F9
05
D7
FF
F9
11
EC
FC
F3
DA
08
F8
11
F2
01
FC
BA
E6
FF
F3
EA
EA
26
FB
C1
1E
20
E1
C3
EF
01
D8
18
F4
F2
E2
13
F3
F2
0E
FE
1B
D5
DE
F3
00
C7
DF
06
0F
EB
E5
D1
11
EE
01
0F
EE
F6
04
E8
08
0C
EC
13
FE
21
17
F6
11
F2
E1
C3
DD
0F
E7
0D
0D
D2
FE
FB
17
D7
F9
F6
1B
24
F9
E9
FD
BA
D4
EC
F0
0A
01
EE
F3
F3
06
05
14
FC
08
EC
02
D8
17
FD
E5
14
11
FC
07
F7
E9
F9
0F
FB
30
0A
1A
C3
09
09
BF
F8
04
FD
05
04
DC
E4
1F
C4
F4
08
E9
A3
E7
FE
E5
C5
E6
04
1C
E0
FD
F2
0E
ED
E8
20
FC
28
16
15
F6
0A
EB
18
F3
DC
16
B5
E8
EC
FC
1D
DC
05
15
ED
01
C9
01
EC
0A
0F
0D
F2
00
F4
F9
26
E3
F4
EC
B4
04
08
0E
00
12
EE
D7
F2
F2
11
05
1E
F3
13
04
FF
10
F7
20
DD
0A
17
FB
0D
E6
00
F0
08
FB
10
FC
00
19
1F
0D
17
E1
E6
F7
E2
04
0E
FD
0C
09
EC
EE
FE
14
E4
0B
FF
15
EA
FF
DA
E9
07
EE
10
D8
FB
FB
F5
0D
0B
D3
D8
F4
E4
0A
FD
F3
03
07
05
2C
EC
05
F0
DD
EC
ED
E6
0D
04
FB
FA
C3
E0
F9
CC
DF
24
0D
C2
F4
02
EB
E1
E8
F9
06
06
0D
F7
09
1A
E4
1A
F4
0C
10
0D
DD
E8
F0
08
DE
14
F8
F8
F5
A3
ED
11
DC
0A
C7
FC
06
E7
F0
05
F6
07
FD
14
EA
CE
F8
EB
F3
00
E3
0A
E7
1B
FD
DD
FB
F1
DB
0A
FC
D1
EF
FE
D1
F5
10
FD
D0
E9
D6
E5
18
10
1D
24
E0
DB
0B
02
0A
E8
0F
E8
ED
05
F1
E7
D4
01
0C
08
B6
F4
C9
06
ED
F4
ED
FA
04
EE
EC
0C
29
09
36
15
C9
00
FD
EE
F6
08
03
D9
D5
01
FE
BE
F9
E7
01
C1
30
EE
D6
04
E1
E0
36
02
BF
F6
07
04
09
F7
EF
F3
F7
D9
15
FE
08
C9
14
10
05
ED
08
F0
DB
0E
ED
ED
06
DF
BE
24
2E
17
E3
FC
E2
E3
F4
CD
F0
F6
F7
E0
F3
BD
D8
E1
FE
F9
F7
E6
D5
E2
F2
17
F5
F4
02
FA
14
D9
05
07
EC
0D
07
E9
17
31
11
0D
19
FA
FF
CA
F5
0A
F7
0B
E7
F6
0B
E9
E2
1A
CF
F9
0D
F7
EA
F6
01
02
F6
EC
D4
01
F1
C6
E8
16
B3
F7
EB
F2
03
DA
DD
BF
35
07
FF
FD
12
C7
FA
16
DD
14
00
1A
11
10
1B
FC
FE
11
D9
05
08
30
07
19
1A
1C
E8
12
06
23
03
ED
0A
EB
ED
F2
E8
F3
FD
10
FC
0B
DB
FD
1D
04
EC
1F
EE
E2
05
06
F0
EF
F3
1D
C6
F8
08
D1
12
F3
EE
E4
ED
F4
0C
E4
0E
08
17
29
13
06
FF
07
E3
E3
12
0E
D4
FE
DA
CB
1A
F1
FE
0D
EC
02
03
F6
05
EC
19
F3
FB
08
03
0D
19
FC
0B
F1
10
CA
E0
F5
0F
F5
0F
FF
FF
FA
E9
FA
17
E7
CE
E1
FF
EB
0A
0D
D4
E7
1B
F7
0E
04
FA
42
EB
03
0A
0E
E3
F4
01
E2
EB
02
E6
0A
E8
D3
1B
CD
0C
03
F6
E7
07
EB
25
07
F3
D9
01
12
0B
14
24
10
FD
01
00
16
F2
F7
EA
0A
1F
F0
0F
16
F3
25
0A
EF
FA
1B
FC
0A
06
DC
FF
01
08
F5
E7
EE
00
09
05
0C
F8
E3
CE
E6
DF
12
F6
0A
17
1F
E2
E1
E8
08
FA
14
F5
F9
08
F4
2D
FC
F7
0E
09
E2
E0
FF
DF
21
22
C3
FF
02
F7
FF
F0
F5
0E
E3
0C
E7
0B
EE
15
FF
E7
10
11
F2
00
E7
ED
E9
DF
E4
F1
05
FF
D8
1D
F7
F0
FB
09
FA
EC
0D
FA
F5
00
0A
08
E6
0C
1B
08
ED
F3
0E
EC
FE
FB
E5
EA
EF
F0
10
F5
1A
F1
DE
DB
F0
03
E5
E1
E6
22
06
DD
EC
00
EC
C0
1B
E0
D9
00
FC
03
F2
23
F9
0F
D5
AA
FE
1E
E7
0A
EE
DD
CD
0F
F9
D6
CF
FE
BC
E0
10
FE
E2
F0
E2
DD
03
F2
F5
FB
DD
EB
D5
E6
F8
DD
FC
E8
15
D9
F1
BF
18
03
0A
C8
A5
15
02
F5
F1
E1
0E
DC
07
E6
0D
F5
0B
1A
0E
E9
F0
EB
F5
ED
F2
09
DB
E6
BF
E5
0A
12
08
07
0D
B7
FF
12
07
3C
F8
10
E4
23
F4
00
E5
15
02
12
05
02
07
01
EC
DF
FF
D6
09
EF
03
02
12
23
FB
01
17
F1
ED
D5
00
0F
27
08
D5
F7
07
EB
07
FA
DE
ED
00
0B
0D
1D
10
F8
10
07
FF
FF
00
00
07
FC
FC
FD
07
04
FC
00
08
09
F9
02
03
04
00
FE
FC
08
FD
04
FA
F4
FE
03
F7
0A
F7
F6
F7
03
05
FA
0B
F5
00
02
F8
FF
F9
05
FF
03
06
06
03
FC
00
09
05
F7
00
01
FA
06
06
05
05
06
08
1D
CE
CC
F5
2D
E2
FC
FF
EE
F9
EE
EE
DF
0C
07
C2
04
10
D1
C8
F3
09
DC
26
DA
13
D1
0C
DB
15
E4
FE
ED
F3
0B
E9
F3
14
E0
F8
1E
E7
DE
F5
18
DA
09
E8
DB
1C
0F
0F
00
FE
F9
B5
C7
03
FF
F3
CC
0A
18
17
F8
ED
EB
CE
E2
EF
F3
EC
CC
F7
03
E9
DF
FA
E2
EB
0C
F1
EC
F6
F0
0C
D0
FC
0C
FB
F5
D3
D1
04
04
E7
09
CE
EC
F3
06
1B
07
FD
FF
EB
E5
E9
FF
BC
11
F6
EC
F4
C7
E1
1A
0B
E9
0F
D6
F4
BE
17
F7
0C
04
E7
11
0B
30
1B
12
05
19
03
FB
01
F9
02
17
1E
ED
17
F4
10
2A
FF
F9
EF
E3
0D
29
11
FD
16
F5
0B
3C
20
E3
FA
13
EC
FD
07
E9
1C
E0
EA
0E
1C
10
FE
F3
1B
E3
FA
01
FD
07
D7
FB
03
FB
FD
0C
01
1D
F4
08
00
0F
16
23
0E
01
DD
FB
04
F0
D5
2A
E6
E1
04
BB
EE
0F
17
10
DD
F6
1B
23
4A
FE
14
E6
E8
E6
DA
06
0C
FC
E1
09
FF
17
2B
F2
CC
E9
FB
F5
EF
FC
BB
0E
EF
14
18
BD
07
E2
0E
0F
F0
26
DE
21
E8
01
14
08
EE
E2
0A
E2
F1
F0
E2
DF
FD
F4
F4
1F
F0
09
0C
09
DD
2C
13
06
FD
FC
F6
EF
FD
F2
C9
02
06
ED
EC
FF
E1
FD
F7
13
F5
F6
08
F2
E8
05
E2
E3
EA
01
0D
EE
24
18
0C
C2
09
D9
FA
F8
DA
E5
C4
0F
EB
FC
EA
D3
FB
00
19
02
00
03
F3
F1
08
11
ED
D3
0D
13
B8
EC
15
16
0C
0D
E0
F4
CC
F4
07
03
2A
2A
E0
F7
2C
F6
10
0D
E8
E9
EF
04
15
08
0C
F8
03
DD
09
05
1B
FA
DC
FC
EF
F9
F2
C0
D0
E7
19
04
EB
FA
F2
EB
EE
13
0E
13
07
FC
E8
FD
04
F2
07
FB
0E
11
03
DE
0B
DB
04
0F
D9
2A
F8
03
1B
02
EE
27
DA
04
EB
E9
13
FE
DF
0E
0B
0D
00
00
0E
E7
F2
F6
10
0D
0C
1D
E7
1A
23
07
28
15
F3
0B
F3
0F
0B
D4
F4
F3
21
FF
E2
EA
04
10
E3
CD
14
EF
0A
D8
F9
F0
F2
0D
08
ED
02
EF
0E
17
41
0B
F7
FF
11
C3
EC
E1
25
ED
F7
02
DD
EF
F3
E2
FF
10
09
0A
FD
FA
FF
F2
E3
FC
D2
0B
F8
FA
2C
E6
DA
02
0B
E7
1F
D6
20
FA
10
E7
FC
FA
F5
04
0B
F5
FE
01
E3
D9
18
05
DE
E0
D2
EA
29
FA
F0
EA
12
D0
13
FB
F5
FA
F3
00
25
F2
0B
0C
03
03
05
D1
F0
26
15
07
F0
EF
20
0C
17
04
09
EF
D7
11
ED
FD
10
11
E0
E8
03
F6
11
DE
FA
19
E3
10
BD
07
F9
DD
F2
DC
06
F2
D3
D4
BF
26
0B
0B
03
E5
06
01
FF
F2
09
F8
0A
17
F4
F0
0E
0F
DC
D6
05
DA
E1
F8
0D
F3
F6
DE
FF
13
F3
F0
0B
07
12
FB
EC
E7
05
0C
1B
01
1F
F9
1C
0E
E8
02
10
F0
1B
F5
18
ED
00
11
24
0C
FF
F6
0F
F1
11
E4
17
19
FD
06
E9
DD
11
08
A7
09
05
11
14
0E
B3
FA
08
C0
F4
11
01
09
D5
E9
0A
0E
F5
0D
0D
F7
E7
E5
E3
16
EE
EB
FE
FB
07
FD
29
04
CB
BF
FC
E7
F4
03
D5
07
E2
C9
18
1C
1B
07
F9
FC
12
EA
D0
DF
0B
F0
16
C6
DE
09
14
09
08
D7
0F
08
C2
F1
17
F2
EB
0A
1C
EF
D1
11
C2
F8
DF
FA
07
0A
F3
8F
C7
EB
B9
FA
FE
06
04
17
DE
C5
F2
12
FC
F0
FA
06
E7
0A
E8
29
E6
B2
FD
CC
05
EE
03
C6
12
13
D1
EC
05
F7
EE
EC
EA
20
10
03
12
BF
DC
19
F8
03
11
CE
E0
0E
15
F8
0F
1B
04
F8
11
D5
E9
F4
0F
21
DD
0C
F6
D5
20
0B
D1
15
1E
01
FE
06
0C
DC
E3
05
CC
E1
08
E2
14
22
F1
E4
12
07
C2
F6
F7
24
00
05
15
D3
F6
F7
04
09
ED
EA
C1
14
FD
CB
C1
F9
F6
05
09
F2
05
24
0C
F6
EE
EC
14
CC
F4
F8
D8
E7
00
1E
04
06
21
CE
F3
F0
1A
94
07
EB
F0
17
FC
FB
E2
FD
10
F6
F6
F2
FB
F1
07
FB
FE
1B
01
19
ED
F4
08
F7
E4
01
FB
05
03
09
06
F8
04
05
09
03
FE
FC
F8
FD
0C
08
F9
06
FD
FC
FC
09
08
F7
FD
00
07
0C
06
08
FE
FB
01
FA
00
08
FA
05
00
08
09
F8
00
FD
04
FD
FD
04
04
FD
FA
04
00
00
FE
03
FA
FF
01
00
04
07
FA
F9
BA
07
0C
06
D6
D9
F3
FA
11
DB
14
D1
ED
F8
F0
F9
13
F1
0E
F4
04
0F
F7
F8
FE
DF
D3
18
ED
0A
EB
0E
0E
FE
E5
E2
05
07
F0
E7
F5
0F
03
F6
E1
CC
E0
1E
02
FD
FB
F0
27
10
B6
EE
18
EE
ED
0A
FE
EE
0B
20
EA
E0
05
07
EA
F6
E0
0B
C6
EB
F3
06
10
F0
FF
06
18
FF
D3
0C
E4
3C
1D
FC
E8
25
1E
FA
07
F2
0E
EB
0A
F1
FE
12
EB
0C
E7
03
09
21
0B
F9
E5
F9
01
FF
DA
0B
D5
EA
E3
FC
F8
FF
E7
FE
F5
D5
F6
16
02
12
18
16
0B
FC
0E
DC
04
02
F3
BC
18
EA
F8
0E
0E
05
D7
EB
10
F4
FB
FD
FC
FB
2A
16
EF
FF
0D
17
09
14
F1
F7
08
F5
0C
C1
F3
F6
E0
FB
08
23
F7
10
1A
03
0A
06
07
FA
FC
F9
04
E9
03
0A
E6
F7
F5
FB
DC
E7
EF
05
20
EA
01
DA
F5
0F
FF
F1
26
0B
0E
10
05
F9
18
39
DF
06
04
07
FA
05
00
06
F8
DF
EE
FF
14
02
EF
29
15
08
F9
05
E4
F5
FC
29
0D
F9
F7
F3
16
00
E8
1A
1F
06
0C
09
07
DA
ED
FD
3E
DF
1F
E4
09
18
E8
21
DC
FB
FD
F8
FB
FF
11
DD
EB
1C
FF
14
1F
CC
0B
13
04
00
FC
FA
F8
FE
FA
CB
0D
03
E7
FD
07
0E
10
13
DA
04
07
14
10
08
38
E3
08
09
0F
F8
E5
FD
05
29
EF
0C
15
17
E6
D4
09
FD
ED
0C
FA
D8
0B
E3
E8
02
ED
ED
0A
F4
DB
E6
08
23
18
E5
E0
1B
20
0D
E0
C7
FF
FA
1F
FE
F5
0A
F5
17
DB
4C
1D
2E
AD
E0
0E
2F
DC
D9
DF
16
02
F3
C6
00
EE
C2
DF
29
D4
22
BC
EA
02
E9
E2
F5
EB
EF
0D
12
2E
D7
E5
10
19
F9
DC
26
0C
2A
03
E2
D0
1C
18
E7
DA
02
FF
1D
10
F3
0F
13
C9
FB
0A
FE
0D
FC
14
E8
06
10
02
E2
27
0A
06
E6
15
0F
F3
12
FF
E3
09
04
02
14
15
DC
4C
10
02
21
F1
DE
06
08
03
24
2F
FA
E6
FD
00
11
06
13
F1
0F
F4
00
17
1F
1A
0B
ED
F4
EF
1C
16
15
F8
F8
D9
0B
00
02
FF
F9
F8
FF
DA
F1
EC
CD
11
11
04
F7
FF
DE
DD
EE
07
08
04
FC
F0
D8
03
FB
03
0E
C8
0A
ED
0E
ED
15
0C
F3
E6
F3
0F
06
1A
F4
00
36
16
01
FC
0D
00
04
DE
02
FC
11
E9
DF
DC
D9
F5
0A
17
1B
F2
F3
E1
FC
0B
D4
F8
DB
FD
09
04
02
F7
08
EF
FC
F8
FA
FE
FC
10
D9
13
DD
E6
D8
0F
21
BD
1F
EE
F1
EE
04
16
FF
FD
F3
D8
F3
11
11
FD
E2
E5
19
F0
0D
D6
F1
0F
1D
E9
0A
00
1D
30
F6
FA
D6
06
17
FF
FA
F6
02
F5
00
0D
0C
0F
CA
FC
F8
E4
F6
06
FB
0F
E5
0E
10
23
EF
FD
0B
F6
09
FC
03
DB
01
E8
FA
0D
14
F0
CF
0F
0A
1D
E0
D4
17
E6
E8
00
30
E9
E3
F7
08
00
FE
0A
F8
FE
02
06
00
FF
FA
F6
07
04
04
08
08
FB
FB
00
FE
00
03
04
FA
F8
02
FC
07
F8
05
00
04
FC
07
FA
03
FA
FA
07
FE
01
01
FA
FD
00
01
FE
09
01
02
F9
FF
07
03
04
FB
09
04
03
FF
FF
00
FF
F2
1E
B4
1E
E3
D1
12
13
00
FB
ED
FC
0D
FE
ED
0C
10
FA
00
DF
FC
08
CD
91
E2
0B
FB
BE
17
0E
FD
15
0F
0D
00
E8
ED
1E
FF
FF
F9
F3
02
18
FC
F4
06
F5
E2
07
EE
40
15
11
FD
3D
F6
F5
F4
03
1B
FC
DE
F1
00
20
1D
EB
EB
06
04
03
14
03
EC
0B
05
E0
23
FF
CD
08
0A
02
F3
02
FD
E6
F8
02
22
F8
F2
F3
09
FA
E7
0B
FC
03
E7
FD
07
FA
04
05
05
F8
E8
FC
E7
E1
19
EB
00
15
E6
15
15
0A
05
13
BC
F6
F4
DE
FE
FA
05
B0
D0
D8
08
FA
C8
EC
C8
02
B8
E7
0F
15
21
F8
07
E1
F0
F4
FC
FA
E3
F4
01
08
0F
FF
0E
E2
E3
0C
EF
1A
17
FC
01
05
15
E7
F7
13
EE
BD
F7
04
16
19
17
0B
0C
1F
15
FD
CD
EF
F5
0F
03
F7
FE
EF
FE
F4
09
1C
EA
03
EE
FB
1E
E3
09
03
ED
FA
ED
BF
CC
DC
13
10
F4
F4
00
E9
01
08
F4
DF
F9
E7
E1
FC
D8
FD
D1
F9
F9
FF
F7
0A
1F
EA
09
18
1B
E0
F0
07
F7
3C
F3
0E
EC
09
D7
FE
03
12
DA
F7
24
FE
FF
CD
E8
05
FD
05
04
01
01
FA
F7
00
0B
FD
FC
F8
FF
09
FF
02
FD
06
FC
FC
04
04
FF
FC
FE
F9
FD
07
FA
FE
08
02
01
FB
00
F6
FA
FC
03
05
07
08
07
FD
04
09
FF
FC
00
F8
05
03
00
F5
FB
F7
FF
FF
FA
FE
FB
F8
05
02
E3
1A
E9
F6
C2
9A
F8
FB
EA
07
E1
0D
D9
E8
F6
0A
30
14
D7
0D
FC
0C
F1
CD
04
24
DE
E3
06
EA
F5
F4
C4
26
09
B6
20
31
21
FE
BC
00
0A
F7
FB
F9
16
9B
11
DC
E8
ED
1B
0A
13
DA
FD
E3
C0
1B
DB
EF
0A
09
02
05
EF
FB
05
23
F7
E9
D8
FD
F1
08
0E
30
FA
D6
E9
F3
FA
0F
01
F9
F4
F5
13
F3
D6
06
ED
0F
11
1A
FC
ED
03
FB
F7
FF
1A
09
1B
FF
F9
0B
FC
F6
EE
32
E4
15
07
00
FE
E4
FC
EF
F2
E4
FA
E1
04
F5
15
19
F3
04
F4
0B
EA
FF
DD
1B
F6
E2
F5
04
14
1A
FC
1B
0C
FE
F0
17
F4
EF
0A
00
07
02
04
43
F0
1D
FB
EF
23
20
0F
08
02
2C
13
FE
1B
FF
14
07
C2
21
00
D2
CB
06
04
11
0C
F3
11
29
07
F1
21
07
06
1F
02
18
08
11
F6
F0
E1
EC
06
0D
F5
FC
0D
DF
38
D5
0E
1F
F9
31
21
21
F0
E5
E0
1A
E1
18
00
FA
08
17
F9
06
FA
13
F6
F0
08
EB
03
F7
C7
20
D3
F2
0A
07
FB
BC
18
0B
E8
CD
EB
FE
08
E9
00
07
20
0D
FE
10
FA
1E
E6
23
01
D2
05
14
13
DD
EA
0A
0E
E7
05
F8
E2
DB
0E
0F
DD
07
FF
03
16
D9
F8
FC
CB
01
05
1E
07
FC
EB
F1
03
00
EC
13
DA
14
17
07
13
1C
10
E5
03
F3
F9
05
ED
FA
06
F2
F7
DD
FF
FE
F8
EC
F3
D1
F5
2B
F3
F5
06
FF
EF
02
EF
EA
10
0F
17
0C
EB
11
ED
F7
1E
03
17
F7
FC
14
F0
2C
D8
0A
FC
FF
F4
05
FD
F6
FB
22
FF
0D
04
21
00
FD
14
01
09
E1
F0
2C
2A
25
13
EF
0C
F9
06
F1
1D
07
11
C6
13
29
04
0C
03
D8
CF
E7
00
F9
0F
16
12
2D
F6
0B
F0
04
F5
12
03
15
DC
F1
BC
06
F4
EE
F9
E1
FC
01
DE
FA
FF
13
16
09
EC
E3
02
09
21
F3
1C
09
CE
17
F7
16
0D
08
0C
08
ED
02
00
0F
0B
04
09
F8
05
0C
F8
24
17
17
0E
06
F3
EC
F3
E5
15
02
F9
E4
F8
0C
F2
00
ED
25
18
F5
0A
FC
F3
E4
01
1A
F5
E6
FB
F4
FD
12
FB
E5
CD
06
FA
20
0C
05
06
04
FA
C3
FE
08
DA
F7
05
22
07
20
EF
E2
E9
F7
00
FE
D9
12
DD
08
08
CD
C3
15
F4
DF
13
DB
1F
00
C7
03
07
09
09
EC
FD
1B
E6
FF
13
FF
F9
03
07
F9
00
F1
DA
05
04
01
FE
EF
02
D6
E7
FA
09
C7
D4
0D
01
FB
EF
1E
04
E8
FD
EB
EF
0D
12
04
28
C9
E0
07
05
FF
EA
0C
EF
E7
F0
0C
F4
24
3B
12
FE
DE
03
FB
F0
BA
04
FB
E4
D8
F4
F8
09
EF
18
23
F8
0A
D6
0A
F7
FC
03
DF
FF
EB
F9
E6
EE
FB
19
E4
0A
0F
0D
F9
06
20
03
16
E2
FB
F0
0B
EA
B2
DD
F2
BF
FE
0F
FF
DD
2A
C2
11
BA
F3
F0
FC
18
1E
E3
F4
15
FF
21
0F
FF
16
16
21
09
02
D1
07
D4
DA
06
DF
D7
18
03
1B
FC
05
DB
F7
03
EC
08
E6
07
15
18
F1
24
F5
EF
04
06
01
F0
DF
17
F9
28
FB
E9
13
F8
D7
F4
EE
15
02
FE
FE
DD
0C
F6
F5
01
0F
3F
FF
0B
FB
EC
ED
F8
EB
D4
01
0F
06
F5
D2
FC
02
0B
02
1E
1B
1F
12
14
FF
FA
18
09
F2
17
21
FF
09
FC
1C
0F
02
00
15
EE
20
FD
07
0D
F0
D9
E0
F3
14
1E
04
E8
13
FF
16
FC
0F
CF
E1
E4
28
FF
F5
0B
DA
BC
F5
34
FF
EB
FA
F8
0B
02
0B
EC
0B
14
DE
F3
FA
01
17
E7
07
0C
EE
FC
FB
F5
FC
1D
27
08
19
FA
E5
DA
D2
E5
EA
E4
FF
10
F6
FD
0D
EC
12
EA
04
EF
EF
BF
03
FA
F3
E0
17
00
1F
02
F9
12
03
0E
F2
01
F4
E1
ED
13
ED
C5
14
11
30
F9
FB
F1
E4
FC
BD
14
10
2C
FC
01
0B
20
1C
EF
F5
00
EE
EC
E9
13
CE
DB
F8
04
F0
1F
ED
DF
F3
0B
F5
F3
20
C8
F9
FA
E6
08
09
17
05
02
F5
FF
12
12
0A
F9
CD
E2
B4
F9
F0
13
F1
B4
DA
EC
F1
E6
F6
0D
0E
F6
F6
E2
FB
04
E5
FE
FF
09
C7
FB
DE
FA
16
00
10
FE
FE
FD
DF
F5
FC
16
0E
29
02
E4
07
E1
FB
DA
CC
F9
00
F4
F9
0D
FA
DB
0A
11
E6
AB
01
ED
E2
FC
F8
A1
F5
DA
F6
FB
0D
E6
DE
A6
EA
F0
E4
F6
BB
06
FA
CE
14
D6
01
FD
0A
F1
06
02
0F
F0
03
B4
1E
04
BF
F4
0E
F1
0C
E0
15
FD
B6
08
05
0D
0F
F0
06
F6
E5
F6
EA
F1
13
0A
DC
29
0B
16
E2
1B
0C
F2
EC
E8
CF
19
07
F0
0E
96
0D
D5
32
EB
0B
04
C3
EC
D1
F4
CF
E4
13
04
24
3C
1A
D2
18
FA
F4
E3
02
17
F1
07
E2
FE
E1
CD
FF
E0
15
0B
C5
36
FD
2B
12
03
1E
E8
0F
2E
09
E2
F0
06
01
C5
38
11
FC
02
1D
F1
F6
02
D6
22
F4
02
F4
CB
0B
DA
3D
FB
07
06
FD
13
EF
12
F7
DD
11
16
FA
22
1D
E8
24
F6
09
27
18
05
E3
0F
EA
00
E3
E3
29
FB
E3
FB
02
0B
2D
02
23
E4
0E
DF
F6
F6
F2
FE
10
FC
C5
07
F8
DE
F1
F3
C7
09
1E
2A
10
F9
0C
EE
D5
FE
0E
E8
27
11
E8
03
07
E8
07
DE
08
0D
F6
1D
FC
F6
E1
2C
E4
D8
2C
FD
BA
E2
05
FB
FD
06
19
0E
F7
D9
09
01
ED
1A
DA
0A
EF
0F
0C
F2
ED
0B
F7
15
24
F8
07
D6
0D
15
EE
E1
EF
FB
01
13
DE
EE
F3
F5
EC
3C
26
0F
B9
1A
E1
ED
1B
14
08
07
FE
FE
F6
12
EC
09
08
E2
F4
D0
DF
E7
11
DB
06
0A
FD
FE
1D
0B
E7
D1
22
12
DF
FF
EB
18
11
07
14
05
0A
01
E6
0A
CF
02
2C
E9
1D
0E
CC
EF
F4
EF
00
F0
10
FF
1B
23
1E
06
E2
FC
E1
07
BE
F2
EC
D8
0F
03
D5
F8
F1
FF
13
05
05
ED
08
08
20
E4
D1
23
C5
F8
F2
06
0D
F6
10
D3
F5
CF
A4
03
0F
F6
22
1B
17
CD
EA
E1
03
E7
05
F7
05
F7
01
DA
05
1B
14
F1
FF
06
DB
F2
EB
04
16
EC
EE
F9
F3
F0
1C
16
0B
E0
F4
DB
03
E4
DF
FB
FB
EA
11
C4
06
C8
07
CC
CF
D3
CF
EE
0A
F9
FA
05
EB
FA
E9
00
BF
EC
E8
F9
0D
F3
F0
E5
F6
F4
F0
2A
01
EC
05
E6
F7
09
1A
0A
0B
DE
D2
E7
2C
FB
EF
25
CC
DB
D3
FE
03
F2
FB
D1
FA
F2
C9
08
E6
FA
14
F5
E5
F6
F0
CE
D0
07
F3
E0
1A
CF
0D
11
00
F7
FD
C9
F4
C4
F3
D0
C1
E1
E9
F4
05
D3
00
EE
F1
17
F8
C9
1F
D4
E0
D7
E4
1A
04
08
F6
FD
07
F3
DA
E2
25
13
F4
B4
F9
EF
DD
FF
FA
E2
13
0F
CF
16
0D
04
FC
EB
08
FA
EB
3C
2F
38
1F
FA
F5
02
02
DC
0D
F8
16
E4
E5
17
D8
17
40
0C
04
FF
04
07
CE
FB
DA
EF
ED
15
EE
FA
D9
24
F7
0C
DC
0A
D7
FA
EB
13
FB
C5
10
F8
F6
FB
D1
A8
1A
1E
22
FC
E6
F3
ED
02
1E
10
0A
0B
20
FD
EC
E7
08
F4
04
08
0F
EF
09
12
0D
F9
F6
23
07
CC
04
FE
EF
0C
FF
FC
0F
09
23
12
17
29
E3
D0
F1
F9
03
0B
01
27
02
07
04
F9
29
E9
00
13
EE
08
23
0B
01
FA
D9
DF
E9
C6
C8
D3
FD
9D
07
FD
05
0F
E6
CB
BB
18
25
09
05
0D
DE
0F
2C
E2
34
02
F1
09
FB
F0
11
E8
37
D9
FE
12
34
10
FC
F3
25
F8
11
F3
0A
EA
1E
F3
22
30
03
C4
FF
F1
02
0B
E7
EB
FB
1B
F5
F6
DA
EF
D4
01
E7
EE
10
F4
36
F6
F0
F5
FF
B2
EB
E0
0B
E8
EF
1A
E5
FC
1E
15
06
E5
FA
F0
F6
E3
E7
00
E1
FD
09
D5
CC
E9
F8
00
22
F3
23
DE
06
CC
EF
0C
F5
F9
0F
1E
1C
22
28
C4
04
04
E4
FF
DC
F7
F2
12
EA
E9
EA
DF
01
06
E0
E9
DD
E8
D4
F3
13
F0
CA
06
F6
C9
1F
0E
34
FC
E8
FE
EB
FF
FB
FB
EF
F3
EB
27
F2
E8
E5
19
EF
2B
04
FF
E8
FC
EF
21
EE
F8
CF
E8
FF
D8
03
F4
07
E5
FA
E9
12
08
2A
F6
1A
25
0C
DB
08
DF
2A
26
F9
EA
0E
FD
F3
0F
F2
F0
09
0B
E4
F6
EC
F4
12
12
09
06
C5
BC
E6
F3
EF
F8
07
14
21
05
EB
DE
13
F5
0E
FC
01
27
EB
26
18
F8
26
03
19
CC
FD
F4
FC
06
03
ED
12
19
17
F8
E3
06
D4
E2
F8
10
06
FA
D6
E9
FC
EF
03
F7
07
06
EE
0A
CF
04
E2
22
0A
18
15
FE
DB
0B
13
F5
05
D6
FA
05
19
09
D7
F7
02
EC
E8
E2
0F
0A
F1
E9
DA
11
E0
F7
2E
F5
F9
D9
DA
ED
DB
0A
E4
F8
F3
FC
09
E8
E7
E7
09
10
1E
F9
02
05
EC
13
28
0F
F7
E8
F5
EC
FD
12
F3
9F
E2
DD
D5
F1
0C
BC
F8
F6
C4
E2
07
FA
E6
03
D5
CC
D2
E8
F2
F9
13
FD
F0
EC
EA
D1
FE
F8
20
E1
F8
E3
21
15
10
E0
BD
07
FE
E4
F6
05
1E
D5
FA
F7
11
CC
01
29
03
F1
DF
F7
FF
04
F1
F0
10
C7
E9
09
D2
12
F6
F4
0B
16
FA
27
EC
23
EA
28
D5
06
CA
02
24
32
E8
F3
FD
EB
C7
ED
E3
F2
0C
F2
CE
D3
F5
DE
F8
09
10
09
0E
FA
EA
06
07
F6
12
EB
0F
E1
FD
FC
0D
04
B0
08
06
EA
DC
2A
EF
E3
FF
FC
08
FC
FD
F7
07
FE
F5
02
08
FC
FB
F9
07
06
03
00
06
F8
07
06
FB
03
07
00
F6
FB
FD
FC
FC
FD
04
FD
FF
FF
0D
FA
06
F5
FA
02
FB
00
00
02
F7
FE
FA
FD
04
0C
03
02
FC
F5
F9
FB
FB
09
FF
06
FA
FE
03
E3
ED
D4
2E
29
19
00
F4
F8
DE
B3
E1
09
06
22
F4
00
13
D0
D5
F7
18
D0
D6
F6
FB
B9
03
CE
33
04
FD
D0
13
E8
0A
EB
0A
FF
20
1D
F5
DB
17
02
E5
19
DF
DE
20
0C
08
12
09
FF
E5
B9
04
FA
07
D2
18
F4
F9
C1
F8
C0
D9
EA
DD
B5
EF
E3
DB
EB
EB
0C
00
00
DC
08
02
F3
F2
FB
03
ED
E4
21
F9
C8
11
EA
02
09
F5
0E
B7
F1
FF
13
12
EB
DE
01
13
EE
F3
F9
E7
1A
F8
E5
EC
E2
D4
28
0E
22
08
B3
05
EC
17
E6
00
0A
0E
D5
FC
1F
23
25
10
11
03
D8
28
D4
F8
07
0F
02
13
F6
28
17
1B
F8
FE
DF
02
29
1E
13
0F
0F
0D
27
1B
D7
E7
3F
F2
14
E9
F1
F2
F7
05
0D
EE
28
1B
F1
13
FA
FD
00
FE
0F
E7
23
10
ED
F0
02
03
08
1D
D4
FB
E9
E9
21
0A
E9
D6
F0
13
E0
ED
02
10
E1
EF
FC
1B
E2
05
D7
F5
FD
40
26
ED
0E
FF
04
0A
13
E1
45
D3
1B
F4
1E
F8
F5
27
E5
C7
FC
E5
EB
10
0D
93
0C
DD
19
38
E8
3A
F2
0A
28
FF
20
C4
2B
D3
29
E7
DD
F0
FB
E0
FB
0F
E6
FE
BA
F9
CE
F3
D1
13
16
F3
14
08
28
04
F9
EB
F6
F1
C4
FE
E3
DC
06
14
1B
2A
FA
E1
0F
0F
E6
F7
F8
06
EB
F0
15
1A
F7
E5
FE
23
0A
FB
1C
EE
FE
11
CB
EF
F4
02
DE
F3
15
D7
A1
0C
F3
0A
F8
04
D1
DF
1E
EB
EE
00
09
EB
0C
F6
26
DB
11
28
EE
F8
F7
F8
F9
CF
00
2B
E6
ED
F2
FD
24
23
0A
DA
1F
19
F2
DD
F5
18
E1
1A
DB
E6
DB
20
EE
23
DD
EC
11
07
F7
DF
CA
EC
CF
07
0D
F3
01
F3
F3
F8
16
19
0E
08
21
DA
DE
0D
03
02
D6
FC
EE
08
14
0F
EF
F7
FE
E5
3F
08
03
41
10
E3
12
DA
C5
02
EB
02
F7
E9
04
14
25
FB
09
08
FB
01
F3
36
0F
0E
21
F4
02
25
D9
20
0D
F2
02
F5
FF
2E
D2
F5
DC
FD
3F
D5
1C
19
F7
F5
F8
D2
F8
EB
C9
0E
12
0C
E3
02
CA
0A
0F
15
09
FB
15
F7
F8
07
F4
F0
CA
1E
F4
E3
FE
F4
C5
E6
D1
F6
2A
19
1F
F9
1D
F0
DB
1C
06
B5
F0
0E
00
0B
F7
DE
24
DF
11
20
DD
1A
E1
08
EF
02
F4
B0
EF
E2
0B
09
1F
DC
EF
F0
12
FA
D9
CB
F1
05
DE
05
23
03
EC
11
03
F7
FA
FA
17
1D
CF
30
EB
19
EA
08
0C
EA
11
20
F2
E8
03
00
23
08
19
03
EE
07
02
E2
01
DB
0F
F7
F7
CF
18
0D
05
EE
34
DE
0D
CD
0F
E0
CF
06
FD
06
FB
FD
D6
1A
FD
07
D8
03
1D
01
00
F2
DF
F1
0F
18
05
F0
FD
FC
EE
06
EC
EE
14
E9
07
0B
EA
08
D8
0E
FF
D8
F9
E9
FC
18
CC
DA
FC
EE
C2
07
06
DA
CF
D9
FF
D5
1E
E5
09
01
05
12
EA
09
03
E2
DA
1A
FB
DD
29
DE
D0
3C
A2
EC
18
E0
EF
E8
31
F9
17
14
E4
02
EB
1F
FA
17
F9
F5
01
0B
F8
F2
0E
D6
10
FC
25
04
13
EA
FD
F1
19
1D
2F
F4
1D
F3
F0
15
F9
2B
FD
2B
04
04
CC
F3
F1
0A
22
0A
BE
FE
C6
0D
DF
F6
1E
19
CD
F0
BB
01
89
02
C7
F0
35
FB
FB
C6
B3
14
2B
F1
0C
E0
F6
35
D7
0B
B6
FE
15
F5
FD
F0
1C
DE
1D
B2
F5
D8
C1
FC
0B
EC
FC
18
BF
EC
04
E1
43
06
0F
E7
03
E0
DD
C9
F8
FD
EC
05
EB
F8
F7
12
EB
06
F4
08
F4
12
0D
0F
05
21
09
0F
19
EF
E6
D4
1C
1A
E8
0B
11
DA
01
F9
05
FA
E3
D2
27
0C
08
1E
08
10
D6
DF
0F
01
05
2B
C4
17
F6
26
13
F8
1E
E1
D7
E2
00
E1
FC
03
36
D4
EA
E1
F9
D6
21
E7
17
C1
12
10
13
CB
F2
EB
0B
EF
F6
1B
EE
EE
D9
16
03
EF
E6
EA
FE
F0
E0
20
F2
07
DA
F7
0E
DB
E7
0C
03
E4
FB
E8
26
F4
04
03
E8
F5
E6
D6
1C
F3
EB
ED
F9
16
F5
CA
1C
F0
FD
F9
FE
D8
02
C8
F3
25
0F
D5
1C
FB
06
D6
FF
02
03
05
FC
FA
FD
FF
07
FB
0A
02
F7
FE
05
FF
0C
07
FC
FD
FA
FF
05
07
16
03
04
F7
F4
FB
01
05
F8
05
00
0B
0B
FE
FC
FC
F7
06
06
02
FA
04
FF
F3
01
F6
03
01
04
03
02
07
00
00
02
FC
F8
08
08
FD
09
F5
FD
F5
C7
18
D8
E7
0F
11
E8
22
07
09
AE
F0
F6
22
15
DB
FD
E8
09
20
F5
FF
11
10
F2
1D
EF
29
00
EC
12
04
E8
0A
13
E6
1B
03
03
03
2C
0F
0A
EB
F1
DB
0F
08
DE
D0
0A
1D
2E
13
18
F8
F6
CE
FA
15
3F
29
08
DD
00
F1
13
37
13
F6
0A
D2
A2
2B
F5
27
E1
DD
18
3F
FB
0E
13
0A
22
E3
F3
E4
07
D5
F1
85
2D
1C
32
2A
FB
33
01
F6
ED
F9
16
07
11
2C
F5
FE
1F
02
06
EE
07
15
1E
F2
18
F9
E6
F0
F3
F8
F3
21
13
08
E6
F5
15
D4
F2
C4
FE
E6
E9
FD
F3
E8
26
00
ED
E3
1F
FF
05
E9
11
EE
F6
04
DD
E2
FD
13
B5
03
FA
06
F2
0C
FD
D7
D6
07
DC
FB
A3
11
DC
EC
F2
E9
F6
0C
03
DD
3C
FF
D2
2D
0A
0E
FD
F4
FF
06
EB
09
E5
CD
02
C9
F3
13
FD
0B
D2
0E
03
16
FD
EA
FE
D3
00
E9
ED
D2
FF
F8
02
F3
16
03
09
FF
24
F9
E7
15
FD
E0
0B
E5
F6
F0
E5
09
13
FA
D4
FC
F5
F4
E4
11
F6
E4
C7
0D
FE
10
E3
15
03
21
1F
EB
DD
FC
25
39
FB
CD
0B
28
EB
DF
F9
E2
F8
EB
FE
F1
0A
0A
CC
2E
EB
C3
BC
FC
F3
D9
2C
E8
EE
FD
F9
F6
DF
DD
21
CF
18
EE
DC
1D
CF
47
FC
D4
F0
DF
1F
FB
15
F0
0B
26
14
0C
E6
02
F1
CE
F1
FC
1B
F9
06
1B
29
01
1E
E3
D9
0E
00
DB
17
FC
09
C7
FE
F7
CC
FC
03
15
F4
F5
EA
F4
D2
F8
F8
0C
F7
FD
F9
FD
FC
EC
DC
AE
ED
EE
03
0B
2E
2F
F2
BB
D1
D6
FF
0C
15
14
F8
00
1A
F1
C5
1C
F6
09
05
E3
FF
CB
01
02
E6
F7
06
07
F2
ED
B7
CF
CA
0D
22
0E
DA
FB
F8
E6
01
27
CF
C6
08
04
F0
F1
1F
F1
FD
ED
32
FB
12
FE
12
F2
1F
10
33
EC
17
25
17
23
F8
0B
01
2C
C9
13
05
38
F7
24
14
EF
FC
08
19
03
12
F9
2D
01
E8
D1
E5
EC
0A
09
17
03
D5
FF
D2
1B
01
02
00
18
FD
FE
F5
E9
EA
F9
C7
05
FA
0F
FA
03
01
EF
E9
0A
FB
1D
0B
19
03
F8
CE
01
F9
09
D9
E6
03
16
D7
FE
12
FF
F3
19
F9
0B
EE
F4
D0
F3
D6
CB
1F
F9
04
0A
E2
FB
FE
F0
14
E4
F6
E3
ED
10
EC
F3
0D
E8
E5
CE
23
DD
1F
11
07
F2
02
E9
97
E0
0C
1F
FD
24
0D
FB
FB
3B
1D
EC
F7
11
EC
0C
15
E1
22
E6
03
0C
30
FB
FF
15
F7
F5
0B
09
E5
D7
FF
14
FD
1B
05
1E
0D
07
07
05
FA
DC
FB
FF
11
0B
03
05
0B
F0
03
F7
F0
ED
0C
DE
E4
F5
0E
F0
01
03
E2
03
0F
FB
F3
E4
FA
07
E7
DB
0A
EB
DD
0E
F8
DA
1C
00
09
15
0B
E7
0A
18
F8
09
05
01
12
08
F9
00
09
0A
F1
29
03
12
05
D1
E5
F3
FC
E0
0A
BA
01
E8
02
09
F8
00
FF
FF
F8
F7
03
09
FD
00
04
06
FF
FC
03
FE
05
FC
05
FC
FA
FF
06
FC
F8
F8
03
F9
FB
00
F8
F8
01
03
01
08
FD
08
F7
07
FC
04
01
05
FF
05
07
03
FA
06
FD
02
FB
04
01
00
0A
04
FC
F7
08
FD
14
15
0B
F6
25
12
0E
D6
EE
00
11
EC
E0
F0
26
05
F3
DA
E4
E3
FA
EE
FD
FA
04
D6
F5
F1
DA
25
F8
18
15
15
DE
F5
AB
1A
D0
03
12
E5
03
10
06
2D
1E
1A
09
F6
02
04
26
FB
ED
FE
F9
2E
D7
1F
0F
F5
07
FC
1A
E2
00
DE
09
DF
14
C8
0D
F4
0A
01
F3
D0
10
EE
93
DB
EB
0A
F9
0E
F1
02
FB
EE
BB
F9
0F
BE
DD
F2
0E
D9
F2
07
F0
E0
D8
2B
E3
06
00
04
06
A5
FE
F3
F4
D4
F3
FC
E6
06
F5
21
F3
F2
E6
ED
D9
24
FD
1E
FF
F9
16
D3
F3
04
F1
25
C4
F0
04
DD
F4
11
DF
2D
1E
E3
06
EC
FC
F7
FB
09
EB
10
DA
E2
FB
05
1B
D1
15
04
09
F9
00
CB
DD
22
0C
E8
10
15
24
05
0C
26
E1
EE
02
0E
1F
09
D8
DA
F3
19
E9
FB
0A
EE
09
03
02
EB
C1
0B
D1
02
0D
14
D8
D3
EC
13
07
CD
E2
E1
BC
E3
E2
E8
F8
1C
F5
F4
08
FE
18
01
E8
AA
E2
D9
F3
DA
26
05
DA
B5
15
1B
0E
EB
E9
FE
F5
DA
0C
F8
DC
09
92
22
13
F4
23
E4
FC
F4
03
F1
F5
F8
F8
EC
06
03
04
01
F8
06
F8
F9
FB
08
01
06
03
FA
FF
06
06
05
07
05
04
FF
FD
00
08
07
FF
04
06
FE
01
00
04
03
F5
00
00
06
04
FF
F9
03
02
00
03
FD
FA
02
F8
06
F9
F9
03
05
FD
00
06
01
02
FB
01
01
04
03
B2
FE
EC
16
03
05
F4
E3
0B
FE
05
D2
F3
1B
21
01
FD
04
D8
15
FF
E8
EF
16
F0
F6
04
02
11
FF
FB
09
10
FA
FE
0C
DC
FD
E5
13
10
1C
E0
03
E1
CC
12
E7
F6
FD
F4
F3
FB
24
F5
ED
07
03
16
FB
FA
08
0E
F6
02
FC
00
05
FA
FB
07
0A
FB
0B
ED
F0
16
29
F2
F6
E8
0B
28
FA
FE
F9
14
E1
F3
FC
E9
FA
F8
EC
2E
FE
18
D2
14
2A
D8
DC
03
FF
F1
F4
FB
10
E9
F3
F4
15
14
15
F2
F8
EF
FF
E4
21
F8
03
E4
F8
EC
00
ED
12
E5
FB
04
10
41
FC
26
1B
DD
22
23
11
0B
0A
0A
FA
04
F1
17
1E
FA
EC
24
0D
00
DE
1F
E6
22
D7
1A
E7
29
F7
EE
27
E2
03
F9
1E
0E
07
12
FD
C7
FA
26
24
24
F3
06
EA
0C
17
1D
F1
01
1C
C5
04
FC
26
F1
FE
0B
ED
10
F9
F2
FF
15
13
08
0C
08
FE
03
DF
2F
10
F6
14
D6
09
F8
03
19
07
19
07
09
EB
F3
00
F4
0A
0E
E8
01
FC
12
0B
D9
EB
E2
F1
29
F7
0B
D9
03
12
CC
E6
11
08
F8
E4
09
1D
E8
2D
FF
FB
38
E6
01
20
27
DF
F7
02
FE
00
03
FC
02
25
26
16
DA
DB
08
FE
03
2C
2C
E9
FF
F3
00
F6
DD
F3
EB
AA
DF
DE
1E
03
0B
F8
2F
CA
08
07
24
0A
01
F5
E2
E6
0B
0E
90
F1
2B
E6
CB
08
0E
25
0B
2C
0D
32
C9
16
20
03
04
00
06
48
34
FF
04
29
08
00
0F
14
FD
26
E4
FB
09
0C
F6
F8
08
1D
FB
EC
E9
11
1A
26
FB
EE
0A
2C
DA
24
FC
12
F5
FF
00
E4
FE
FA
E0
0C
1D
FD
0C
F1
2C
CE
12
F3
0F
FF
1A
04
F6
E5
F6
1A
10
FA
F0
1C
FD
F9
E0
ED
27
14
F5
CB
07
15
FF
FC
0C
12
09
08
08
0C
0D
02
ED
EC
F6
0E
08
F5
E5
22
DE
13
F9
F1
F6
F2
E4
D5
F4
D0
F8
D2
E3
10
EC
BE
07
1A
15
1F
FE
08
1F
0E
29
16
0F
15
0A
08
26
EF
CD
FB
BD
ED
02
0C
3A
FA
F2
0E
D1
F3
D8
17
00
F0
53
EB
10
01
D1
0E
10
02
F2
FD
FE
14
21
1D
F8
F3
D6
CE
FA
06
F9
00
12
24
05
11
F8
DF
D7
EF
F1
ED
E0
DE
EC
F3
0F
05
06
15
08
3B
15
01
F3
E9
F8
08
EF
FE
EE
F4
FF
17
F1
F1
DC
FB
09
E6
FA
B7
15
00
11
F0
04
FC
C1
DA
12
DB
DE
F1
FA
FF
05
FA
EF
E3
16
FC
06
CC
01
E2
01
E0
DB
09
F4
04
EB
21
0B
09
D8
2D
F4
E4
F8
0B
F1
06
E5
CA
06
C1
F3
28
F3
FB
F5
1B
05
09
0D
EF
27
F4
1F
1B
B5
D2
C3
ED
08
F3
30
06
05
D9
FD
27
D6
F8
FF
E1
F7
FE
E9
FC
E9
EB
0D
CA
FD
17
08
10
1B
0C
0B
ED
F2
F3
09
E4
01
F2
04
E3
10
D7
F6
F3
CE
F4
F3
E0
13
17
F8
1A
3C
05
2F
19
26
FC
13
FD
E8
29
09
F5
03
17
16
11
EF
FB
FC
32
EB
C2
DD
E0
E5
F3
D9
D7
FF
0D
01
F7
0F
FE
FA
01
0D
2F
ED
14
D7
E9
00
07
F2
F9
EE
1A
CE
0E
0B
0B
F7
FA
DE
18
42
F1
07
01
DC
D3
23
DB
FA
C7
0D
D3
0E
09
1C
0C
1D
EE
E2
0B
1B
04
F1
12
ED
FA
0A
14
EB
FC
D9
22
16
E0
01
17
FB
DC
EE
FB
30
F8
06
0B
22
DC
EC
13
20
ED
D7
CC
F7
FE
A0
13
EB
00
25
09
E8
EC
13
1C
CE
F0
12
F3
FE
CE
E7
E1
23
14
F8
11
42
FF
18
1E
F2
0A
0C
04
FB
F8
E2
2D
FA
1A
22
07
D9
16
05
F4
EF
0A
11
FD
FB
00
06
30
05
00
2F
BC
FB
FE
F6
EC
E0
FD
ED
EC
10
05
04
0F
05
E9
F2
E5
19
16
F2
F6
2D
D8
F5
30
14
11
F5
14
12
17
DA
02
F0
1B
F3
15
E9
CE
CE
F3
EF
E2
1A
ED
FD
0A
CF
F9
D4
FC
EC
F1
F9
FC
C7
F7
FF
E0
D4
F4
F7
06
E9
22
EF
F2
DA
0E
0E
E2
FF
F3
0F
B1
ED
09
E3
10
DE
00
F1
F2
D8
F7
EB
0C
CC
05
D9
08
11
DE
FE
BF
E5
E2
F2
FD
EF
03
FB
0D
07
DC
DE
2B
19
AC
E6
EE
2E
0C
F4
FB
EB
E6
E5
F3
0D
04
F4
F7
0C
D1
CB
E8
0E
D8
1D
06
06
CE
00
0E
02
FC
F2
EF
F7
F6
08
0D
1F
EA
02
CF
EF
2C
E8
0E
05
FA
EA
0B
F1
F3
10
DB
19
E9
DB
08
18
2C
F0
08
CC
1D
D5
F1
28
B1
22
39
B8
08
D4
FB
E2
09
18
CA
EE
CD
08
03
D8
FD
FC
39
1B
0C
1B
12
0E
18
09
11
FF
FF
D3
09
DD
EA
02
1C
D7
B8
22
E6
DD
03
04
11
17
07
15
E2
F8
EB
F6
D3
11
C3
09
DB
23
2E
F3
F4
03
15
19
E6
9F
F9
D8
FB
06
17
24
11
0A
FB
1A
C6
BB
DD
F2
F0
06
20
05
D7
ED
FB
ED
18
05
F0
13
F3
0D
DB
F0
06
26
01
10
23
11
0B
EF
00
16
F3
D3
F0
0E
E0
FC
FA
E4
DF
05
19
25
24
E3
F6
02
0E
E1
FC
E1
04
02
F5
FE
FD
02
FA
EF
08
FC
F1
FA
DF
D9
1E
0C
00
03
F6
00
C3
02
0A
20
17
02
0C
17
00
EE
01
10
0A
0D
02
F4
1A
FE
FE
FA
F7
F4
F4
F4
D9
EA
06
10
E7
FC
E8
1A
09
14
3F
E2
0E
DA
08
1E
E0
09
16
0E
05
0C
02
0C
FE
20
28
94
FB
07
0F
0D
E1
E1
19
19
07
FC
E9
01
F6
1B
F2
EB
FC
17
06
EF
EC
11
F2
ED
17
02
02
22
F7
10
EA
0A
1A
17
1C
FB
E4
28
E8
0A
F1
E5
28
09
EF
0D
FB
FB
E2
14
EA
26
0C
BE
36
EA
06
EA
CE
24
BE
0B
09
B4
C8
F7
FD
00
EC
F9
DA
EC
F3
06
E6
F4
AE
0C
0E
12
09
F9
0E
DC
11
F8
EA
1C
CE
3D
F0
DD
DD
08
14
E3
01
13
A3
F0
A5
DA
0F
1C
17
17
D9
D7
05
E6
25
ED
04
0D
17
E8
F9
0E
01
E4
24
05
04
03
FD
F1
03
F7
16
07
E8
FD
06
D1
D7
0B
0C
FE
24
0B
04
02
93
0E
35
13
EC
F4
0B
19
1F
F9
F3
E4
FB
05
0C
06
1C
0C
DF
DF
07
0D
EC
13
F0
01
DC
D7
0B
ED
F3
E0
2A
FC
17
0D
2E
DE
EA
10
FA
05
D2
F9
0C
FD
F5
E8
14
F9
31
18
D9
12
FD
1C
E7
06
0E
F7
1A
FA
07
EF
0D
13
2C
07
FD
18
23
F9
09
0A
FC
14
D2
19
E6
F1
1A
11
F4
1B
01
ED
E4
00
02
29
F9
EB
F6
ED
2E
FE
F7
0E
F8
F5
EC
17
0F
E9
02
BC
2D
15
EC
F0
01
E7
11
13
03
06
F3
F3
EC
01
07
EF
D9
F4
1D
04
EA
F3
00
08
F3
05
AD
14
E3
E4
F8
16
E6
D7
F8
EA
0C
2E
D5
FE
E0
F6
FD
DE
05
D6
13
E9
28
18
11
FF
1F
01
0E
04
04
0D
F5
09
10
01
0A
E2
FB
16
AF
E7
AD
22
0D
ED
28
03
03
F8
F0
05
EC
E4
E6
02
07
E0
CA
D5
EB
D8
D3
E0
F5
FF
C3
1A
1B
3C
05
C4
13
F7
05
DC
15
D5
EB
EB
CD
C4
47
14
0B
F0
E4
E9
FD
14
FD
09
EE
F8
F0
1F
01
F7
25
F0
DA
01
11
07
03
11
03
1C
FD
EE
20
D4
D1
F9
E2
80
DF
EA
11
01
0D
EA
D5
03
29
14
D8
0C
F4
F7
D8
1A
DE
F2
17
28
93
F6
07
EA
F2
F1
01
CF
D0
F1
D7
EB
10
D0
05
F6
11
FA
12
F7
1C
FE
B3
0E
0E
1C
06
E9
34
C3
FF
0A
06
02
44
D1
08
00
0B
01
FA
19
E4
F3
11
F4
16
08
23
2E
29
1E
FB
FE
08
2C
DF
F9
05
28
0E
25
0B
FC
33
F1
11
D9
F5
2A
08
0B
F7
DF
0C
1E
0F
CF
1C
05
29
EA
DF
0D
39
01
D6
0A
E5
01
21
28
04
D3
16
EA
08
0F
01
14
F5
0B
FC
ED
E2
DB
03
1C
11
0F
1D
F9
16
ED
31
18
FE
02
0C
2C
FB
FA
2E
20
36
DF
EA
1B
C1
0A
01
F5
D4
FF
15
1D
FE
02
1C
06
FC
D5
EF
DF
FF
EA
06
F7
FE
26
07
D6
05
FE
FB
E5
1C
F5
04
FD
DD
FB
0E
0A
01
0E
26
24
25
0E
F3
B8
E3
ED
0D
03
D5
1E
FD
05
F9
EB
D5
08
15
0C
EE
1D
FC
EF
2E
24
EA
07
BF
06
0C
09
E8
12
0A
32
11
E0
2C
0C
E8
EA
0E
DC
DC
1B
2F
F5
EF
26
20
0A
16
04
FA
1D
0B
14
FB
ED
13
E5
1A
DC
01
F1
13
C6
08
D3
EF
1A
E7
F7
EC
0A
DF
F5
F0
03
46
09
12
04
C5
04
DA
29
10
FF
CB
CB
DC
0F
08
F8
0C
1D
C4
04
02
F1
EF
0F
DF
0A
EB
E5
F8
EE
D7
DA
E5
0A
C8
E1
07
19
E5
0F
1B
D5
FC
FC
07
F9
0F
08
E7
18
F5
E1
F5
EA
03
02
FF
02
F8
EF
F0
03
DB
FF
02
17
F7
BA
0F
D6
E1
03
E3
EB
E7
FF
EB
E9
FC
C0
E4
06
08
FA
09
02
F9
01
12
FA
E1
1E
EC
EE
16
2D
0A
E6
06
1B
2B
21
FE
E6
F7
1B
10
99
0E
F4
F1
31
20
DA
0C
F4
FF
EB
27
09
D6
F3
18
D5
FE
D5
01
FE
26
24
E4
FB
F4
16
50
0D
0D
F3
35
12
28
12
EF
E6
09
06
17
1F
FE
0F
0F
13
E4
1A
08
04
DF
29
DF
26
DE
CB
F1
1D
E3
1F
12
08
0F
10
02
ED
1C
09
D6
E4
D9
F2
FC
EF
FF
F3
FA
03
FC
FD
F0
DE
0D
DA
0D
E4
CF
F0
19
17
D5
FD
0A
FE
F7
01
EF
D8
D4
0A
EC
E4
1A
FB
E9
E8
0D
01
DE
DC
D5
09
1D
FC
E4
D9
F2
F0
32
E8
00
F9
E4
FF
04
04
04
02
FA
F9
F3
0B
FB
02
05
FD
FD
FC
F8
0E
FF
F8
09
03
00
FB
07
F7
F6
FE
07
09
01
05
FA
FF
05
F8
05
FE
F9
FC
FC
05
FD
09
F8
FC
FE
06
0E
FE
03
04
FE
07
0A
FC
05
00
FB
02
00
09
04
0C
05
F2
0A
EA
02
FF
03
AB
06
DF
15
0B
ED
09
02
D9
F0
0C
EE
E7
DA
02
09
DE
EC
F1
16
1A
D0
0A
DE
0C
EF
CA
11
1A
DD
FF
07
FB
15
23
E1
E6
DB
12
FC
FD
E7
E8
F4
F3
FD
EA
FD
E1
D6
10
19
08
0E
A5
00
01
1B
FB
FA
0E
26
D1
E7
EE
FF
07
E8
16
14
13
FE
1C
FA
06
0B
D8
10
FA
27
08
38
2F
E2
FC
E9
22
ED
FC
B0
1A
EE
F2
EB
F8
E6
F9
05
18
FF
FC
E5
00
07
CC
05
1F
0A
E5
EF
FE
00
15
0A
FC
0B
09
FD
04
04
13
24
09
21
FE
12
FB
08
E9
01
E7
01
0E
EA
21
FA
FB
03
FC
10
F8
F4
F9
E7
BB
2F
F8
F1
FB
26
0D
F0
D8
F4
F1
F6
32
02
13
18
F6
E0
E5
C6
00
DE
F6
C0
25
D0
B5
F3
17
F2
1C
B6
DA
1C
F9
F9
25
11
0B
1C
23
F2
1A
17
F5
FF
E8
DE
EC
B0
15
E5
40
EE
E7
06
0C
1B
22
0C
EF
2A
02
DA
E7
FA
04
00
09
DC
12
F5
E4
12
15
0A
1A
00
FF
07
C0
E2
F4
07
FB
17
F6
0F
2C
23
E1
10
D2
FE
3B
0A
EF
26
13
2B
D3
EF
10
EE
C2
F5
07
E7
DE
CE
01
04
FB
F4
DF
07
FF
0E
FD
0D
FD
DD
18
C5
E7
E0
03
C1
27
20
FF
FE
FC
CB
06
0E
FE
FB
D8
0C
FF
1D
C5
FE
FC
00
06
DA
03
02
F0
F2
E1
1E
F8
28
EB
1F
F7
00
E8
B7
18
F7
EA
F2
04
C7
02
11
15
FE
05
FA
06
D1
04
F1
02
DB
D7
0E
E2
D8
DC
0A
1F
07
ED
10
00
12
EF
DE
25
F8
E7
E9
10
FB
F3
FD
01
0E
02
FF
17
DA
EC
15
19
10
07
15
0C
E3
19
1F
0F
E3
27
0E
01
C6
24
E5
00
FD
FB
D2
FD
FB
2E
11
DD
09
FD
07
FE
FE
B4
FB
D7
E5
0A
EC
33
11
22
F7
CC
BA
EF
1C
FD
F1
0C
10
F2
CD
21
FE
F6
E5
01
D7
10
D8
10
06
F5
D5
10
FC
07
FC
09
0E
1F
D9
FF
F1
0D
2A
13
06
00
FD
E7
09
16
02
E5
0A
0F
FB
FB
0B
11
FF
05
07
D4
15
FB
FD
E8
02
14
35
DB
14
CE
37
01
F4
F8
EA
05
1F
1D
0C
15
FB
F0
FB
CF
09
AF
0F
0F
1C
F9
D1
E0
C3
DC
14
13
ED
1E
16
0D
F0
20
17
C5
C1
28
2B
01
D4
F3
E7
E9
0C
09
01
17
BF
0A
19
F4
FD
FD
01
0D
01
03
FE
16
09
EE
18
C7
04
F3
12
DE
F3
FF
F9
00
DF
2E
F4
14
CF
0D
E9
EC
E8
AE
E7
F1
FF
E9
17
0B
37
DD
17
E8
21
FA
01
0F
D9
E7
C1
F8
FC
F7
FC
0A
1D
DC
1D
E3
F6
E9
E6
02
F6
10
C8
05
FA
EB
FD
E6
0C
FA
18
E1
18
F9
18
EA
F8
E9
11
09
32
FC
18
03
FE
A7
10
06
01
EC
E5
29
FD
1D
F9
E9
12
0E
D3
DC
E8
EE
14
DC
03
FB
DC
E8
14
04
BF
01
EE
EB
C0
0C
FE
FC
FF
0A
F9
E0
13
EF
C7
DD
17
DF
BD
E8
F9
C3
E9
CB
E8
EB
D8
D1
F9
D6
F4
E6
02
F3
AC
E8
CD
FC
EC
CE
E7
F5
F7
FB
E3
1E
EF
EC
FB
F7
1A
FD
05
F0
EF
01
10
32
EA
06
E2
14
F7
DF
3B
F8
0D
F6
F4
B4
FF
C8
05
09
0B
F8
E9
DC
FD
FF
08
EC
03
CC
CE
B3
FA
DE
12
BC
0E
02
E3
13
C0
F2
FA
04
FC
1E
EE
FF
0D
98
EE
D2
02
09
07
15
07
0E
D2
0F
F2
EF
DF
10
F0
08
F5
F3
E1
BD
19
07
F0
D9
13
BA
F8
EC
EF
09
CE
CC
0C
F3
EA
04
FF
01
0C
15
DB
1B
25
DA
0B
0B
21
FD
32
FA
1D
E9
F2
D6
EB
2C
15
CC
24
03
FD
FD
F0
FE
09
01
E7
24
E9
11
03
06
1A
E8
13
0B
E4
FA
F0
C3
20
06
05
FB
E5
E8
F0
C1
CE
18
F8
E7
FD
15
0F
F3
D5
09
B1
1E
0C
02
E7
E4
03
E7
E5
B9
01
E8
E5
F6
FB
00
ED
EA
12
F9
FE
F6
EB
1F
F8
04
0F
07
D7
F4
E4
EB
FA
E3
00
EF
F7
D2
D8
20
F5
08
04
00
EA
F8
D5
FA
10
E0
C7
FB
FB
E7
CC
F9
D9
DE
F4
B3
F1
FA
F6
E1
F4
FE
DD
30
0B
04
F2
06
05
FA
04
F8
07
08
04
01
02
05
00
F8
07
FB
02
04
FE
FD
07
FB
01
F1
08
07
07
0C
FC
FF
0C
01
FD
05
01
FD
02
F8
01
FB
FF
0B
F3
0A
FD
06
00
02
FE
FB
01
00
01
FA
F9
06
03
05
F4
10
08
03
00
04
01
1C
F0
15
EF
A6
21
EF
00
06
17
07
33
DF
0C
DB
FF
CE
2B
20
CC
FB
05
03
39
F8
0B
21
CD
0F
18
16
11
E6
F6
22
00
E3
FD
17
F6
0F
E2
1C
F0
FA
0E
01
06
1F
ED
FE
FE
EE
CE
2C
F7
21
17
1A
E9
E8
DD
15
04
1B
E8
EB
00
F6
1A
06
01
08
EF
FE
D1
C3
25
F3
1D
F6
EA
E4
0F
06
1D
17
10
FF
04
FD
02
29
F8
B1
B0
20
05
13
FF
06
FD
FE
00
08
F8
17
1B
F1
FF
2D
F9
F5
F7
F0
0F
DE
05
C8
FD
00
F4
EB
F0
05
F5
0F
05
FD
0A
04
F6
11
E6
EE
CE
FF
E1
0E
E7
E7
E5
FC
EC
DC
05
F4
ED
FA
E5
EE
0F
EE
E9
E2
F2
06
00
C0
0A
FA
09
FF
04
FC
F0
F1
12
CF
F8
F5
21
F4
F6
FA
DB
DB
0D
E2
E8
F8
DE
EE
15
01
F4
03
EA
0B
DB
F4
DC
E4
DB
11
FE
FE
0A
0B
04
10
C5
DA
F1
20
02
FD
F5
D2
E5
FC
F4
FB
18
3A
00
01
E5
FC
09
FB
FD
B4
0D
F9
E4
14
02
DE
DC
FB
EA
0D
29
F2
F7
D9
F5
DB
1E
2A
EB
FA
17
F6
03
07
F6
EB
20
27
E5
EC
0B
24
00
0A
EA
F3
15
D7
FC
DD
FB
16
03
16
EC
FE
0B
C1
31
F6
F9
DC
E9
F3
E0
F4
CF
0A
0B
F5
15
29
16
0A
15
0D
05
F8
05
E9
26
E2
D5
F9
EA
00
02
08
00
15
0A
FD
EE
00
F0
FD
DB
F9
F4
05
DE
0D
24
04
D0
24
FD
D3
F5
06
CF
2F
FF
F2
CE
D7
FC
11
D6
E6
D3
1B
00
FA
E9
C0
0C
FB
E6
0E
DC
F2
0A
19
07
0B
F3
1A
E4
EA
F1
FD
FA
F6
06
E9
FB
E0
28
16
12
F0
DA
08
0D
EF
E9
C7
04
33
CA
F2
DD
00
DD
F5
E3
F3
F3
22
DD
91
C9
C3
16
19
FC
0E
37
1A
05
0F
F1
F7
AC
0F
17
1D
F0
0B
CF
FC
24
EC
DE
05
09
FC
21
05
FD
15
EC
0D
DB
10
14
F1
FC
08
02
CF
FD
EF
01
00
0B
11
09
E6
04
22
14
D0
F6
07
F1
C7
FA
0D
08
00
10
FC
03
05
12
01
0F
00
29
F4
0A
FF
0E
07
D7
D2
DA
DB
11
D2
D6
F9
FF
F3
F6
E7
0B
13
12
12
34
F8
14
E0
03
F1
0E
F3
E3
EF
F6
FD
03
1C
0D
EF
0F
0A
12
EC
EE
1F
E9
05
E6
0B
F4
E7
F2
F7
D1
19
07
0A
D6
2A
EB
FC
E8
0A
E6
05
D6
08
C5
FA
BB
F0
D6
F9
FA
FF
FA
E0
1B
FB
1B
FE
E3
25
EB
0C
F5
F0
DA
EE
E9
01
02
17
E5
FF
0A
FC
12
FB
1C
09
EA
0B
02
11
E8
E7
14
FC
F4
F0
08
E2
EB
26
12
F6
FF
13
D6
13
02
1D
17
0D
EF
34
EB
28
10
F2
E2
0D
00
C6
00
25
F8
F1
08
F1
1C
FE
EA
F3
D0
FC
FF
E7
D8
EB
11
07
F4
F9
F7
FC
F3
F4
09
EA
9D
EC
07
10
08
02
12
26
E7
02
09
10
FF
11
12
00
1B
0A
EB
EB
F2
DE
0B
FE
E2
F5
0A
FA
FC
F7
F7
FD
09
03
09
04
04
01
02
00
FE
F9
FE
F9
FF
F9
FB
FA
FC
04
FF
05
01
FF
F9
FB
02
00
06
FB
05
FB
01
F8
FD
FC
FE
FC
00
09
04
02
F7
FE
02
F8
F8
FD
FB
F7
06
08
06
04
F9
00
FC
FB
08
F8
07
0B
00
E2
16
F1
05
F7
EA
E8
F4
C2
06
F6
23
F8
F0
04
11
11
06
F7
F0
E7
EE
15
16
DD
D5
E0
BE
FC
19
FE
0B
E8
FB
2B
03
D5
F8
F0
F0
E3
FE
1C
2D
FC
EF
0D
0A
F7
F9
1A
EC
0A
00
FA
E4
DF
15
1C
3E
FF
DF
3B
E8
14
D9
0A
13
14
07
12
EA
E9
0B
CA
F2
FF
F0
BA
A9
01
08
FC
F7
F2
21
FF
E4
DE
ED
E3
E8
DD
F3
0E
F2
0D
FE
02
D3
CD
16
D9
0E
FE
FE
0F
CA
DE
B6
ED
F3
F4
EC
EF
02
18
09
03
F6
EE
FD
EC
04
09
25
1A
F2
04
F0
DA
F4
EA
1E
E6
D3
01
DF
00
1E
02
2D
1A
05
EC
05
05
E8
F1
02
11
08
F8
06
EE
1A
07
C0
0B
02
0D
B7
22
CD
EC
F3
12
E4
12
F8
0F
EE
07
F6
12
E4
F1
1A
0F
03
EA
F1
EC
14
E9
07
D6
00
1F
E5
DD
F6
EA
01
96
0F
EC
FD
F0
D6
04
FF
05
F1
C6
F7
F3
E9
EC
06
01
01
C5
BA
17
FB
04
FC
EB
EB
D7
E1
00
FA
0B
BF
F4
ED
0A
FF
04
DD
2C
FE
0D
D4
FA
FE
CA
0C
CF
14
06
D9
EA
10
0A
06
F7
E6
02
F4
FF
ED
07
FC
FE
FF
07
FC
03
FD
07
FF
FB
F7
FC
FF
05
FA
0C
04
06
FC
07
0A
FA
03
05
F8
F9
04
00
FD
FD
04
FF
FC
F9
00
FA
F7
02
02
F8
FE
F5
00
07
06
FC
0B
FB
02
07
05
F7
01
F7
01
06
FC
FF
FC
01
02
FC
05
BB
1A
FB
1B
F4
FC
17
C1
0D
0E
16
F3
C1
F1
FF
EE
1F
0F
E0
0F
FF
ED
DB
0D
E1
16
22
14
FD
15
DC
02
F7
17
0C
EC
DB
09
0D
0A
20
00
ED
E7
E8
F9
E8
D9
D3
F8
F6
F4
12
05
01
F8
DD
FF
0A
11
0B
0E
D9
1B
EB
0A
0D
03
2D
01
03
FE
EF
0C
1E
F6
21
F9
D4
EE
DA
E3
F3
EC
F6
12
EC
F4
E6
E9
D2
FD
33
FD
14
D2
21
E6
20
FB
EA
F8
08
FA
E4
F4
09
0D
EE
E3
26
1C
BB
0A
E5
EC
16
0F
15
17
03
04
F7
18
08
F9
CA
DE
DC
D6
15
37
39
E7
31
0D
D1
21
F1
14
11
0F
E6
FD
0E
FD
09
18
F7
05
D3
09
13
AF
15
FE
28
E7
1D
EB
25
21
DA
0C
F6
17
E3
25
18
EE
17
FC
DB
FF
05
08
F6
09
07
EB
0D
04
17
DE
02
F4
D7
F0
03
13
10
F4
0A
FA
E3
EA
D9
19
03
08
D7
E9
DE
17
CB
D5
FC
FD
FA
F0
05
13
FA
0B
FE
2C
14
F0
1D
DA
FD
F6
DA
01
07
EC
19
EE
F6
F2
F8
04
ED
EF
F1
CB
D8
F3
F2
09
CA
EE
B4
E9
EA
D2
E9
EE
E0
E4
13
06
FF
F4
0E
1F
0A
EF
E6
F9
13
00
18
C3
11
08
2F
DC
01
F6
1B
DE
EA
10
15
E2
FC
1E
02
F3
08
F8
FB
E9
F4
F5
28
E7
10
ED
18
F7
18
F5
09
0B
ED
0F
EA
FC
F5
E7
D2
21
F3
0E
E3
E7
ED
11
B0
17
F0
00
E6
EE
34
23
F5
EB
F2
2E
07
09
F6
31
19
ED
17
F4
09
0A
E3
F4
F7
11
A7
E9
03
17
FC
0D
EE
FE
0F
06
19
E0
F3
0C
E2
07
F7
F7
05
FC
F7
AD
F1
01
01
F5
0A
E7
0C
14
0D
EE
13
FB
F4
05
F2
FC
01
C7
10
DD
03
17
F4
04
13
EB
E7
1E
08
05
11
CD
D6
28
F6
13
0F
EF
E9
05
D8
FF
18
01
DD
D7
F3
05
0E
04
E3
05
D5
E0
E7
0F
08
0C
EA
FB
F7
03
15
EC
F6
F6
CD
CD
E3
1E
0A
2A
FC
15
0D
FE
FD
ED
F9
04
F1
20
10
E3
F0
10
C7
F0
23
02
28
EA
18
05
C3
F5
0F
2C
0B
F4
26
E3
ED
18
F2
1E
1F
04
F7
F5
FA
25
DA
18
FD
09
F4
D2
F9
10
EB
27
0A
18
0C
FF
00
CE
CB
EE
F3
FC
02
FC
F0
02
13
CE
B6
F6
0C
FF
18
28
00
13
EB
03
FA
FF
F8
08
03
FD
09
EC
20
0C
12
0B
14
DD
FC
F1
07
0E
0B
F0
D3
ED
D9
E0
E7
0A
F5
0E
FB
1B
F6
0F
DF
0D
0B
F8
FF
DF
06
02
FC
0D
D1
01
EC
02
10
05
F4
02
1E
DF
F4
E4
FC
FC
20
DC
19
FC
EC
01
DE
E2
10
FD
1D
F9
09
FD
0B
F7
DE
08
DF
0D
A9
FE
E9
13
25
F4
00
19
10
1A
04
02
FF
F9
FA
26
F2
17
17
FD
30
02
0F
0B
16
06
F9
E7
0C
FB
00
03
0B
FE
1F
02
F0
F9
F3
C9
DB
F1
06
0B
07
DD
1F
FE
08
E1
24
00
18
09
EB
FF
1A
0D
03
1E
E4
F1
FD
13
21
07
EB
0C
06
0C
02
D2
00
DB
E0
FF
F6
14
00
04
E4
0A
19
D7
24
F2
E8
EC
02
0B
D6
E0
10
0C
08
F8
E8
FE
F2
FE
F1
04
E8
1B
A0
F0
FC
FD
F1
01
E4
F4
13
F0
F0
FE
0E
F0
FE
FB
FA
EF
FF
D7
FD
EA
99
F4
F2
00
E1
CB
17
16
EC
03
CD
08
3D
EF
14
30
FC
EB
DA
FA
F3
EF
E2
19
15
0E
F4
F9
33
2B
E4
C3
F4
E0
DA
E8
1B
14
0A
16
DA
E4
14
2C
DC
F8
14
E5
01
FD
CF
07
2D
02
FF
12
05
07
0F
06
03
E6
B7
EC
F5
EE
ED
18
F4
EB
08
FD
0A
13
14
FB
E6
03
F4
11
F9
0C
1B
09
18
EC
0D
19
F0
16
07
CE
CD
25
02
0B
02
DD
EF
07
D2
02
04
F6
EB
0A
00
18
F8
FA
02
1D
18
1C
0F
EB
09
04
E0
05
EA
2E
06
FC
CB
F7
DD
EE
FE
DD
FA
04
14
F1
AD
FE
04
F5
08
07
EF
F9
D1
03
F7
CD
F4
1A
F1
DC
D7
07
10
E5
ED
0D
10
15
EA
ED
10
D9
E3
ED
DC
28
F5
F9
04
DA
C8
0C
00
EB
DC
F1
12
F8
02
FA
FB
01
DE
D8
FB
02
1A
DB
EE
BE
0A
EE
BB
FF
10
DA
EA
D8
0C
08
CD
DD
E9
F6
FA
F0
07
D0
FF
02
ED
CE
04
05
0F
DB
02
06
1C
BC
EA
03
0B
E6
0F
F3
D7
FA
23
E6
ED
D7
EF
DA
C6
08
F8
1F
01
07
CF
EB
F5
F7
F5
F5
0E
D6
E6
F0
07
17
14
D7
98
07
F7
EA
15
09
FC
FF
0A
21
F4
FA
F1
F7
04
D7
03
BA
FF
E6
FD
01
DC
1E
1F
A5
0B
08
C5
13
07
F1
0B
EA
07
F2
F2
D8
F0
18
E2
D2
FD
F6
CC
14
0F
20
F4
EE
22
23
EF
F0
B6
07
0B
F1
09
23
15
E6
DB
E3
E8
0E
0F
DA
CA
08
D8
C3
F1
FB
22
0A
E5
02
0B
EB
E6
EA
03
E4
FF
1B
E1
E6
F9
DB
05
F5
FD
FF
08
F0
F3
FA
FA
D2
EC
EB
27
31
FD
13
E7
16
10
E7
E4
E7
1D
16
FF
DD
E2
D2
09
07
2D
F9
F3
0E
D5
00
EE
03
E5
2C
FA
FF
14
F4
F7
F3
EC
10
0F
E5
F4
E9
DF
E5
13
ED
F4
E6
03
EC
01
E5
05
FF
F2
DA
09
04
C6
04
0A
13
FF
1E
FC
09
F8
0A
14
05
07
16
F5
E0
DB
FF
17
EF
17
0A
0E
EB
12
1A
F1
E4
02
FC
0F
EA
F8
5C
FD
07
07
05
02
E5
05
23
BB
13
E9
01
1A
EE
E2
02
12
FB
FF
E5
09
D8
F3
E9
F8
C0
E8
FD
23
E7
0A
E0
E3
03
2D
E5
36
F4
FE
E5
04
00
13
27
DF
FC
13
F7
B8
1B
FB
05
05
12
25
F5
18
D5
0F
02
03
08
BF
21
05
F8
A0
E2
26
92
1B
0C
D2
BF
01
E8
12
D0
DF
EB
03
DD
FC
F0
09
BD
FE
37
17
F3
06
14
D5
34
0B
F5
04
E0
3A
DA
ED
00
C4
32
FD
FE
0D
9C
FC
CE
EB
26
1F
FE
0B
17
EF
14
E7
2E
F4
02
0F
EC
E8
E8
1E
D5
F7
28
06
EA
0B
09
F7
FE
E5
19
FA
EE
07
FA
FD
C8
16
0F
05
1A
0C
16
FD
E1
07
EB
0B
FD
FB
22
1C
2B
02
F3
0F
EC
F5
FD
FE
1A
F6
E8
08
CB
03
D3
1A
08
0F
26
F1
1B
ED
F9
E1
06
F5
F7
10
E3
F7
F7
EA
FA
04
CE
DA
01
09
FD
00
0B
21
21
F9
ED
F5
01
1E
E7
FC
FE
F4
ED
F7
D8
DE
0B
0F
0A
06
EA
07
0A
DF
FA
F9
01
F2
F0
36
0D
FB
F1
1A
06
17
16
17
06
D7
13
20
F6
EA
E5
F9
0C
0F
BA
DE
16
EA
1A
F9
21
F4
08
C6
2E
FC
FB
FD
0C
E7
E8
20
09
DC
C4
E6
F3
FC
EB
12
C7
05
0A
00
F6
F1
DB
FB
E2
F1
FA
06
05
E4
FA
0C
F3
10
10
15
0C
26
DE
FD
04
08
17
D0
FB
DB
14
0B
FB
F8
21
0E
12
CB
F3
02
0C
0E
09
2A
04
15
F3
D4
08
28
DD
DD
FD
DC
04
FE
F7
F4
FE
E7
F9
CF
13
19
9F
01
E0
0B
B3
16
E7
D4
0F
F5
DD
EB
D4
F0
E1
2A
05
FC
FE
F6
08
D7
FD
F6
DB
01
F8
C8
28
0D
03
D1
08
1B
E2
DA
21
F8
E2
CF
ED
FF
10
FA
FF
E9
D6
0C
E5
17
E7
14
E3
09
09
A5
EA
F9
E6
DF
F9
8B
EB
EC
1D
FD
EE
EF
FF
17
BE
0C
F3
19
11
FF
C3
37
D0
EA
15
0D
EC
14
F8
E2
02
F6
F5
E4
D3
E0
E5
DD
FF
E5
0B
00
0B
12
23
03
02
00
CA
FB
F3
F5
F5
E1
3C
C5
0A
16
01
0A
2B
E8
F4
20
D9
F4
18
20
D1
C6
FF
E7
02
FE
21
FE
1E
1F
F7
E5
0B
F0
EE
12
0E
FC
07
60
28
16
2C
1A
14
C1
E7
EB
01
FA
1F
E1
02
15
2D
0A
FF
E3
07
F4
EC
12
26
13
C9
20
FA
FB
0A
00
F8
B8
FC
E2
F5
26
09
09
D4
F5
E9
1F
0D
1D
0C
F8
15
0F
FD
F5
19
39
CA
1C
1F
F6
14
E9
06
09
F0
36
F5
F6
EF
04
D9
2E
00
1E
F9
C0
01
E0
D0
0C
04
08
FE
E3
C6
BF
02
DB
06
E5
F4
25
E7
F2
FB
10
F4
F8
FE
FD
07
15
E8
EB
00
01
EB
18
20
10
30
F6
D3
ED
06
12
1B
FD
EE
E8
10
1A
E9
13
FD
FC
FB
E8
EE
10
E6
02
0E
21
02
FB
ED
17
FB
E8
F7
1B
0F
F0
0F
E6
04
D4
DC
E2
F9
E8
E9
11
13
0D
0E
03
FC
F4
0A
FD
05
27
08
0A
07
E8
15
FC
1D
DC
07
0E
2A
C9
1E
F2
FA
14
07
FB
EA
07
04
F3
E5
BB
1B
11
EF
E5
FF
0A
F1
20
FD
F4
D0
F8
F1
09
05
E4
0C
06
B2
23
1D
FE
16
0A
E2
FB
F7
16
05
02
F3
EA
CF
01
03
0A
13
01
F4
09
09
BD
DC
D7
03
FE
F8
1F
04
07
0B
EE
E2
FB
0C
09
0D
02
21
EC
E7
01
08
F8
32
03
E0
D5
DE
E2
EE
F3
E4
FE
CE
E4
FF
F1
F6
BF
0C
EC
16
E6
35
14
F0
FE
0F
FF
ED
F1
FB
D3
CE
09
0F
01
F5
02
01
FF
F9
F6
CA
04
02
10
11
F4
07
1D
0E
DD
28
F1
F1
03
0A
FA
E5
FE
22
B5
08
E4
EE
00
24
14
0E
10
01
02
16
F8
E9
09
40
E5
1A
14
DC
E8
F4
0C
06
10
FE
E7
06
0A
05
19
F4
04
07
19
DB
15
E4
C2
FD
20
DE
21
E3
09
F1
1C
05
04
11
04
EC
D6
E3
D5
1B
04
F2
18
C9
FE
DE
FB
0C
20
02
14
1C
03
F0
E0
F1
08
FE
02
05
FC
EF
F2
04
E9
EC
1D
ED
1F
23
FC
D9
24
D6
1C
EE
04
16
03
2C
11
E3
D6
D4
EA
13
0C
11
FD
E8
FB
08
FB
08
02
08
FA
F8
02
0A
00
F6
FF
05
06
FE
FE
01
02
04
02
01
03
F7
06
04
FC
05
01
F9
FC
07
F8
08
FF
F0
FF
07
05
FC
04
06
06
F7
FD
F5
FF
FC
03
F9
06
0A
FD
02
FA
F5
F8
F9
0E
07
0A
04
0E
07
CD
EB
A0
E1
C2
FE
EF
0C
D4
04
E4
E5
FA
11
CC
D4
03
E8
DA
D0
F0
05
AF
10
F0
FD
FF
D1
D5
EF
FE
F5
D8
F6
18
05
F7
F9
DC
0B
24
EC
DD
03
0C
05
C4
FC
EA
EE
DF
FE
F3
07
D9
D4
FA
1D
03
FC
D0
09
1E
FB
DC
D1
FD
05
C2
E9
FD
EE
EC
DA
0B
EF
02
F6
C2
D4
FC
F6
D2
16
F5
22
DB
1D
1D
C4
F5
E0
07
FB
19
A4
0D
DF
EC
F2
EC
00
1F
FF
1E
0B
EF
ED
F9
F8
DF
1B
05
FD
E2
E9
F2
F5
03
F4
DD
F4
09
19
D9
03
0E
04
FB
2D
1C
02
17
06
F7
00
E7
09
F9
14
24
FC
FB
FD
F4
1D
08
DA
F6
DB
BC
2C
11
DC
05
13
F5
E0
26
FD
E1
F5
30
13
EC
0F
F2
04
EA
00
16
F5
0A
CF
F7
BA
D6
17
F5
C2
14
DD
02
E5
08
D8
12
04
FE
0C
12
FF
13
25
1D
F9
01
0A
ED
D3
10
D3
47
DB
F4
F8
0B
FA
0F
15
27
ED
F9
EF
FA
03
ED
1B
FA
FC
0B
E5
10
17
05
14
00
AE
0F
21
C3
F7
E0
19
1B
03
F6
F3
0D
F3
0F
1A
B6
1C
E1
23
1E
0E
25
FC
05
12
07
0A
E3
03
FD
03
D1
D1
B2
EA
E9
FE
0D
0C
09
0A
FF
2E
FD
03
1D
0A
EF
EC
F8
D8
05
05
0D
E7
F5
07
D0
EB
12
F2
0F
0E
D1
FA
DE
11
FE
E5
12
CB
17
DC
F6
0D
FD
F6
07
26
01
0A
E9
CC
F0
C3
0C
EB
00
E9
F7
FE
18
F6
1B
27
F7
EF
EB
D5
FD
0A
1B
DC
F3
0F
CA
CF
CD
15
27
F7
05
0D
01
F2
F2
D0
26
13
F0
D4
DE
F6
F5
F7
1B
05
C0
F9
1A
0A
2B
20
2E
15
FB
1B
FC
18
EB
0D
D2
DA
E5
06
DA
B1
F7
0D
08
E5
12
E0
F5
F8
06
17
04
08
02
D6
1A
FA
B0
FD
B8
FD
03
F9
10
0E
DB
E6
EE
DE
2C
02
02
E9
DE
23
07
F8
01
FF
13
0F
F9
DE
FA
E9
18
05
07
E0
D9
09
06
09
23
08
22
DB
06
F0
E9
2B
00
F8
FD
02
F5
05
FA
DF
E7
11
F7
FC
D4
09
21
DB
08
EF
E0
07
BE
EF
D7
CD
FC
1C
F0
12
F1
18
0D
35
FA
15
FB
17
04
0F
FA
C9
14
F8
C8
F9
E4
E2
FC
1B
F1
E6
19
DC
DD
26
EF
DA
26
CD
D8
F6
13
C3
DE
C7
0B
C8
FE
E7
AB
00
F8
EE
F9
F3
D2
CF
E6
F9
17
26
FE
11
0A
12
18
A7
25
0B
CF
25
DA
DA
F9
11
A8
FE
1D
F0
FA
F2
14
F4
DB
F3
15
0D
03
12
DF
0A
0F
1F
F9
1E
0B
F5
EA
09
0F
15
F9
F1
19
F2
E6
D3
FE
F8
0A
F6
1B
35
CA
26
08
E6
FD
C9
FD
F1
18
E4
0B
E5
F6
DF
E7
E4
13
15
F9
29
CB
09
04
06
E6
18
04
12
0D
22
03
1F
02
D9
FF
1E
DD
DB
0B
0B
0A
F8
DE
20
35
DF
E6
E5
E4
16
EB
00
18
F7
02
03
09
10
F0
FD
0A
FD
19
17
29
2C
04
03
E8
0A
1A
EC
E6
05
26
F7
C1
C8
0B
16
2C
0E
E0
E3
F2
FC
22
BD
EF
FE
F9
A0
0B
CE
02
D4
D0
07
D3
13
1A
E0
F8
19
0F
F0
29
0C
DE
F4
F8
05
01
12
F5
F8
EF
05
0A
DC
D6
05
CC
E0
13
D6
CC
FA
E7
24
DD
00
3E
FD
1C
03
21
F0
C9
ED
F1
F7
C6
27
DF
0B
F9
FE
EC
10
F3
CB
1F
C7
04
F7
FC
E0
FD
2C
8F
F0
FE
E7
00
FB
0F
FE
01
02
AC
E5
F2
EA
33
F6
FD
00
1B
D6
E8
15
0F
08
DB
1E
C7
D7
2D
B6
02
B8
9D
29
CC
F4
0F
FF
EE
1D
23
EC
F8
21
B6
EC
01
FE
0A
29
FC
12
AD
FB
C6
C7
43
18
CC
08
09
06
F5
1B
21
F4
06
02
18
F9
F2
1A
29
F3
0E
FD
FD
0B
0B
DD
F4
0C
04
12
E6
17
E2
09
C7
BC
10
F0
06
19
FE
F5
01
E4
F7
D5
0F
FB
11
15
FE
02
BA
D1
D2
10
27
DE
B1
DC
05
F0
C8
08
F1
EC
E0
FA
22
01
0E
01
00
BE
E6
EA
EC
FF
E3
D5
F1
F4
13
E8
27
F8
00
C5
E9
17
F1
E4
E4
27
1B
EA
04
FD
E3
E6
C4
BE
F2
03
BC
E0
F8
D7
FB
0E
F1
E0
13
F1
EC
F1
08
FF
FE
FA
04
FD
FE
F8
FC
FE
07
05
FA
02
FD
00
F8
FD
07
07
09
FC
F8
08
F9
01
0A
FA
00
FD
F5
01
07
01
F7
02
FB
05
01
02
04
07
08
FF
01
04
FF
07
FA
02
01
FB
FE
FE
FC
01
FC
01
01
02
08
01
07
0A
F0
EA
FC
26
DB
F9
E4
15
2D
0A
D5
17
A9
F9
E1
FD
E2
44
23
EA
00
0D
DF
1F
F8
DC
F1
19
1C
F6
2C
0F
E3
F7
2B
17
BF
E0
F0
EF
07
F2
13
D5
D2
EE
F2
23
2B
E8
FB
F6
EB
FF
1F
B6
05
F5
05
0C
E9
E6
15
01
1B
12
EF
1A
06
0F
E2
F2
10
EA
EF
E8
12
17
F4
17
FE
F6
22
EA
02
02
19
19
D8
0F
0D
11
17
FD
D4
D6
14
D6
06
10
15
E1
E2
DD
19
F3
06
01
07
E9
F3
E5
0A
E1
EA
B9
BB
E6
05
F1
EA
1F
EE
E5
E5
CF
09
0E
01
FF
20
FB
0A
01
F6
EA
FB
E7
03
24
F7
F3
1B
0F
F4
16
F9
FD
02
D1
E8
06
19
0C
18
F0
F4
02
F3
FA
F6
09
F6
10
DE
F6
C9
09
E3
E7
0E
03
04
ED
F8
CF
DC
16
F3
16
FE
