DE F4 46 2F 0F 1C 87 FB 10 46 24 F3 EF 18 F2 24 3C 21 11 11 1C FB 17 20 2E E1 E9 11 46 21 E2 F8 0D FA FE EB F8 22 2C 19 DA FE 3E 0A 2C 1D 2F 5D 1D E2 0E 09 F2 D7 F0 1E
0F 24 D7 F5 1D 14 EC 07 F4 FE C7 F8 F4 0D F2 EE EB F2 CD F2 0B E7 00 0F D4 06 3E FC FA 11 27 0F E5 BC D6 18 F6 F0 23 FE DC 43 FD 11 CE F2 ED F3 08 04 F2 29 34 D6 FF EF
EA 0E DC D2 F4 FB 01 D3 9B 16 FD F7 0C 33 3E E5 11 07 17 E4 FF E6 02 2D D5 EF FF 25 19 09 DE F6 F4 B7 46 02 FC 02 04 E9 FC F8 19 42 EB 21 D1 13 14 00 16 1F 01 11 FE 24
14 08 46 0A FD 29 C1 F5 E6 34 1C 01 C1 F6 E2 FA F4 07 B6 26 D7 FD EF 18 17 D8 08 F7 03 08 08 DB ED D8 90 03 15 FD 2D 0F A7 09 FA 1D 09 21 12 24 07 F6 EF FA 12 D5 0D 31
FB ED AA F9 FB 00 1B 1A 2F 36 DF 52 C4 1B 22 CB 1C FD CB 08 22 31 14 0B A5 2B 0B 3D EC EF DF EE AA B5 C1 0F 27 09 0E 2C 2C 04 F1 07 0E DA 02 FE 04 1D 05 2A 08 18 E4 F8
F5 EC 1A 18 29 F1 13 46 52 A7 F2 3D FD 04 F0 37 31 FC 28 20 F2 35 13 0F F4 D9 19 0C 34 F7 F7 12 E1 E6 FD 23 2A F4 07 0A 1F E5 EE 04 54 DA 02 FD F5 05 1B E4 C7 0D E7 29
19 FB E3 41 DD 0A 0B 18 F2 08 FB 20 07 FD 38 CE E6 F7 ED 3E EC 1E 10 1F E4 17 29 DA E7 DC 25 3E E7 FA C4 0A 1A FA 1B FD F2 2A 17 23 10 E9 0B 04 10 21 F3 23 36 00 FF 0F
43 0C 1B FC 06 FB F8 FF D2 11 D4 EA E9 F7 12 EF 9F 03 E5 DD DA 11 E0 D1 14 0E 0C E2 CC 0B F6 F3 18 EA F1 D3 A5 8B E3 21 EB 0B EE 41 A2 AB EE D5 E1 C9 1C C1 2B 01 08 EE
19 12 EA FB ED FB E2 ED CD 33 E4 EC F0 E7 FC EC FA F2 D0 F1 0B C3 E6 F8 DD 12 03 0A BF 01 09 DE DC FA F9 E7 E3 05 F4 00 03 0C FF F6 B6 02 ED FB F8 03 E5 02 20 F9 04 E0
C9 E0 FE BC E2 13 00 CF 86 D6 80 D8 36 E1 F8 F4 C9 C2 FC F5 EA 20 E0 F0 1F 26 20 10 0E 05 EB 19 36 2C 17 D1 CB 80 BB D5 11 E1 05 AB E3 F7 F0 F9 FD 00 F7 02 F3 E3 E0 FB
1D 11 04 E2 04 0B 00 F0 3E E5 EC F6 F3 0B E7 EB E1 07 10 D4 28 E1 72 44 EB 23 1E D4 0B E3 14 1A E5 CB D1 09 1A F0 0D FE BA 28 16 ED 13 E4 F4 DB 49 D5 D9 27 C7 BE 09 06
11 58 BC 40 04 E5 F8 4D B4 F8 0E 28 1D C9 25 25 B4 C2 E5 FD 13 20 2A F5 F2 32 F0 98 0C EA 00 A6 F3 E9 D3 08 EB F4 B1 CB 0E 02 24 0B 14 13 22 00 03 24 03 D0 FE F1 03 E1
0B 47 FF F0 F0 EB E9 EC D3 68 E4 E8 02 4F 25 E2 E7 01 E5 FC 0F D3 FB 01 25 28 FA F6 D2 08 FE F9 28 08 17 F8 11 D6 0B 11 FC 0C 20 12 95 60 F8 FD E7 09 D4 1F 46 24 38 E7
14 48 F6 FE 07 F9 D3 1D 16 DB F1 26 C1 DE 05 02 0F CA CA B9 FE F8 F4 E2 51 D1 F6 F2 C3 D9 02 A3 EF C5 E2 B1 DF D2 DE C0 00 C6 E2 1B 04 C9 F9 AB 04 E5 13 FF D0 56 33 28
20 2B 36 0D C6 FD 16 20 02 18 E8 EE CD E1 2D 31 3D D0 15 C7 C1 07 E4 E6 22 D9 07 86 E6 EF BC 02 56 09 E9 C7 2A F2 00 B3 E2 ED CA 47 C8 D0 F4 E8 D8 ED 1C FA D4 7F 29 19
45 15 F6 08 00 B5 E1 10 8A 14 0E 04 F2 D9 19 35 29 EA D9 F4 01 01 06 29 2A 4A F2 CF 0F F9 C2 B6 02 D0 E8 D9 E9 00 A0 F6 2C 0E E1 1E 1D 15 03 31 1F 27 14 DD F0 5B E6 25
11 F3 E7 30 02 C7 E3 DC F4 F2 27 EB 0C 20 45 F3 ED 1D F3 47 23 1D FD 4B FD F1 0B FB 07 C7 04 D8 EC EE 00 D4 0E FC DA E2 3D F0 EA 17 0E 05 22 18 13 2B 03 10 17 02 E4 FF
11 16 BD 13 09 DD 37 0E 48 29 13 2F BC 0E 23 D8 2F 25 0C CD 4B 59 25 0B A3 F6 EA 15 ED EE E2 EE BD DB C2 24 4C 0F ED 25 1B F4 E2 0D 10 0E 0C EE 02 1A 1A FC EF 01 03 BD
16 0E FC 03 F3 03 00 DE F7 16 1F F2 BA EF F3 F7 F8 1D CF 06 27 0D FA C6 DE FD FE 01 EF 13 F8 C3 D8 CF DB E8 E4 29 EF F2 1F EB 00 F8 24 D7 E6 F0 0B 0A 21 02 00 EC 15 F8
E2 D4 14 1E 03 F0 15 25 ED 2A AD 44 07 E3 38 23 4B 0A 03 FD FB 21 03 51 06 1F 11 20 37 01 AB E9 D6 F2 0A 28 12 2A E7 FE 14 E9 1C FD 32 18 30 21 FE 11 D4 CD E8 2F EF E9
F5 FB 03 0E E8 0B C3 45 C9 36 2E FF ED A6 0B 1C B9 21 E3 D4 ED 10 FF 34 0F 1E 02 E5 3F 13 07 E3 25 0C D9 EE CD FC E7 EE 0C 13 15 FD F7 F9 0C C7 D7 E7 20 F7 DC 02 10 12
D0 FF 13 F3 FD F6 C5 E5 AF 4A EE 18 D7 2B 26 42 43 30 0B 08 0F FD E6 F6 FD 02 F3 03 28 23 A0 B8 F2 BD 0F FF F9 21 31 EF ED 09 24 09 F4 F8 E4 2A F3 1A 08 11 05 05 A7 0B
1D FF 01 41 FF B6 27 29 F9 EC 12 19 0A 24 E0 13 1E D7 80 1A 10 01 F6 ED FB 11 1B 01 11 F2 E5 EE D8 25 D6 08 31 E4 D3 1E FE D6 E5 14 B3 36 DD B3 41 DD 09 28 26 FC 0B F1
ED 1B FA CE F8 FD 10 08 08 26 EB 14 F5 FD 27 D1 06 1E E9 DC 30 10 08 0F F7 20 14 20 E1 13 DE D7 DC F2 0B BF 0D FB 13 F4 FA CF EE 0E B0 FD EE D0 15 1D 18 FB D9 24 C8 DA
1D F4 E0 C6 FC 14 FF 0F 14 F6 0B 0C DD 06 F0 E6 E3 D2 DE 01 02 DC 27 0F F8 F7 14 07 FA FC 09 D9 E9 8C 83 F9 0C EF FD 18 C0 11 BD 28 EB DC ED FB EB E0 E5 FD 09 F2 F9 0D
04 FC D7 FD 17 E9 F2 CA D6 19 FE 15 0C D6 FD FF 0B D6 26 C6 08 F7 04 24 17 14 0A EA 1E 09 E4 EA EA BE 28 8A F1 F4 1F D1 F2 09 E3 14 F0 E1 12 FB 21 1C 1E F5 DE 0B 80 08
1E 46 FC DE 35 FC 00 36 37 29 E1 FB D0 0B F5 2D 1A 0C EA 2B 3C DC 21 0C 01 B0 02 1C FD 17 1C F5 F6 DB BC 02 0B D3 F3 28 D2 20 02 25 0B 19 00 DF 0A 02 CA 09 1F D5 1D D9
D2 23 06 58 FA E2 1D 1C EC C4 FE BD 15 19 02 19 22 B3 EF BC 1C ED 0F 09 FD EC 3F 18 3B E7 A3 A0 E8 10 DD FC E3 F9 E7 F8 E3 E4 E0 C5 99 0D EE EA 51 DC 16 FC DA EE 27 11

E1 EE 3A 22 0E F7 BE 12 30 14 4C 39 01 08 D9 F6 03 0B E5 C8 F0 0B 1E 1B 2D 12 EC 3C 19 2B 00 FA FE CD 04 17 19 3B 09 F4 BC F6 1C 11 12 0B FC 46 17 E5 E8 32 EA F4 EE 0A
13 00 F3 C4 2E EA EC 10 F3 09 D2 F5 01 06 FA F0 E5 EB 00 1A 17 C4 12 14 FE 17 E6 14 03 AE DB E2 03 F5 29 0A 02 F2 F2 14 AD 25 EF FE CF F4 0E F3 EC F8 FB 0F 10 EA FF CC
0A 0C DE DE B1 EF 09 BE DA 05 E8 0D E0 EE 3A FD 1F 21 0A F5 25 F5 0B E7 F4 E9 FC 01 EA 12 22 EF 09 AD 3F D5 2F FA F9 F5 F8 E5 1A 27 FD 16 F3 F0 36 13 1D 19 DD 0D F5 11
E7 FC 25 E9 12 DD 01 07 FA 22 18 36 AD 35 C0 C8 EF 11 C5 F4 05 E7 2C 0A 10 2D D7 0F 0D 0D 28 BF DD C0 B3 05 05 13 F6 DA 80 02 1B FE F0 F3 F7 2D F1 F6 CC 35 03 F7 35 0F
DE FC 93 DC 48 C1 0B FA 12 19 E7 47 E8 0A 22 04 03 1A DB F9 01 06 14 E5 20 E3 D0 2D 20 D8 F2 AE E0 D8 E7 06 0B D8 16 E2 ED 30 0F D5 F8 E7 20 E1 B6 F2 D4 0A F5 FC C4 19
D3 E1 FC 24 15 F8 10 32 43 A1 0B 4E 15 08 E8 23 1D 09 F4 2F E4 48 1C 00 06 0A 03 15 24 04 E5 1F F3 D3 FF 37 06 06 26 F6 0F D4 0D F9 4B D8 F6 F5 E0 F2 0D EE C4 10 DD 3B
F1 C6 BD 17 F0 06 0F F9 E2 1E F2 57 FE 19 12 CB F6 FE 0A 29 18 CD 3D 2B 23 32 E5 F9 0A C3 42 22 E9 EE E1 0B 1A 0B 1A 11 B0 13 0E E9 DF CF EC 05 0E 24 F2 47 3E 14 FE 2B
2F 10 0B D5 D7 E1 0D F3 D8 0F DF 27 0A 41 26 D3 A3 06 CD A1 D8 E3 06 C2 01 D5 FF F8 B6 23 DC EF 23 28 F2 C9 B0 00 14 08 EC 1B FB 05 D6 A6 3D C6 EC DE 07 F8 21 0E 10 ED
1E 1B FD F3 E6 06 DB F9 CB 23 F5 F5 DB DA 15 ED F0 F7 F1 E9 0C B0 E3 F9 E4 FE FF F0 C2 03 08 BF E8 FC EB D0 E1 FE EA 07 F7 04 EE F6 CA 03 01 14 DF FE E4 02 18 FE 06 CE
D6 EE 0F D3 AC 13 15 A5 B4 EA A4 E3 2A 11 BE F2 BD D9 FD C6 CB 16 E0 B7 00 F8 19 FF D1 07 F6 16 35 23 F1 EB DA A7 C9 DD 01 F6 16 CB D6 EE E7 F8 10 F4 F9 FE 04 E4 E9 F6
18 F0 D8 C7 0A CB 14 C1 35 D0 C8 F5 01 16 1F FD EE ED 02 DE 20 0A 5F 1E 27 F4 10 CD FF AF 12 DC EF F9 2A 13 06 CE 0A 23 90 3C 12 B1 0E E6 0A F2 62 F3 DE 1B DC EB 04 C9
0E 1C 09 43 F6 F2 05 F9 DC 2B 46 1A 27 BE 0D 17 B2 A6 16 F8 F0 03 09 FD 41 02 0D C3 2E D9 1B 92 C6 14 C5 1C DF F0 B2 DD F4 1A 2D 01 24 02 06 E5 ED FC 09 05 08 13 DF D4
1B 5D 0B EC E1 EE E9 F1 DB 6F E7 E0 EE 08 13 D6 CB EF 0D E0 12 D2 13 00 13 2A E2 E4 CE FC 0A E1 39 1E 0E E3 15 DB EF 2D FC 01 0B 1F B6 72 04 2D 05 11 E2 24 45 11 62 C9
0C 4E 15 FA B7 0D F3 F7 05 FA 0F 33 DF D0 D8 BD C1 FB CF 81 F3 EF 07 EB 1E 00 E7 E5 8A D7 F0 DE EA C6 F5 BE 80 E9 0B D9 E6 D7 00 31 CD A3 F9 CE E4 D5 FD FF D2 6A 22 45
30 41 38 07 F9 1C EB FB 00 28 F9 EE 09 FC D2 E5 09 E2 05 8B C1 1F E7 B2 EF F1 F3 C3 DD D4 ED 41 41 05 1E D8 A9 E2 2F E8 E1 15 F1 5A CE DC 17 03 ED EE 1D 0D 07 6D 40 F8
3C 27 0A 0D 98 C2 F8 ED 9C 28 13 08 F2 F3 F9 28 31 EE F7 EC FC 25 0C F9 14 E0 EE FF F2 06 DD BC 06 C6 F2 C4 FD 17 A1 12 09 0E 09 20 0C 39 F9 F3 28 08 21 CD 04 44 01 0C
0D 17 17 19 DA DC E9 FF FB 14 46 F9 24 EE 28 F4 D2 20 17 2E F9 14 FF 44 0D EE 0D FE 0C FE 12 C1 F2 EA 11 DD 26 1E EA F4 13 1C 15 18 15 EF 08 0B 0C 09 E2 47 19 ED DF EA
F8 0F A7 19 CC 00 1D FF 2D 0C 2B 48 C8 F8 25 08 16 1B 29 05 EB 0F 39 11 28 05 C4 39 16 01 E7 FC DD BB EB 16 30 F5 11 24 F9 0C F0 DE 02 F2 09 BD D3 02 F4 30 E1 F8 F2 13
12 EC 0D 08 EC F7 FA C4 F0 15 FA EB B4 E9 FF F8 FC 0F F0 08 31 01 EF F0 DA DD 04 F5 F1 23 02 B9 CD E4 EE D7 F5 20 F0 EB 28 EF F6 DF 06 D7 F5 F4 FB 11 1B 08 F7 F2 0A DF
EC E7 F1 28 F6 E3 F8 13 F2 25 05 2C FE D8 F7 15 55 EA ED D6 09 22 F9 45 27 E9 18 F9 20 F6 BE D7 FA EF 14 31 1A 1E FE EC 1E FE 0D F6 2D 21 0F F9 EC 0D BC DA E7 1C DB 2D
0F 15 1C 03 D1 EF D3 F4 D4 2C 1B 03 00 2A B9 F7 CB DA DF E5 EE 16 1D 11 20 DE EF F5 1F 07 FB BF 03 0D D6 19 E7 D8 EA F0 F4 16 16 FA AB 04 19 ED D8 D1 0E F7 DB 0C FD 06
F3 1E 12 B5 0D E6 CC E7 EE 32 2F 24 FD BD EA 07 FE 24 C7 E0 14 03 0C E8 D1 E9 DE 2A 15 19 F7 C5 F9 CC 17 18 15 2E 20 CE FA 25 19 2B E5 0C 01 10 FC 16 02 F2 DD F2 E0 E1
F2 16 DC 17 F3 80 1B 1D 1F ED E5 1A DA 0E F7 28 FD D4 F6 07 01 E6 25 D2 0F 23 E7 12 FA 09 03 CB 12 00 FC 06 FD CE C7 DE 19 D3 0A E5 DE 15 F2 F0 2B DE A3 0A F8 EA F7 C0
FA 05 04 FA E2 F5 1F FD 13 38 00 0F FB EC 16 FB FE 1C 10 CF 19 1F 15 40 2C FC 0F 0D D1 0E 03 BD E9 CE 13 AC DA EC 17 F7 1B F3 FD FC F2 09 19 BF 13 19 23 0E EF 12 C0 11
FA FA E2 CF 25 0B 01 03 05 EB F7 48 D6 0C F0 DB EC E2 29 ED 00 C3 45 ED 19 E9 AA 24 E4 C4 02 DB F9 80 A8 10 05 FE F0 2B A0 07 EC EA DD 8E D8 07 F5 E4 F8 1F 06 05 F3 13
F5 1F DB 0A EA E3 F2 EE C8 17 1A 0B 10 FA F9 F6 0F FE F5 B8 F5 00 F6 08 26 DF 21 04 06 05 04 02 02 80 11 B9 0E F8 24 F0 DD 11 D5 1C E6 DE 14 EB 0B DC 09 03 EC FA 82 FE
FF F6 F8 0A 1C 82 07 41 F5 11 19 25 D0 FA 01 06 DE ED 2C 1B 02 D6 2A F1 36 18 CB 1C C0 09 C8 ED DA 08 02 08 FA E4 FE 1F E6 DC 16 E3 FA 1B FA FB F6 EE A5 E4 F7 F4 F9 CA
E7 26 2E 6A 33 F7 DC E9 F5 A8 E8 CA EA D5 CB 14 27 D3 0B 9C 15 FD FD F8 DF FE 15 1F 17 B9 CF CB E1 0F 1C DA D0 E2 01 00 D9 02 C7 EB 8B 44 1B E2 60 EE 02 00 0D 01 33 CA

F7 D7 41 13 E3 AB BF 27 2B F1 2A 35 2B 08 E0 FD 18 FD E6 A9 44 1F 19 F7 F3 F5 07 4B E4 1A F6 0C D8 E6 F3 1B 35 F8 03 E3 E7 F4 2C 15 02 1B FE E9 1C FB E5 23 C9 0C FF E0
20 AC 0C D9 2C FA 1C DA 04 ED E0 00 D9 EE E8 E2 02 E2 24 F4 F1 CC 10 26 FB 13 1C 26 FE 8B 3B C0 FA CF 21 FB 09 FE 17 09 A7 4D F0 00 EB 02 EF D1 25 00 DD 13 28 F5 1D C9
20 19 DD F9 80 F0 1E E2 EE 01 30 08 F3 89 1A 28 29 F4 FE 0C 06 EC 01 AD FF 07 FF AC 04 2F 49 C6 2D CE 11 24 27 F8 15 1C 01 C3 EE 0A 26 0B E8 F0 1A 16 1D 0E 08 10 C7 04
FD CC 36 C4 E7 C2 1B 10 F6 05 EB 25 B2 1E E7 C1 08 21 E0 D0 35 03 34 12 0C 09 07 2D F4 E8 F6 C9 CC 8B 08 27 02 F3 F2 93 86 11 2C 21 DA EF 0C F6 FD 10 BB 12 FE 16 1A 05
FC 13 E8 DF F4 EB 0C F5 F7 1C F9 05 D7 12 0D 1A CF 15 F1 E2 05 FF 0D EF 00 DE 9C E7 04 03 DB DA 06 E0 03 FD 10 E9 56 00 10 10 02 EB 08 E4 21 D3 B8 F3 E6 E6 0A E5 D9 28
DC DD F5 31 0A FB 24 38 4B C2 0A 38 14 ED E3 37 3A F0 E0 47 DC 10 24 09 F9 50 14 3A 2A 01 E2 34 F7 D0 0F 38 04 15 10 F0 2F F1 20 FA 45 C7 DA E9 E7 F8 05 EF E6 04 E6 39
16 E6 0C 15 11 1D 49 D2 D7 EE F0 07 09 0D 10 B5 BA FA 13 28 F5 BC 52 34 09 0B 16 1D 0A D9 3E 05 15 DD 19 0D 28 1C 15 E7 C9 1F 17 1B DB D8 F9 F2 04 32 FC 17 1D 14 05 3C
1F 18 E0 D8 07 D6 14 CD F0 2E 02 65 B7 0A 12 D4 E2 BB 13 FC F1 C0 0E 03 1D BF 09 BF E9 2A 04 9E 0A D2 0D D7 CD 0E E7 19 E7 D7 0D 35 E2 BE E3 0E 0B 47 09 D5 08 EC 58 23
22 0E 07 E5 D4 EB E7 02 C5 29 08 E5 E3 F5 0F E8 E2 FB 18 D9 FE D6 E5 F8 F4 EB F8 E0 A9 08 15 C9 DE 06 EA C5 F6 04 FC 0B F5 FD ED 04 D4 0C 00 0C 00 01 F2 04 FE 08 FA D5
AB 03 14 C9 A2 FD 0F A0 DC D7 F3 EC 25 0E B2 FF B9 D6 11 C0 EA 17 DA 80 D7 FD 1C F3 A4 1E FE 21 40 25 E9 EF DF 9A C0 1C F3 E8 01 B1 B9 E6 CA 1F 01 EB F3 F0 EB E4 05 CC
44 E8 F2 FE 09 0F 01 B6 0B EC E4 E0 3B 10 21 EA DF ED 24 E5 F8 01 2E 54 31 EC 04 DE 1A C2 04 CD 12 DA 1E 06 F3 D6 43 E5 C0 51 E0 FB 15 F2 FC C3 50 E4 F1 00 D2 F9 04 D7
00 1F 17 41 A2 EA FF C6 03 11 3E E4 0B CA 12 21 E8 D6 30 14 1D DE 05 E8 02 CE 20 20 5B DC 0D 80 E8 0A C3 1C 08 F5 BE 35 EC 01 F1 0F 2E 2A F9 01 E1 E3 28 D6 FB 1D C6 20
27 53 21 E5 F6 E0 F1 F5 D8 61 0E E2 10 1C 11 C3 C4 15 4B DA 18 FA 0C F1 2C F4 EB DD C4 FE 20 D0 37 2D 03 F2 25 D2 07 0E E1 0B 11 1E D1 5F 09 1D 0D 17 E0 06 1C 14 44 D5
FA 21 0F DE B6 07 1B F7 0D FD 2A 2D BB A1 C1 C4 DD E6 DC 88 F1 DB 18 F0 FA 27 05 F7 86 DA E1 DF CC C4 0B D0 80 1E F3 1D FA D2 2A 33 CD C9 E4 FF 13 F7 18 15 FB 21 00 23
0D 47 1A E4 BA 12 D9 ED 03 40 39 D1 11 FC 05 E1 13 E6 C2 8B D4 05 02 E1 E6 3C 06 93 F7 E6 D6 1E 4D DD F3 06 E9 29 F4 3F 0A EE 37 4C F8 DB D0 30 F6 24 35 2C E9 24 13 F5
25 F6 45 06 80 93 23 E8 BE 25 0D E6 FC F3 EF 1B 40 E9 37 EF 09 08 F4 E2 D9 B9 F7 0C 0E 0B EF CB D7 FF 00 DB EB FB B5 30 0A 0D 1D 14 01 26 E8 EB 01 11 F5 AD F1 4C DF 16
1D 04 4F 29 B9 C4 FB 17 0D 06 44 D1 14 F6 F6 01 CF 2A 32 31 08 06 10 0E D3 EC 29 12 FE 03 32 C2 DB FD FF EA 24 03 F4 0C 12 00 1E 1C 03 E3 23 F0 0E 05 DA 08 E1 EB 0A DA
F8 1F BA 1F D0 20 33 0C 18 01 41 F4 E5 F0 F6 2E 08 F1 06 21 B9 FE F7 1E 25 0E E8 01 3B 2B F4 CE 35 D4 0C 15 28 16 23 1C 0B 0C CA 13 2D D7 0D BC DB 0A 0A 0E D9 D8 0A 62
03 E1 2B FC BF 07 F9 DC F2 1D F7 EB B7 E1 F6 08 0F 09 FC 0B 25 DF DA DD EF DE 05 EF 0F 22 09 C2 D9 E5 1B E4 0E 14 08 EA 23 FE E8 EA 13 ED EA F6 01 04 0D 11 FA 1C 0D 05
D2 FB E4 23 B5 F8 0E 22 F1 27 21 13 F0 E0 F3 51 55 F5 0C DA 01 36 EA F9 F5 ED 22 CC C3 FE F9 C7 01 22 ED 1F 1C E3 0A 2F 3F F0 C9 D6 39 13 DA 38 C9 26 A0 D9 0B 15 BD 03
EB E8 0C 01 B5 F3 E3 AB 0C 17 0F DF E9 0F CC 0B 21 FC 17 FD 18 0C 10 07 05 C7 F0 11 FF 03 DF C4 15 EC DE 14 F7 ED E1 2D FD 14 09 F8 A2 DD 07 20 D7 F8 EA C8 C2 2F 0C F8
01 04 28 C1 AF B7 CB 1B F7 27 21 0D E8 ED 11 12 1B 0F D4 A9 0D 12 E5 8C 83 F4 E7 DF A9 26 F3 D7 E6 2F 02 1B 19 0A 3F FF DB 0D 0F 37 C0 0A FF FB D9 E9 0C D8 E8 1C D2 D4
0F EA 07 20 1E 90 1F 0A 04 16 D5 01 92 E4 E4 3C 0C DF E7 F6 32 D8 28 42 2A 49 02 23 FC 1F E5 A7 22 E2 07 F3 E9 16 F0 EE 06 1D 1C FB F6 08 20 C4 24 F0 9A FB 14 F0 1E CA
00 1D 18 1C AF 05 0C F0 0D 38 56 07 07 09 05 2D 21 25 FB E7 05 F4 F9 23 EB F1 21 02 0C 0D 24 CC FB D5 11 DF E0 EC 34 2F FD F6 CB DD 01 F2 20 00 1A 14 43 22 23 05 D9 E3
FE D2 F7 D0 F4 FE 2A 06 E7 EA F4 0F D5 D3 FE D9 EE CD 3F 02 FA AE 32 26 1D 0C 08 18 FD D9 01 DC 0D 80 20 04 05 05 0A F9 B0 2A 01 0E D6 B2 F8 DD 06 01 F1 07 FF F3 00 01
05 27 EA 09 80 D4 D8 F0 F3 1E 12 09 0B EC 02 12 20 E3 C8 AC 13 F5 FD D4 03 14 2D 11 10 08 21 D6 F0 95 17 DD 19 DA 1C 39 F3 FB F1 08 EE D8 1D F9 12 EF 24 FD D6 08 9F DC
1B C9 FC 1A 30 9A 04 2F E6 E2 26 07 0C F6 D2 D3 E6 D9 2D 25 04 EF 0A 1B 0F D8 1B 07 FD 23 03 C0 03 27 F1 E0 F4 03 D7 F5 FE D5 13 FC 0B 0E DD FC 1C 0E FA 06 15 04 01 FA
ED 15 19 37 E8 F5 1D 00 20 F6 F7 B4 F2 D4 FF 1E 13 DD E7 95 15 06 08 31 EE 28 3B E9 07 AF CC BC DF FD 02 F2 E4 E6 CC 06 D6 10 0C F4 9D 33 0C 03 4A EE 08 00 BE EF 08 2B


F3 0B FC EA 18 DC B6 D9 F8 2D D0 DF EA 08 FE 45 13 09 19 DE D0 E9 1F F5 14 DC 13 C8 2C 37 BC 1C 1B F0 F0 E4 DD 25 09 06 D0 0F 3A E7 37 01 54 76 1C 07 38 B6 F6 F4 30 C5
15 32 EB BC EA 07 F6 F6 F1 0C 03 BD 11 1D F0 FC D9 05 BC ED EA 02 00 E2 EB 0C 8E FB FF FC 2C FC F3 C9 90 12 F8 F7 0C 04 F9 0E F9 0C EB B1 E2 1C DC 27 04 02 1A F2 F6 E7
C6 CC BD EC 2F F3 1A C4 E6 1B A9 18 21 14 37 96 F2 0D 21 C8 16 29 0B 21 F0 24 1F 06 10 03 B9 07 E8 0F 29 0F EA FB 3A CA 3B 2E 2B FE 14 02 07 27 EA F4 DD 31 29 19 EF 1B
FA 0F 24 01 FE FE CB 05 D8 42 02 E8 FC 05 13 31 12 18 E3 E5 CB F4 E0 EE 14 C8 E6 83 FB 2B E1 CB 0E E2 80 EF 02 FA 08 1C D1 B2 39 0C 02 DF 05 43 02 02 13 BC 0F E1 22 03
FF DF C2 04 E8 D4 14 0D 20 FA CA D5 20 FB 25 B5 01 EF D9 E6 1D 32 12 34 8F 26 06 F0 F4 E8 06 D8 CE BF 01 F3 F7 F1 14 1B 2F 9D ED 1C 13 DE E9 F4 1D F3 17 5C 23 FA 0E 0C
14 1B 09 2B 15 03 FF 1C 12 CA D3 26 FA 00 FF 14 FD F8 2B 2C 26 29 2B 07 F2 E5 36 04 3B 00 EA F9 2E E8 35 F8 DE E6 07 FB 13 F7 ED 24 3C D2 11 19 20 F3 15 E6 C1 08 FA 1C
0D 23 E3 DF FB EF 10 06 12 14 1A CA 23 11 28 00 EF F3 00 F4 F7 2D 02 24 F9 14 C9 CC 02 E4 3D D5 F7 F1 B3 F1 CE F0 09 19 0C 0C 14 24 F6 ED FB 15 13 04 01 07 25 12 08 16
D6 F8 0A 03 11 E8 00 0A 01 ED EE F2 1E CD 08 EE 9A ED E9 C4 E1 20 EB D5 FE 38 DA 04 DD FC E5 F5 F6 FC E8 E8 B9 B5 F1 F7 D8 F8 E4 0A D3 F2 F8 CC D8 E8 D0 D4 1B D8 FD E5
EB E1 E5 FB DC 05 EC FF F8 11 E8 00 E1 DC 0C 00 FD ED E0 EB FB E1 F6 0B D6 27 EC FA BB 06 05 F4 E1 FB BE F2 E9 22 FE F9 11 EC F7 D1 DD 17 ED E9 EB F7 E0 03 0E 09 FA EF
DF 01 E2 C1 22 04 10 EE E3 02 80 07 40 E8 00 DD D5 FD E8 E7 F3 06 1D F0 28 45 0C F8 27 16 D6 FC 20 05 0D 06 F0 9A 0B AF EF D9 06 C8 DF 13 23 D0 F6 F8 1B E8 17 D9 80 9B
21 F6 EB DE 07 1D F7 CF FC 0A 4D DA 16 00 F9 F7 F8 FD 03 CA E4 EB 15 23 FF FF 14 D1 33 C2 2E F7 D1 F4 D8 0F 0C 11 26 0A E0 EB FD 07 2D CC 9F 08 21 0E FA 1A 1D F7 EB 12
EA 39 91 00 16 D2 0E 25 E7 FA BF FC 1B D7 41 01 FA BF F1 D0 FF 2E DF D7 F4 34 E3 CE F0 0B D7 08 F1 F1 E6 3A 2A D9 F7 B1 29 02 E9 D3 EC 36 17 D9 11 06 1C 01 1E E2 ED F5
F2 0F 06 EB E2 E8 E9 FB 11 38 EF EA EE 46 13 F4 FF 08 ED F2 FF E2 FC 07 0F 36 DB EB C8 09 F5 0F FA 12 EF F3 47 F6 F7 14 14 F4 18 FD CE 5B 04 F4 EC 2A D5 19 50 43 49 FD
0C 14 00 12 DC E8 AB F2 3A B8 E8 D5 DE E9 0F F5 F6 F6 D8 BE FF F8 EB DA 41 EB FC A4 C1 CA 19 F3 07 B6 DC FD 12 CB CD B2 2A DD 01 D8 0C AC 16 C4 1D DE F3 22 96 19 2A 04
F9 A9 12 29 1C 05 36 FF 0B D9 E3 0B 01 EC 1D FC EA 15 22 3B 1B 12 F8 0C 21 E8 FE F9 1E 00 05 07 F6 F2 F8 F0 41 BD FC C0 FA 13 F8 0B 12 EC 09 E1 02 DE D7 E4 C0 1E 11 F5
04 EC B4 0D 09 0F EF 38 C8 FC D7 1B E7 B1 02 14 E8 FF B7 EB 05 22 F0 D7 E3 78 FC FA E5 15 E7 C7 0C 36 F6 D4 E2 07 D9 D8 21 31 0E FB 21 33 16 EF 05 06 FA 04 E9 1D EC A4
04 0A D4 00 3F 08 E5 F2 0A 0F A7 FC D5 1F 38 F3 E2 09 00 38 17 10 18 23 04 0B 0B F3 14 09 C2 FD 1E 01 12 ED EC F8 F7 FB 1D 09 0D 1D FB 23 34 25 11 F7 F5 F2 E1 0E DC FD
13 22 A8 E3 38 D4 26 F5 42 F6 E4 D9 F0 03 25 BB FB FE 09 04 3E 33 3D 42 A9 F6 ED 14 FD C5 F5 F5 D1 D6 D3 36 0C E4 E0 FA 3B CF AE 23 FD 0C 09 F9 07 00 26 2F 0D 0E 27 E0
FD 0C EB 08 11 02 FF D9 FE 0D 0A 08 D2 FA EF FC 01 11 E1 F6 F2 FE FF E3 ED 0D F3 06 EA 2E DE F3 EE E6 BD 0E E5 23 06 F9 2B CC 13 09 FF F0 C9 F4 F5 F0 18 0D 1B E5 F2 F2
D2 B3 D6 09 10 02 15 FD EC 14 9D 21 07 D8 21 F8 DF 10 FB 1B 0F 10 12 21 D5 36 1C E3 1B 05 D3 18 F8 14 00 26 D4 16 22 CC 2A C0 1F F7 0E 40 39 1E DE 13 FD EF FE 2E CA E4
D2 14 0A 09 16 00 01 28 E8 12 08 E3 0D A9 1B 01 E5 15 F2 D4 EF 11 F2 F6 0C 35 F0 E2 1E 1B 16 1A 06 14 C1 EE B6 F9 1A D5 08 F1 0B F5 D3 05 00 BB FF D7 0D D8 29 D7 E9 03
AF C2 E2 D9 09 04 D4 ED E5 29 80 16 EF FC 12 FA 1F 1B FA 01 16 F3 FA 0B FA 27 16 F2 31 24 80 0D 25 A0 F6 FE E8 1E 1F F0 03 13 4E 05 1E 19 E3 0F F6 03 F5 E1 0D 09 00 07
15 19 10 3D EB E0 20 19 E9 00 FA D8 09 15 F7 FF 17 F0 9E 17 15 2B F8 E0 0B 0C 17 DB FB E7 02 EC E0 0B DE FB FA 11 F0 16 3B 86 14 15 FF 18 E8 EE 1C FA 09 F5 39 0D FE E5
D2 E5 C4 DF 0F EC FF 11 1C F2 AA 19 08 DE 38 EA 20 D2 EB 03 F4 E1 0D 37 D9 2B 13 FC E8 06 B3 20 C5 18 E6 CA 07 09 DF 1F 1D D3 01 0D D7 3D F5 AC 05 E4 08 14 16 00 D1 F2
1C 04 E9 BE F7 07 DE F2 25 EF 15 C8 22 1E F5 EF DA F0 F0 C9 FC D9 FB 19 07 F0 B8 C1 FA FC 05 D4 09 80 80 0A ED E5 EF 0D F7 AC D2 16 EB BF DE 03 F7 FB 01 04 FF F9 05 0C
E7 E7 A5 FE 52 D1 F3 E3 F1 F0 AD C3 0E CC 1F CA 26 D9 17 C7 2A FE 03 2C 09 3D 2D F9 19 01 F2 EC F6 FB 32 B5 C5 1D 24 BB F0 29 E6 0D EF 02 24 03 1D 12 F1 FC FA EE CA 0B
EC 42 02 00 2D B3 EE 15 23 23 1C E0 F2 0C 02 1E 0B 0E EE EF 04 CD 0B F5 17 C4 D0 04 D8 07 03 FC 0A FE C9 FA 03 F9 D7 F5 2B CE 01 0B 30 F2 F3 30 E7 20 D3 23 FA 0A 22 F1
F0 17 09 2D E5 FC 13 05 11 D6 00 FE 11 48 0F F1 FF F5 F7 DE 12 06 04 CB 10 C2 03 ED 2D 14 C8 D8 01 0C D7 02 F9 EE E2 04 0C 05 04 D5 F9 01 D7 01 09 0B F7 F7 E9 FE 05 06

F7 10 1B 0A 22 D8 DD 10 1E C0 F7 25 F0 F6 E2 03 EE FB 0B 13 0C 14 38 F9 00 07 FE 1C 17 1D E0 32 2F D3 00 01 FE 21 E7 D5 EF F4 33 EB 06 05 3E 34 14 38 16 0C 01 E5 16 D7
FD 05 F5 95 3B EB AB F2 F9 FE 0A E1 1E FE 14 06 F2 F3 E8 F8 F1 BE 0D 04 FD 04 80 11 13 80 F0 E1 FC ED 02 0D 12 FE DA 20 C0 DE D8 F6 D1 0C E6 1F 85 F8 F9 D8 06 01 F0 F8
F1 E0 83 E7 08 F9 FD A8 C2 FB E5 33 FE 1A FD 84 18 28 F3 12 1E 2F 13 A6 D1 F9 12 35 FB 06 F2 FA 1F E3 26 1F F8 03 1E B8 0F 06 F0 FF E8 3A 15 F8 F6 D6 21 2D 11 0A F7 01
F0 1C 37 B9 F7 00 B4 09 0B 18 02 DC E9 09 E6 02 E3 1B DC 00 F9 E1 30 18 16 11 8E 1B 10 EF 08 D9 12 96 A4 FD 0E 0D F2 01 A3 C2 3D FA D7 CC DC 28 DB 01 ED E4 1F 25 2E 1B
D9 1E E5 C3 40 D9 1E FA 13 F7 DC E1 22 EB EA F2 EB 1E D0 0A 07 20 2D E6 05 23 91 46 26 CA 0F D1 28 DC CB E7 E6 D1 FC DA 2E E8 F1 F8 03 E9 31 D2 CA CC 2A EB 19 E8 E7 14
F5 33 F4 32 0A 05 09 1A 08 D8 FA 35 0E EF D6 09 E1 2C 04 2D 25 4B 30 09 06 06 20 17 34 0D F2 0D 44 C4 2D 1C C2 02 19 EF 29 F6 22 12 21 BA 05 F7 FB E8 20 E2 C4 12 DA 23
05 26 17 C7 01 3A 05 F6 05 2C 2D C0 1B 0D 1C 16 EB 32 EB DA FE 01 01 21 4A 23 99 F2 28 BD 3B C6 1B CD BC C2 FF 0D EE 28 0D FE 12 0F E7 B9 E9 FE C5 09 26 D8 20 3C 09 3A
DD 0A 01 FA EF CE E6 02 09 EF FD F7 1F 45 FE E2 A0 10 CF 97 DA FD 29 E9 DB DA D3 ED B2 EC D8 F9 09 26 D0 D7 E1 0B F8 FA F3 08 D2 DA 23 DD 24 E5 EB ED DC 00 0A F8 0E D2
FC DE F5 FA E8 FD F9 00 01 02 EF 07 E7 D4 FF F8 FD E9 F4 D6 02 BB FA 04 CF 02 D6 00 AD FC 05 E7 D8 09 D0 E6 FD 17 E7 FF 08 F4 EB EC F8 0F FE 02 D9 FF EA 00 FF FA FB E6
F8 22 E5 DA 0B EB 0C BB D6 F2 A0 12 38 32 D4 BC CB F7 E8 B5 F9 12 17 CB 12 F3 0E EA 03 1D D2 EF 39 06 D9 15 DE B5 FB C4 EB C4 F6 C1 C6 FB 0B 09 EC D8 09 E2 0F F6 A8 98
18 05 E6 B9 04 10 C4 B8 FE 13 41 C6 14 34 23 00 15 F8 02 F5 E2 FC EB FD 24 E4 08 1C 1E 80 18 A6 C7 1E 1E 20 2A ED 03 FD BE FD DF DF 1C 07 D8 E0 2D F0 23 E9 28 E8 E0 FE
E5 0C 03 0B 36 ED 1D DD 18 EB EF 0A 0E EB DF F1 CC BF 09 91 E2 2C F1 9A 35 E2 F1 E3 14 03 F1 EB 12 26 CE 0A 0C D2 E1 C1 02 1F 05 F9 05 23 1C DF 19 D1 EB DB 20 CB EE BB
F5 12 0D EB DA EB 00 F4 2B 26 EF FD D8 E2 20 DD 03 E9 13 E8 0B DC 0E 17 0F 1E CA F5 CA FC 04 F1 13 1A D5 EC 41 F9 ED 27 1F F7 13 0B E4 78 0F 2D F3 25 DD 10 4D 45 52 DB
F6 1C 0D 08 84 FF C0 E5 32 B2 11 CD E9 B9 D6 AA AE 33 F4 80 FB 01 F7 CE 16 07 DF 99 91 DE FE 36 09 A4 E1 05 98 E8 05 CA 1B FF 0B FC E5 9B 1E ED 05 E8 DF 38 91 33 28 F6
E9 E8 F9 1D 17 12 CF E8 14 D6 12 FF 19 E9 E2 A5 B0 2F 0A D7 F8 27 06 C2 F9 0B D7 10 CF F2 2E 30 E3 FB 21 00 BF DF 24 CB F5 38 0E 0E 0D F1 25 06 0C ED C7 04 FB 09 08 CC
1A F8 EA 28 FE 0A F4 F7 E0 EB D4 14 CE 11 CD FA EF E8 EC B9 21 3B 02 B0 FE 0A 03 30 B2 07 F0 D0 09 15 E3 D1 FC EF B0 F3 02 1F 18 06 F3 55 1E D9 20 EB 0B FB F2 0A FD 99
FA 20 1C 0A 16 21 05 05 0E 01 B8 0C F1 E5 02 EB CB 2C 06 27 29 1F 25 FF 0C F7 08 F0 01 15 FD EA 44 D7 0C F5 F1 14 FF 07 1A 1F 3A 1E F4 11 47 0E 05 F4 FE D9 E3 06 F7 9F
EE 31 AE F2 F3 1D 2F 02 1A 06 EA EB FB FC F0 F5 03 31 29 0C 31 FC 1D F7 E6 31 90 18 1F DD FE F6 23 CB 08 FA F5 ED DC 29 4C ED 87 24 F5 E5 F8 D9 E1 F9 3B 01 04 EB 19 FF
FB F3 F2 E7 23 03 FD E0 FB 05 EE 1B D8 07 F1 05 06 12 05 F8 E7 FA DB FB E0 EF FA 17 03 0B E4 F0 ED F8 DE F8 FA 0F F9 F1 05 D1 F9 ED 08 0D DD 08 FD CC 07 EE FB EF FC F9
EF EA E5 05 13 02 F4 F2 D9 DE F0 2F 0D EA A5 C7 E4 06 DD F4 22 03 1D 0F F4 FE 04 03 1E FC F9 11 55 F0 19 46 03 FB 1D FD 1B DF 1A 06 F2 3D 28 ED E8 07 12 16 0F 05 AD EA
F0 08 18 F4 10 E1 0A D1 0A FF FE E3 22 29 C5 E1 E3 EA E2 C9 F5 31 FF F1 0A E5 EE EC 0E 05 FF FF 03 00 C5 F8 E3 D2 EC DD 03 EE 11 F5 D2 EC 09 06 24 DB 0E EB 1A B9 FF DE
DC C8 DE D3 5C 09 CC D8 F8 DA DA 2D 07 CD E8 B5 F8 F6 DA DC 00 0A 25 F8 C6 E7 E3 21 21 17 80 F8 2A D3 0B 04 DC 1B 1A 98 BA 16 1A 25 FD 39 24 D7 CD E9 F7 FB F9 F8 FB F3
E1 3A F2 FF FB 99 08 14 06 15 FC CC CF 0D F6 00 F9 EC F4 07 24 E4 E9 FB 1C 27 C5 21 C7 ED 13 15 0C F6 DA 1C FD F2 B0 04 37 8D 04 EE 2C 18 F3 33 13 F1 DC B2 15 07 EB D1
D0 12 DC E9 04 F9 02 03 2D EA E6 21 15 F9 1A F6 05 D5 F9 DA F8 F1 15 1F 17 01 F6 FE EE 05 F2 F4 E8 C3 EC B2 E9 F3 EB 14 23 05 FA 03 04 25 FB D9 00 D2 DE 05 07 C6 00 16
00 28 04 CD FF 39 BF 02 1A F8 07 C2 22 02 F5 14 EE 09 27 E4 FF D3 06 05 29 E8 80 D1 06 B9 EE D3 1C 80 80 FD 12 01 CB 2C F6 A1 EF F5 EC 80 80 12 D6 E9 16 FD 07 0C FA 18
EF 14 C3 18 1C DE F8 E6 F4 DD CB D9 0C 0C F3 B9 24 FC DE DE 13 26 1C 0A F9 F5 23 19 F5 06 18 FD FD CA F4 D5 D9 19 1E D5 DE 27 D0 22 DD 03 2E DA 11 F6 FD F2 F7 E4 C1 F8
D8 01 F3 FB 22 94 17 1B 05 09 19 F1 D2 FE 1F F9 ED EA 31 DA 1A 9F 17 16 20 09 9E DC C6 E6 DB 18 0A FA EC E4 0C 0D D1 11 20 8A 05 E4 1E 04 D5 1A D1 0A AC BF FB 15 F1 F4
DC 13 FA 1A 0A 15 B4 C0 21 B8 F3 06 D2 CE F7 F5 F0 05 04 E3 FE EE E8 CB 04 FD E0 2E F5 02 F5 09 EA 02 20 FF CE F9 1B F3 FE F9 E4 FA D6 4B 0B 02 0D 0B E9 03 1E 03 0D CD

13 DF 54 F5 04 BA DA 1A 26 BA 0A 05 00 F3 C0 F1 08 DA 03 29 2B 43 16 15 DA F2 2D 45 E7 01 2A 37 BC 17 FA 23 23 F8 EF DB F8 01 43 F7 06 30 2C AB 0D 55 E7 2E 07 05 18 0C
0D D2 09 B9 13 02 1B E5 FA F7 EF D0 02 EF 11 08 06 F9 38 F5 F0 D9 CF 18 02 E7 B8 BF 0B 80 1F F5 0D D9 21 C7 16 1C F7 EE B9 11 DC 2A E7 F5 F7 E1 10 E5 E3 02 19 05 03 EE
03 03 A8 E4 C5 E1 10 D5 D6 25 1F 04 F9 BC F3 F6 13 2A 17 E0 23 2A F7 80 16 D6 0E CF F2 11 F0 0E 28 0F 1A 32 29 D8 22 25 11 FF BB D8 F5 29 00 F2 E3 20 EC FA F2 11 DB FD
E0 DB 2D 90 20 EE F9 F1 2A D6 F1 E9 0D F2 E5 C8 E4 11 16 0D 36 F0 07 3B 0E 10 F9 31 03 9C 0C E2 D6 E9 06 22 07 06 FC 95 8A D6 37 37 C4 F3 EA D0 03 16 B5 18 2D 24 03 3A
EC 0F 24 D2 03 DB 1A F2 EC EA D7 EB 16 EB 0C F2 D0 1D FA DF D2 F2 FF EA 0B FA BA 1A 04 0F C0 06 32 F4 F6 DF 05 D2 28 E9 0B CA D9 0D E7 ED 21 BB DE AE FE B5 F3 EA F6 16
03 21 02 2C 22 03 FF 1F 0F EB FE 25 0B DE D2 1D 01 F3 D2 3B 1D 0E 2D 08 01 45 35 37 2A 1E DF 10 26 D6 36 2E C0 20 F9 02 20 08 2E 07 0C BB EC EA 19 E2 06 ED E8 EB EC 12
05 15 30 BF 2D 0F 2A EC FD FA 28 EC 11 F7 1D EC D5 FA 0B 0F F3 D3 EC 44 42 21 CE 2E 16 C1 43 EF 0C 03 11 C7 04 16 E5 04 E4 0E 1E 01 D4 DC 14 FA 0F F0 07 D7 19 35 E8 4B
BB 08 ED 0D 0E E0 D3 F5 3C E8 1F EC E3 FA 00 02 05 CE 11 F4 01 D1 1D 1D 07 94 FD CE FF EB F7 C4 0F CC F8 DD 01 10 AF FC 1B 83 F7 11 0E 0A EE 32 1F 27 02 D9 FC 02 47 E2
02 CB FB D8 C6 E8 F4 0B 06 F9 00 FB DA E1 09 F9 FE F5 26 CF 07 DA ED 09 D9 E0 ED ED 95 F4 0D EF D0 04 C8 E2 09 05 03 0C FD EA CE DB 01 0F F5 FF EB 11 D5 FB F7 FA EE FD
EF 1F 06 D1 E3 CE FF B9 E9 07 EF 0D 33 31 91 C6 C5 EF 1C BC 05 FC 24 B6 F3 C7 0C EE C9 27 DF F1 30 0B E5 19 F6 A0 00 6C F6 E0 E1 D4 B4 0F EA 57 EF 05 00 EA 01 FB E4 90
21 ED D4 E3 18 1C DD A7 CF 0F 2D FA 4A 2D 26 DF F6 1F 24 F0 DD 21 CD 0F 2A D1 17 F9 34 80 09 D8 C0 0D 06 1B 12 D4 1F C8 C2 23 C8 11 0C 23 F5 D5 23 C5 0C C3 06 05 E1 0F
EA EA 26 32 C9 EC 2E AF 20 DE 2F 10 00 DA D0 08 F1 D2 16 A9 E8 02 E3 C0 07 F3 15 23 14 2A FA 06 0E 18 8D 24 1E C8 E3 2D E9 0A C3 FF 36 01 0C 39 FD DF 0B BC FC FA E9 1A
0A 15 18 D2 D3 E2 15 09 1E 2C 0D EB F5 F4 10 F0 EB FB 52 DB 08 06 03 FE 12 E4 D4 DD C0 F2 1C FD 16 28 DE F9 4C DB 07 0A 0C FB 07 1A EA 6C 0F 13 F2 4B DA 07 35 28 35 ED
02 05 17 07 AC EE CE D5 31 CF 33 D4 E0 95 A9 9B AE 12 FA 80 00 EC F8 E5 F3 30 F7 BC 85 EE EB 2A E1 9C EC 2F B1 1B E8 02 1F F6 24 F4 C4 B1 F2 1E 23 20 F1 3B B2 E9 05 FD
F6 F2 E0 0A 19 0B DA F7 1E FA 3B 09 21 F8 E7 A7 CB 18 D4 D7 F6 28 29 F2 FF 46 E8 E5 E4 03 09 0C F5 EE 12 23 CC 2B DA 23 17 18 2A 0B 13 EE F4 42 28 29 E9 1A F5 D2 E0 D5
FE EB 10 22 E6 F0 1F D7 EC 0F 0A 1D DC 2F C3 FE 01 E1 57 E5 1B 1D E7 AB DD 82 07 25 B0 E7 E4 E1 F4 4E FD DB EC EF B9 3D F9 12 F3 01 E7 52 14 10 E6 00 03 F1 15 09 E2 BE
0D 13 54 0E F5 EF FC 21 F7 F8 0C D8 EA 08 EF ED E6 24 0B 36 23 0C 17 F0 F3 EC 22 2F D3 30 F1 F0 06 18 21 06 05 19 12 0F 00 1B 1F 27 F5 FF 51 F6 16 FE E6 DA F1 04 10 B2
F4 47 03 2B D9 1A 38 20 E0 22 03 E5 F1 FB 05 2B 08 09 1D 2C F9 CA E1 DF 33 16 C8 3E 1D 2B 0A F7 2F DC 21 F2 28 F2 04 E2 41 CF A2 09 01 D7 0E C8 F4 F2 1C E4 00 F1 30 2C
F3 E6 05 F9 D3 01 03 FA FA 0D CE 10 D9 FB 0A FF 0A 18 1A F0 05 D5 CD D6 17 F2 FD 01 08 1F EA 0A EA FB 10 E2 04 02 0B E3 0B CE D5 E7 0F 08 F1 00 F8 E9 FF F7 FC 15 05 05
E7 FE 03 05 D7 EA 0B 14 DF 15 FB 03 FD F1 D5 0C DD 0E 16 EE 0E 05 05 D4 07 B5 07 00 D6 02 EC 12 31 2B 29 27 29 C0 2E 64 22 D9 D9 F2 E5 30 0D 08 C0 22 9C C1 08 F1 DB E6
B0 ED 00 01 F3 F9 02 AB 22 EE 13 CB 28 24 CA F7 33 F3 0F E8 1C FD E9 ED DE C0 03 0D E0 FF F9 09 DF F3 DC 1B 01 E6 D1 0D 07 E6 F4 02 CB F1 E9 39 16 DE FB EF E1 F8 29 F8
09 D1 EC DD F7 D3 F0 20 F1 ED FE 16 FC DC 02 C2 F7 16 18 D6 02 1B 11 C9 C1 C7 18 D5 B2 07 BE 2D 02 41 11 FE E6 F1 27 DC F7 0C F2 34 EA 25 EC E5 D2 13 E9 11 1B 03 E6 FB
DC EA F2 10 2D AE FA 0E 07 13 FB 06 80 E9 00 25 24 E4 F3 EB 19 AC B1 20 1A 31 E8 09 F1 E9 F0 F5 1B 23 09 DE 07 23 C1 02 25 8D 08 1E 0B E7 0F 94 1A C7 9D EA 16 1C 14 F2
03 34 EA FA 9D F2 2A F9 28 27 16 0B 13 F1 04 1D 15 F1 28 CC 01 F2 F1 E2 0F C8 FC DC DF 08 2D 17 F6 04 11 CE ED FC 03 27 2B 03 89 E9 25 FA 09 02 FC 39 1C EB 15 D8 0C D9
08 F2 1B F1 DC 0F 01 F8 EB E1 07 DC 18 D8 12 F7 04 F8 2A 00 02 D9 DB 25 24 03 C5 11 FD C6 FA 00 09 80 1F 07 08 0C 06 DE EB CA 02 FC D1 D9 E3 DB F5 EE EF FA 0A 03 F7 02
F2 1E E5 2F B0 C6 F2 04 F5 07 03 E8 F9 29 F2 F0 34 FB F8 EC 1B 04 08 D3 CE D9 33 2A D4 0D 18 17 01 1A 1B FA F7 0C 32 22 DF 1D C0 FA EA F4 3C EB 19 14 F6 CD E8 E9 E0 CF
F5 E8 02 25 E1 EE 16 2C F5 FE 0D E7 EA E0 08 04 00 E2 53 2B 20 05 0E 0E 0D CC F3 F5 06 F2 13 09 02 2E E5 F2 E8 15 E8 DE 1F 8F 19 01 1F 14 B6 E5 00 FA E7 CB 36 11 F5 00
D9 20 F4 FB DB 06 F8 E6 1A 0E FF 05 E2 04 08 EB EA 08 F2 E1 EB 01 03 16 1B 26 E5 E3 15 03 E7 0F F3 0F FB 28 E4 FC F9 E3 19 17 0F EE C7 42 F6 F2 0E FE EE 0E 00 E8 F7 05


12 E9 0E D7 E4 D6 C6 E3 04 F2 DB C3 B2 F4 11 FC 1F 14 0B 28 FD D3 37 FE D6 F9 0D E7 3F 2C F8 21 2B BD 4A 08 E3 29 0C 62 E1 46 51 01 E3 EB FC 35 07 5A 21 C1 04 FD 4D D5
13 17 F0 F9 DC FE F7 FB 04 0F 08 17 27 0D EA 07 D0 13 D7 F1 D3 0A DC D4 DF F5 B7 CB 02 29 FB 02 09 FD D8 2D DA 1D 10 07 FC 02 E3 03 13 E4 D4 0F CD 15 E4 0A E4 F1 F3 F0
E3 D1 DB E5 F0 F2 23 B4 FA F9 CB D2 31 2E 2A 90 17 2A 21 A6 02 1C EA 0F 1C 1E 1E 05 FB 0C 05 0F DD F2 0E DA E9 CF 4D C5 23 0E FC 00 10 C4 09 2F F5 F4 D0 08 3B 24 F8 34
0F 07 16 C8 C2 FA A7 1E F9 2B F8 16 E0 FA F9 2E 26 21 E1 1E F2 0C EC C9 E9 D7 05 9D 00 5E E2 16 24 B7 B4 16 F4 05 EB 32 0A BF 3A FB DD 0F 0B 0F 16 2D 24 80 C1 00 34 DB
05 08 DC 26 BD FE 0D 19 18 DF ED DE 3F F7 EF D2 36 1B E3 E9 27 01 E9 F7 9D 22 17 BA EC EF 15 F4 ED B7 23 05 F9 21 F7 EB 39 BD FD F4 04 CA 89 0F 27 1C 0F 64 13 15 33 1D
2F 4B 17 3F EB 00 01 14 E6 08 0D 17 FA E7 00 FC F3 F8 2B 02 2F FF F9 F5 EF D1 42 ED 4C 0B F4 9E 27 EB 3B E1 DD FF EC FF F5 FE D3 F8 24 C6 0D 3E 35 FE 38 20 DB 0B 49 10
21 20 FC E9 BA 0D F9 15 18 1E 2C 20 17 0F E2 17 26 29 FE 12 FF 1F B5 D7 E8 FC D2 C0 04 2E 1B FD EB EF 00 10 B3 16 0D 2D 1A 09 DD 28 10 E2 DB 1C 1D F7 0A 04 E0 1B 3B 14
9C E1 F9 EF 08 E2 34 0D 0D E7 FE E7 25 D8 03 FC 03 12 08 A7 FC 0B F6 D2 F9 23 E5 E2 C1 FB D0 1B B7 24 CF 09 DB D7 02 E3 FB 06 D9 CB F0 FA CE B6 D9 1F AF FB FA AA FD F5
ED 9A D5 CF C7 F6 FD 07 1A 01 EA EB ED EF 04 0B 10 0A D8 FA 05 EA F5 09 DA 1F E8 FD BC 0C 14 1D B2 FE BB 20 04 29 0A F9 09 EC 15 D5 F0 F8 EC D2 E7 02 E5 09 14 01 E8 FF
21 D5 00 D9 4F E1 DF EB D9 10 F1 E7 FA CD 04 E4 D9 B7 F0 13 EF E1 F9 FE 2B 31 FF 09 3C E2 29 10 01 26 00 BC FA C4 BD 02 EC 2C 14 F2 FD C9 F4 EB 0B 10 11 C8 17 1A FD D6
1B 2E 27 F7 10 2D 35 D1 01 F2 29 26 30 18 E7 10 CB 05 E4 F6 A9 01 C2 D5 2B 38 01 00 23 F4 27 14 0E F5 23 02 D2 02 1C 0B F0 C6 F2 30 37 F0 DF 13 D9 32 EA 18 29 17 E3 12
DB 2C B6 C2 F4 DA EC 1E E3 F5 96 EA 07 2A 1F C7 0E B9 FF 38 00 21 E2 F6 E1 53 F7 10 F4 DF 07 25 F5 04 D6 27 12 D8 DE C6 2B FB B0 A8 0E F6 B6 F2 11 26 EA 38 3A E4 F4 E3
F9 AA FF D6 CA FD 08 EF 38 0B F5 E3 F7 31 0D 07 0C 26 DF 00 27 11 1B 1D 13 2E E2 F8 E5 10 0B 52 E3 11 E4 16 57 F8 0F F4 41 FF 39 F5 FB 4E E1 E3 EA 11 E0 FC 45 2D 10 08
23 F6 FE 06 BC CA 86 06 2B B1 F5 AA CC EB 22 FE 2C FE 06 F7 00 C7 D2 FB 18 C6 28 80 D3 D2 F3 07 CB AD C6 4E 66 F3 C7 B6 2E E7 F0 87 29 CC 00 BB 41 01 0D 2C C3 C6 3F C7
FF 89 E8 19 06 FB 27 CC 02 C8 B6 D9 EA 34 05 1A DB 21 11 39 17 0B 16 16 FD CC F4 E2 0A D8 CF D1 C9 0E F3 02 30 C3 FB F4 03 F8 0A E3 29 0C EE CB F3 D5 FF D7 A4 B6 11 12
FE EC E1 E6 EA 1C 07 51 00 FC 05 33 F0 05 29 1F 08 D1 CE 09 EF E7 13 FB 97 4A 1C 11 FB 1D FE 27 E1 18 E5 DA F2 EE 10 E5 E8 ED 25 84 E4 FB 0A DD 1E 16 FC 34 2B FF 08 D4
41 17 F0 EA 13 23 F3 21 06 36 C2 01 EB 2D FA 12 0C DA 0D 32 25 0C EC 0A 03 32 3B F1 49 1D B1 05 1A EF F9 D7 FE FB E1 44 F1 0F 10 EF F9 0E CF 54 FC DE 07 12 25 26 27 E3
23 20 AF 21 04 08 31 E6 FE F5 17 02 36 1A F0 D6 01 02 FD 13 08 DD E7 07 BB D8 EA FF 19 EC FB CE E4 04 0D 39 01 E9 FF F2 3D F7 C1 FE 07 FE EF 1D 23 2E 24 5D 19 01 2F 27
DC D9 DC E8 15 0F 17 FF 06 EF F0 16 01 DD EA F0 EE FE E7 F2 DD E9 EA F0 E4 0E E3 00 F1 2C E2 0B FE F3 E1 12 E7 0D FC 00 2F C3 20 22 01 01 D4 18 CE EB FF F7 04 0E E8 FD
CB DD 04 1D FB 03 52 F9 11 02 E0 BF 0F EB 02 98 D4 04 F2 2C 17 E0 EB 1D B2 FB 53 C6 24 19 40 3C EC 0F 14 FE ED D5 DD D9 08 25 39 F3 0D EF 0B 15 F8 27 1C BD 1B 02 12 1D
CF 0D F3 F1 21 04 11 1D 1E F0 CE 12 F2 C7 FF F6 E8 F2 FC 07 F6 FC 0C EE F4 41 D5 DE EB 02 14 59 14 1A F1 AE AD F6 02 F4 FA 0F 17 EB D3 17 D3 FD 1E 0B E0 E9 12 C3 01 F5
04 BE FF B4 C1 0F BC E5 F1 0D C9 E7 D2 25 2C DD 14 07 F6 DE 1A E0 E1 FB BB FA 07 E0 0F 28 AC 25 FD AD 0D DF 1E 01 03 06 DE 24 23 E2 E8 00 03 1B 28 FF 04 0F 25 40 30 F1
16 12 F2 27 F8 27 FC 0F E8 15 11 0F 25 F7 BA DB 0B 02 AA 21 E5 27 04 89 0F E8 01 B9 F0 16 E1 F8 1C 0A E8 0F 0B 20 DF 07 04 B7 02 0A F4 0E 07 04 D2 28 1D EA F3 13 FC E0
E1 C9 B6 FC EC BA 1C 14 19 F0 E5 D8 E2 EA 31 2D 25 E1 E3 FB 19 F4 EC 3C B1 0E 0A C5 F7 F2 E7 26 C1 0C F9 20 0B FD 06 06 1D 04 02 AB 19 13 C2 C1 F4 23 E4 16 13 FE FD 1E
15 1E 0B FE BB 12 C6 FF 17 F5 0E 07 31 04 F2 FD FF F0 F9 00 E8 DE 91 DF 14 F4 ED 8E 04 16 04 F6 06 EB BF 16 FE F8 F1 06 03 EB E3 F3 FB DC E9 03 06 2E 0F 11 EA FE 23 EF
E4 BE CF D5 14 C8 CE F1 0A 9D E3 80 E6 BC FD C7 15 E2 04 BF 03 E7 C4 38 01 3B 35 FB 18 E7 08 36 0B A5 F3 F8 E3 1C 39 C9 F9 42 C2 F4 DC E3 FD FC 1A 24 F4 20 02 08 0F F4
EB 49 22 0C E9 F2 1A 24 22 18 13 13 21 1A 03 FC 23 23 0B BD FA 1E 10 CF E5 DB F8 E7 DA 2C 2E 01 58 3E F3 15 02 13 C4 E1 0F EE 1A D2 36 DA 1A 3C D1 2D D6 46 FC 04 F4 23
2C 08 FF DC CF 08 2E 0A 10 DD 04 EB 02 17 DF F0 F6 07 FF 03 F9 CD 1A F5 0F EC EE C7 0C 23 99 F3 14 FF D2 11 4D E1 F3 F3 0F 07 F7 DA F1 F4 CC F7 CD 0A 47 F4 27 FE 15 E2

19 0A 15 DF DB ED F9 E4 03 A7 EC BD B8 ED 11 08 1E 17 12 2E 02 DE 02 0E D9 E1 14 1A 34 F2 12 43 23 CA 35 0D 10 2C 08 02 E3 36 3F 07 E6 08 F0 FB 06 39 2E 01 1A FD 33 1C
F3 09 11 CB 35 FD B2 00 FD EA 0D 0C 13 13 22 25 FA 0B FD 10 C2 01 C2 F8 1E F3 9F E2 0C CC DF 09 1A 0C 10 0F 38 FC EF 2D 02 D9 FE C4 FC 22 F2 15 80 F2 0A D3 E8 12 F7 0A
EC C6 D4 B0 BB 0A 15 C1 CA C2 23 C2 10 2B D0 80 25 0D F7 1D 04 30 E3 E9 D4 14 25 30 DD 17 F7 09 07 EE 23 02 C6 E3 35 D3 44 11 DD F1 F4 03 14 10 D9 FC 1E 2F 41 0A FF 22
0B 07 1B D9 E5 18 80 00 21 F1 E2 F8 EC EA 2A 1E F3 15 F6 12 D2 D5 A6 ED 0C E9 08 DE 10 24 BC 1E 1B DD DB F8 38 FC EB 08 D5 B3 37 E3 E1 21 CB DE D5 10 15 AF E0 2E 1D 1B
10 2C 11 E4 23 FE 23 0D FE D5 F0 A1 28 08 C1 F4 FE 04 AB F1 E6 15 A9 CF E2 05 EC EC 0D EE FF F1 26 02 E8 F7 13 06 E5 FF 2B EB 0E D3 EF F7 E5 19 F7 DE 34 F8 E2 23 0C 1D
2E 60 14 33 FA 15 EE 00 D9 02 19 14 08 E0 E4 F0 DE 29 EB 07 21 01 F8 04 F9 00 31 EF 2F 03 E1 C1 2D C7 36 F8 D8 1D F7 F6 F6 12 F5 FD 0E C6 18 22 30 E1 41 1D C8 FF 28 11
0C 38 20 D7 03 43 C1 1C 3A 0D 1F EF 16 10 21 48 1D 2B 08 F6 D0 F3 A0 EA 4B 2F EE B9 20 13 DE ED 17 EE F6 DD 24 02 E3 20 24 13 E0 1E 06 00 C4 03 CB E7 47 FA C2 32 32 3C
AC FC EC C8 08 0F FC 10 16 EA 10 E4 26 36 E9 EF 0B 31 EB AB FA FD 01 D3 C4 0F F8 C2 9D F0 E1 1C E9 28 B9 04 20 20 07 EB 1F 1F F1 A7 45 04 04 E0 F1 15 EB DD F1 DB 0E 12
DD A9 DF DB DF EE 07 F8 1E E3 FC EF E6 EF 00 03 16 F7 09 F8 11 C9 E4 10 E1 FF EB F5 BC EC 13 23 C2 0A CD 21 17 12 F2 02 20 E0 F2 D7 0E 0A E3 FD E0 06 EE FD 0A 03 D6 08
4D E3 12 E1 E3 DC F8 CE 18 D6 16 DB F1 E8 BD CD DC D0 FC 0D 1D 30 F7 EB 12 CF FC FA 36 05 09 16 38 03 DC CC F8 B9 BE DE 07 FD F6 D9 05 E3 F5 E4 1A 2A 22 E3 0B 18 24 E4
0F 38 13 E7 33 12 C6 CA FE 03 21 06 22 2F 18 F3 EE F5 DF 30 87 29 BA E1 35 1C FD 36 19 91 03 B2 E6 1D 35 FC 20 D8 05 07 EC DF E1 04 0E 2B FE F7 BC 14 0C DD 13 2D F0 07
F9 2A E6 DE 48 0B 17 DE 24 AE C5 EA FC 27 AE B5 FB B7 00 DF DE 25 0D B7 26 E8 0D 2C EE F8 EB 2D 39 09 D3 15 18 C9 DB B4 08 0F EE C7 F3 12 DF DF 29 F8 01 17 F8 AC 1E AF
F1 BB FC DC C0 FF 15 FF 3F F7 07 F7 E9 F6 0E FA 17 0C 31 05 1B F3 02 38 0A 28 F0 ED E4 05 25 3A E7 1B F0 21 5F E4 08 0A 40 F6 28 FA 1C 79 EB FA FB 14 E6 F2 37 30 12 08
16 15 10 00 80 E0 91 E6 0F C5 12 AA F1 C7 F8 CD DD 43 14 AC 06 BE D1 E8 00 EF 1E 80 B3 ED DA 3D B9 9C C8 4D 04 1B EF BF 3E FA 0A 95 16 B5 0F F2 1F 06 E0 28 B5 CB 34 CB
E3 CE D9 FB 1B 0B E9 B7 F6 D6 D2 E0 1C 3A E3 F3 BC 39 07 EB 01 1B 27 EA EC E9 E5 F3 F2 C7 E7 F9 A9 FB 20 11 C5 F2 31 E3 F9 0B 15 E8 24 06 13 F7 EF DB C8 EC BD A6 E6 01
29 CF 0B EB ED 22 01 11 31 DA 29 30 D6 51 E8 08 FE CE FF F5 ED FB F5 DB 94 11 1C 17 06 06 D5 12 F9 04 D7 D2 F7 D0 08 C4 ED D1 0B 80 FB 0C 04 FA 1C 17 2D 33 27 BE 1E 09
43 20 08 02 FD 3A 18 06 E3 F7 E1 02 E0 07 CD 0F 0F 06 EA 1D 21 39 EE 02 E1 13 3A E8 36 1F B7 02 47 CB E6 E8 24 17 DE 1C F2 13 15 F4 EC 21 E2 15 0C D5 58 09 10 F9 41 BF
08 2E E6 DE EF 2D 34 0D DA 1A 25 F4 FE 14 E8 01 EE 27 F8 10 EA DE C0 DA BB 1A F0 E8 28 18 EC E4 33 D5 33 17 05 13 EC 12 22 11 A5 0A 03 26 D8 FB C8 E3 32 1B FA E1 2C 18
DF E2 E8 E9 27 07 31 F9 09 E3 E5 16 F2 F1 F1 01 02 0F F0 03 C9 DE E7 F3 E4 FF ED 0E FD 15 EF 1A FC EB EA 0D 0B F8 F5 FF 21 BC 16 04 0A 17 F1 0F D5 CF 06 EE F4 03 EB 07
08 F1 0A FF E7 1B 4E EB F6 DC 29 C9 00 0B 95 A7 CE 07 E3 33 1D 16 FB FF B8 0C 38 0D 1D E3 3F 5E 29 F8 F8 4A CE CC EB C0 16 0F 1E 06 0C 0C 09 D0 FB 23 38 1C 1E FF 07 05
DD 22 EE E4 3A EB 02 DA 30 C5 C7 0F 0B 45 D5 D5 0D D8 02 25 F4 0C 19 F2 0C 0D DE FA C7 ED 0E 3A 15 13 19 E5 0B DA ED E2 F1 FE 21 EC D6 17 D4 0E 36 04 CE 0F 12 AC 0C 0D
08 AE 13 D6 23 0C BD 11 F8 BB 07 EC E5 F6 0A B9 02 07 0D D5 FE FE FE F8 9A DF 15 FE 16 2E C8 36 2C 01 1A DE EB 02 FB D6 FE 21 12 F9 E5 1B 12 F0 E5 00 19 26 1D 0A 11 13
06 21 E3 FD FB 1B F1 F8 FF 18 F0 00 05 0F FC D6 FA 0C FF 1C E5 FD F4 F2 11 01 03 EA E3 FC E2 0A 37 24 DA 0A 21 20 C9 EB 0F C2 F2 DD 3D 15 0D E6 B2 D5 F8 E5 02 11 DF 10
E5 EA E0 F5 ED 04 3F 04 26 BA 0A E7 F0 05 D2 39 0D E6 E5 08 FE 09 E2 FC D7 13 FC E9 FA F3 0B 3C 2A BE E8 2D 12 F0 02 0F 13 0F DE A1 20 2A F1 F6 E6 15 0E 0B 0B C1 31 06
03 21 24 FB EE 33 80 04 15 FD 03 F1 1C 10 FC 25 F6 0C 07 11 D4 D3 80 DA 21 EC EA 80 EC 0B BE F9 10 BD E0 17 3C 01 D8 1C 03 CC F5 DF 03 F9 A8 07 D4 F9 14 DE CF 1D 1A 04
FB BB E5 CA E8 DD F8 F2 15 80 2C 84 D6 03 BB BC 10 F4 D8 DB FE 0A D5 17 DE FD 2B FD 06 F4 07 49 0A 81 CA EF E2 11 2D B8 02 3D 8C F6 D5 EF F4 EE 0E 17 FB 1F F4 F5 FE 0B
E0 15 09 ED FB 38 2C 0E F8 0C 0E F5 FE F6 10 EC 06 0C 1F 00 F1 9F D6 EE 05 25 11 F2 F9 FB E3 26 3C 21 F0 06 32 04 C5 08 0D DE FE B6 1D F5 F2 10 D1 02 E9 FA D6 09 EB 31
11 FB D1 C9 F7 14 E1 C9 FC CB FB F7 D8 BB E4 05 D7 04 EA FA DC BC 0D 09 FD FD DA 00 E5 22 CB 2B BC EC 09 FD 22 FD 0E F3 09 FD ED E8 E4 21 11 D9 AC 16 05 F8 30 FB 10 A1

22 DE 2B F8 22 E3 DF 12 ED C4 14 F2 F6 F2 EE D6 38 05 EA 43 15 EF 0F 1B CA DD 3B 3B 0E D3 32 30 FD 14 24 04 07 14 1E CC F0 16 2D 23 01 F6 ED E1 1F 34 13 57 3A 2E 1F 20
02 EB 21 E6 04 03 0A EB 00 E5 E1 12 0B EF 30 1B 09 08 22 1C C1 2B 80 FC 17 E9 1F 80 13 ED F0 13 03 E1 F5 E7 2A F7 E3 E4 EA DD 06 E7 F5 14 0C F5 C1 D7 F2 FE 08 0B 15 13
12 F9 08 AE C9 FA 2B 13 C5 07 3A E3 05 1B E2 CC 2B F8 18 50 E1 33 DF B3 3A 14 1A 19 D1 1A E1 16 09 07 EB FF EF E9 0A F8 0C 08 A9 F8 F6 F9 FD 06 CF 21 24 F6 18 12 F2 F3
FA BB 0C CD 03 21 92 F6 10 F5 07 00 26 DB F6 FB 21 04 24 19 FB 9F A9 19 0A CC 41 C8 1A E3 DF FC 0A 28 26 DF 24 11 FE E0 D1 B8 34 20 E3 F7 F1 C2 FB E6 E0 37 44 13 0D 52
00 07 17 D7 EE C8 27 0F E2 D4 D1 E7 14 02 19 FE 0F 2A E3 21 C3 05 B3 E3 05 03 F3 F5 E4 0F B8 28 28 1B E8 CF FC F3 F7 EC 07 C4 F3 D2 CB 06 12 08 1B 0B 41 D0 D7 0A 2A FD
3D 52 17 3B 0F FE F5 17 E6 1C 13 20 F2 E3 DD 00 05 FF D7 24 29 DD 19 EB FD 2A 38 00 2D 0A CD D7 21 EA 2D 03 BE 3B EB 00 FD 18 FF E4 E7 B8 0A 0A 42 E2 31 2C F4 EA 32 F5
08 24 30 D5 FE F6 D7 F9 1B F0 10 26 09 EB 1A 31 1D 24 03 FC D2 C2 A9 1C 4E 2C 24 B8 2B 2B E2 15 07 1B 20 AF 20 F6 EE 20 22 FF C4 02 F3 F3 0D 1B 18 DD 28 FD FA 1B 2C 64
A6 E0 17 E7 FE 12 DB 26 5A D2 13 ED E0 D7 00 1B 36 03 29 03 FB F7 B9 09 17 CC 0C E9 ED E0 D0 39 03 C4 F2 1C 30 0E C0 FC 4B DC 0C B7 0B FD EC 2E 13 E8 16 DD DA FF 2F EC
E5 A9 EA CD B3 01 0F 0C 08 E5 04 EE E5 F2 06 04 18 13 27 DB 02 E5 D1 12 DC FE F0 FF B2 E7 19 1E C0 FC C9 29 15 10 04 02 14 E6 E4 D8 0B FE E7 F7 DC 1B D5 0B F6 ED E5 20
53 0A 0F F3 04 AC F9 0E 14 02 3C EB E9 00 9D CF C9 C4 19 FD 16 20 06 1F 19 C7 0B 1C F1 03 ED 29 E7 1F E1 F3 E9 A5 B4 43 02 25 AC DD E4 DD F4 08 08 29 01 CE 07 11 1E E7
0A 27 06 15 20 32 E3 C4 DD 06 16 15 5F 3C 15 F4 EF 0A 04 32 93 28 C8 E0 23 B9 09 01 20 B1 F1 F3 E6 14 06 F6 F0 BE 28 E0 C7 F1 D9 22 F4 2E 22 FF CA C2 13 B9 FB 1B EE 21
FB F3 FC EF D8 F5 25 EF 30 AE 16 FF E7 1A 8B CD 0D AF 2C CA BF FB 0E C3 28 E1 02 1B D7 09 EB 56 27 20 CA FE 2F CE F5 1F DF 1F E3 E5 E7 E2 DE 11 00 3B 0A F8 DE D8 09 D0
F2 D0 FD B9 E2 F6 1B 04 44 F8 0F FD FB 08 13 04 08 19 45 02 08 26 03 13 1B F8 D8 00 ED 02 2F 48 E3 23 E5 1E 5A E1 16 EC 3E 0E 12 17 1B 5E E6 FF E8 1B D2 ED 28 0E 06 13
07 EA 14 FE 93 C6 A4 E8 FC C6 35 B0 D9 9B E5 D3 FE 0E F9 A2 05 BA DD F7 FC 23 2D 80 B3 EC DC 2F A8 91 D7 4A 01 42 DB ED 39 ED 18 89 F6 CA F1 16 31 2D ED 41 DB B1 14 BC
EB E2 E2 E2 20 F2 D5 EC EB EE F8 F3 23 41 E0 02 E9 0F E1 DD 07 22 28 20 F5 16 ED F7 08 D0 BB D4 A2 F7 09 21 C2 27 EA 1A 17 FB 36 DD 1C 0B DA 24 19 10 DD F2 D4 80 CD 0E
FE 04 24 F2 EC 08 1F FB 31 E7 2B 14 DE 61 EA 1C 06 DC 62 D0 15 F6 F3 C7 D0 89 43 EE CE F0 FB 25 ED 2C FC F8 DE ED 04 22 E5 DD E1 80 D7 02 0E 32 E8 17 1F 36 32 AA 05 09
4E 05 0F 01 E6 22 13 4A D2 26 FF FE DA 0B EB 06 14 14 0A 1E 1B 1C ED E1 C9 C9 3C E7 D5 17 C8 0D 0D 22 FE F7 0B 10 F9 2C CA 1B D7 E3 E4 FB E7 06 FE FF 28 24 28 12 38 B3
17 20 1C E9 E3 0A 51 33 A6 3B FF 2C ED F7 10 24 15 21 DE 27 12 D7 C6 DD 20 28 01 F2 FE 35 09 FA 14 EE 39 EA 00 06 ED 16 36 E8 B4 F2 EE 00 0E F4 ED 2B 52 C7 EC 1B 50 E8
C8 E3 E9 F1 D6 0F 29 0B F6 F0 E6 12 FA DB 04 0E F9 09 0F 04 D9 CB DA E0 EE 06 01 15 F9 1F 01 35 F8 E5 13 03 07 08 FD F9 0B B3 F3 04 10 12 E5 00 D2 E5 F6 EA E8 22 F0 15
04 F9 0A 00 E9 EB 60 0D DD 28 32 24 0A 06 CB 90 B7 23 DD 3E F5 16 17 02 FA 10 23 23 EE EF 22 51 11 3B 12 32 EA AB DF 10 F9 2A CD E6 D0 ED FA D5 FD 48 FF F3 F7 E5 06 F8
C6 FC D2 01 14 0A F1 DB 4F C2 C2 03 F3 47 D4 04 52 EA 0C 2B 2C E5 F5 F5 DB CE FE 1E AE E0 08 3A DF 07 33 EE 13 F6 E5 F7 EE 03 F5 DD E1 0A C4 12 2F F5 B4 40 FD E7 2D 18
0B E2 2D E2 C7 09 DF 44 EF F4 01 D6 EA 13 08 D9 09 28 29 CE F6 15 F0 F2 B7 BA 2B E4 E6 14 09 39 E9 12 12 D7 DD E8 1A D3 E4 FB F4 21 D8 F1 FF D4 E7 F4 D6 44 36 13 E0 23
CB 1E 06 D4 FD 1E 15 F6 3A FA D4 34 AA FB 23 F0 22 0F 1B 03 D2 E3 DA 03 2B 0C 2B D8 15 05 E8 33 50 38 07 C9 1E 41 CD DF 0B CC 06 D9 F6 F1 27 A2 BA BA 00 13 2C 1C 10 18
1D DC EA FD E3 02 3C 1B FD F8 1C F9 EE 04 D9 51 F8 08 1B 10 0E E1 C7 FB 04 F4 01 F5 CE F7 0C 45 01 EF 2B 16 32 01 00 34 0E 00 A3 98 38 04 1E 1B FB 4A 09 FB 09 C7 1A D6
F4 F0 24 08 BC 01 AC 0C C7 F2 05 21 1D E4 12 16 FD 0A 0E 14 FA D3 80 05 25 F4 19 A7 E5 F9 E0 10 FC EB 26 07 23 17 EC 06 18 AF F4 DD EA 0D 0C FF E6 01 09 06 06 07 16 FB
17 C6 F9 E2 B0 DF 03 15 0F A1 3B 93 CE 1D D1 E9 12 D8 0D 06 0A F9 CE E1 D8 E6 35 04 B8 DB 14 4F 03 AD E8 29 F8 05 3A 10 DB 37 80 D2 D8 E6 13 D1 0F 36 06 19 E5 F1 FE CD
EE 01 0F 0D D6 3E 14 1D EA 12 F8 23 EA FD 1C E4 05 19 13 17 07 C6 E5 D6 0A 13 1A D2 1F 0C FF 38 1E 46 E6 00 31 16 C6 F0 14 AC 00 DD 1A FF 00 04 DB E3 0E 05 18 FE 17 FD
F6 0B 0D B2 AB FD FF FA 00 24 E6 13 EE EB 04 E9 DC FA FB F1 F8 D3 1B 24 1B 0F D7 AC 07 1B C3 16 E8 FC ED 0C 10 FD D9 D7 22 0E 0C 08 E1 FF F0 DB C0 05 0A 02 40 0E E6 DE


