E0 16 0C 01 F6 03 F3 E0 21 19 F0 F6 07 1E E8 20 0A DF D7 28 F5 F4 12 FA 15 BD F0 C8 24 1F F6 30 EB E4 E9 21 04 D9 F2 EC 25 D7 10 EB D6 4E 05 FB 14 2D 2C 10 D7 17 ED 09
05 CC D1 FC D1 02 CC 16 FF F6 12 E9 C6 D9 00 02 08 26 10 F3 06 0B EA 01 C4 E9 D1 08 40 25 C7 F7 10 D3 1E 23 D3 FD FA C3 DC E1 14 E4 F6 13 0B FA 0B F2 08 D0 BD F9 0E 11
29 02 E7 10 06 14 25 03 06 24 03 20 2F E3 E1 2A 07 F2 14 12 34 F2 2C 05 27 04 EF 41 C7 21 AB CA C8 02 21 2C 11 F0 F5 E5 15 1D 26 EF B8 D6 EE 1C DF 02 0C 42 BE E2 EE EC
F0 C7 2A D2 06 F6 DC E8 10 24 01 07 AE DF 33 36 EF F6 06 F2 C6 18 3B F6 02 E3 30 39 23 F5 15 E8 17 81 1F 18 1D 13 04 08 C6 29 F5 21 09 13 30 F1 10 F2 26 00 1E 34 2F 00
99 0E 21 00 D1 D7 0C FB 34 03 10 DF 1B F2 FB 1D 1D 04 CF 01 FE 15 8F 0A C1 1B E5 BD 2D E1 C8 1C 0C D9 B7 1C F3 D7 00 E1 05 E9 20 E2 16 1F 00 C0 E5 FC E2 D1 CA EE 0F 1B
0B 1A 11 F5 80 B6 FC 27 CA 31 1D 16 D4 FB 05 23 24 FA 80 14 EC 1C F7 02 F2 27 DD E9 F9 02 80 03 E2 0E 15 9E 01 0F EF 24 D5 29 40 EA CD FF 00 0B CA ED ED D9 16 F2 04 0A
04 C1 17 E4 F0 8C 1D 18 01 32 F6 D3 F3 14 21 C9 BC EC 0E 1D DF FB F9 02 F1 F5 FC F6 07 EC F1 04 20 DE 39 E0 39 09 FD F9 C6 D0 D4 CB 9D 2C E7 06 05 E6 B5 E7 FD 16 EC C8
08 CC EB CD 15 17 C8 07 29 A5 05 20 21 09 08 02 FF E9 F6 11 22 05 02 F5 A6 28 41 05 DF E1 EF 1D D0 AF 84 CC 24 C1 F2 FA CD DB ED 0E 02 0A 17 CA 1C 2D F3 F1 0F CB 23 22
CD FA ED 06 E2 12 8B F7 05 1B 04 FF E6 0B D7 1A DF 13 D6 06 EF FA 23 F8 2D 21 EC BC 10 11 08 3A 1D 80 EE EC 15 F5 F3 34 EA CA FA 1E 31 53 D8 DD 26 05 F5 20 F6 E1 E5 EA
FE 17 BB 23 E8 17 E6 17 DD 15 29 F6 D2 E2 22 30 13 FC 23 D7 E6 29 0D FE 27 D9 F2 FA F0 FE 22 1F 2B EB 0D 36 ED 01 FE 09 3B 15 F6 14 F4 A1 07 0B 0F 16 07 EE 13 FE 0F D7
FD C4 E9 26 1E 21 24 FB 07 FB D9 04 15 17 E9 04 B6 04 F7 0F 26 03 0D F9 0E 22 09 D9 14 F0 0E 22 08 80 1A F5 0E 1A F5 07 FC D7 23 34 F2 0F EC 38 F6 F8 0E E6 CD 0A F4 DF
FD 25 D7 C5 2E 0A 15 13 DF 18 33 E6 0B 49 DC AF 28 1E 2D 1F BF 3A 0A 06 D6 08 F7 09 E0 13 D8 95 F3 E5 14 F0 3F D3 FB 07 19 11 00 B4 11 C3 F1 F0 F3 0A E1 04 47 40 09 80
D5 D5 FB D9 EF C9 20 0E DF FC DF AE F9 A6 E6 EB E8 E2 A5 DA DF F1 DF F6 DF 0D F5 15 F1 C2 D4 1A F3 29 E4 22 D5 E5 00 80 DA F8 B5 9E BA DF FA F9 D3 D3 F7 80 F6 D6 E3 22
05 B8 E9 D3 00 B3 11 11 1E C3 E5 04 19 D4 E8 E1 D2 F3 F6 11 EB DD 46 FE F8 C9 ED EA F5 AE F2 EE F0 D0 F1 0A E1 29 FC A4 C7 A9 B0 E0 10 1A 0C DB 44 D6 00 08 22 F2 F6 06
17 23 0F 0D 80 0E 20 19 FB E5 DC 0A 11 B6 1C E8 27 13 00 DF 12 18 B6 03 DE FA D4 D6 0E ED CD FD 19 FD 05 09 F7 EF F8 FA D9 D3 0E E0 0C EE F8 ED F6 CC 01 11 0D E6 F6 09
16 20 07 FB 10 1E 12 0A 13 BF FE E4 D6 D3 11 0E D6 DB EB E1 E9 2F F7 FF C4 0A 0B 19 EE D1 EB 02 D2 55 00 2E 22 23 02 4F 01 09 E8 24 EA D2 1A 0C DA E0 E9 CC F7 18 35 0B
F3 EE F3 02 1E 14 03 04 BF 14 EF 0A FC E4 29 EF 11 F1 FB 18 D3 0F 2D F8 C5 0E C7 F7 15 1A 27 18 19 8C F4 ED 2A 34 FE 2A 39 23 FE 11 12 CC D0 F5 F9 EE 42 0C 15 1F F9 F5
06 1D FB 0C DB CD EF 14 D6 08 1A 0B F9 06 F5 B5 14 29 BE CE 01 E0 D4 F3 FE FA 04 C5 04 F2 0E 13 06 38 E3 F8 0B F6 F2 F3 F4 29 18 04 E5 11 FF 03 F9 F8 D5 FC 07 DA E3 25
F7 08 FA 14 DE ED 01 D1 0D 07 FC F6 CB B0 30 0E D6 FB E8 0C E7 CD 18 08 D8 DA 0B BD 2D D1 1B CF D0 AD D0 03 D2 0A FC D6 FC 23 0A D2 2F 02 01 F6 17 01 09 0A 2E E9 08 CC
57 EF F9 DF 04 0F 51 11 2C D5 FE 00 38 01 C0 F7 E1 02 09 05 EF 0F E6 FA C0 1C 23 F3 CD 26 20 DE 0C 04 80 1A 42 FD 08 09 45 9D F1 01 ED 1F B0 01 D5 17 2C 51 01 F0 EE 48
1E E5 C1 C3 30 F9 3F E6 1B E9 E0 BA F3 19 FF 9F FD 0A 0E F9 13 12 F4 06 D0 12 B6 30 08 FB 06 F9 31 B6 F0 EA 10 19 FB 18 28 53 F6 19 8C F1 D2 EB F3 F5 F3 F7 0A 1A DF EC
ED FE D2 F8 27 F7 DD F2 40 EB 1E AB F1 09 F1 1B 0E 08 05 FF 32 13 E5 F9 03 09 F8 ED F3 1A 07 16 06 23 01 0F EE FD EF C6 B8 3D 1C DF D5 FB DA E7 18 FD 21 0D 09 C8 EF 0A
E0 07 15 9F 24 21 15 E5 E5 2E F5 D3 F0 F7 FD B0 F1 09 F9 10 84 00 02 FA E8 2B E5 F4 32 11 E6 F4 10 80 C6 B9 27 20 09 BE 09 02 0D BC 05 F2 CB EF 1A 0B F5 F8 1F 23 BC C4
CC 16 CB 00 FB 35 2C 15 42 2A 11 01 24 FF F2 19 15 13 0D 01 FA F9 C9 03 50 1E 02 D5 20 2A E7 0C 39 CC F2 16 EC F6 F9 0E EC 1B 2F F9 36 01 49 1C 0B 20 20 F6 03 EC 20 FB
0B F1 3C 26 D7 07 80 02 2A C5 EC 1E 35 0F 25 F8 E6 0B 07 C4 10 E9 C2 F9 5B 27 FE 36 F8 1F 08 D9 FD BA EF 27 D7 E2 EA BE CE 0A FD E7 13 05 1C F7 01 FD E2 D1 B0 DB 0B FD
06 B5 FB E0 12 EF 8E D8 1C FE CD 1C 18 31 15 F4 FC E8 EA D6 DC BD F8 F8 BE E3 F4 F7 A0 F0 BE 01 DB DD DF 0C F1 C0 F5 E0 B1 D7 FC E8 44 30 02 A8 01 08 05 F2 11 D2 FA EB
2D F4 F3 80 21 CE 11 BD 2C D7 2D E2 D9 BF 27 EE 23 F1 F6 44 DB EB F7 FF CD 22 C0 0F 09 17 D0 A0 1E DD EF E1 06 F9 03 F7 FF C6 03 0E C5 EB A6 47 11 00 D6 EE 13 D9 95 F3
DD ED 27 B5 26 DF DE 19 E7 FE 11 D5 17 19 02 02 F7 22 FA CD EA 11 EC FF C3 13 FD 09 E3 06 28 F3 30 E4 D0 3D 27 A4 F8 41 E3 08 80 E7 2D F7 D3 07 0F 1B D6 EA 0E 39 FF 15
16 1D D9 1C 27 32 3D 1A 32 FE EF 0F 27 3D DD E9 03 E6 0A F8 09 38 EF FC F0 F2 E1 ED C8 EF FA FB 02 F5 99 07 FF 2F F6 16 2A FE F2 19 E3 FB 14 21 B9 EB 35 0A 16 04 1B E7
1B FA E0 2A F2 0D 05 E5 EF FE EC EB 18 E5 FB BF 20 F0 EC 0F FE FE 21 F3 DE F0 B6 DA F1 08 18 EB FB 37 E5 1A BC CB FE 1E F2 DD 10 13 B9 EE 1D 54 CF F4 DB D6 0D 1A 12 04
EB EA 02 E7 BE 0F 08 8B D6 16 F1 33 FE CA 19 12 F0 07 FA F9 CD 2A E5 F3 00 FB 03 02 FE 0A 1C 14 A9 D3 DA FA 1A 1B FE C5 DA F1 23 C3 27 14 FC 2A E7 CC 1B C6 04 11 FB 20
0E 0A DA C3 E6 C7 E5 E2 E6 08 F8 32 FD B0 2C F2 E2 E0 EF 54 B9 16 05 FF D5 FE B1 EE E8 1D E1 0B A2 A7 DD 12 E8 16 F5 E7 12 1C 62 9C 80 F7 33 F1 DC EF D8 F2 FC F6 9B EF
19 1C DF F9 F0 1F F8 29 19 0E 07 0B 02 18 E2 DD 2C F9 12 E8 E0 12 12 FF E6 18 CA 26 E0 E5 C1 1D BA 29 EC FE 00 D8 FA 13 FE 0A 1A A7 DD CF F6 34 F5 EA BB E4 C9 B1 E4 EA
00 E6 08 23 BA E2 0C 07 0B 35 23 08 17 AE BE 30 F7 07 88 10 94 1D D9 F7 0E E8 D9 E3 0B E4 01 E4 C0 F9 12 B4 BF 2E 03 EC FB 2A 2D AC 80 04 E7 2A E9 B6 1D 80 3B 20 13 09
B8 FB 02 B4 18 F6 21 CF EE 0C 54 12 13 FB 03 33 DF 80 F6 07 0C 0A BC 05 D8 12 0D 14 0E 13 F1 B5 EA 2F 5B D9 E1 04 FC 03 A8 0B EE B8 FE B7 07 0D 9A DD DC D3 0E DD 0C 0C
F1 DE 13 E2 27 30 E0 01 E6 17 08 F8 F4 10 F8 0C FF 0E AC F6 D8 B6 21 F7 26 0A EA 01 D1 10 B4 17 B2 31 25 3A F4 0B EE 28 D9 F4 DE EA E8 2D 23 10 1B F5 03 03 E0 B0 D6 07
FB C5 D3 F7 0B 1C B9 41 07 E6 0F ED F5 2F F3 06 0B 0F B7 C3 22 D0 EE F1 17 33 2E EF 0B DB 37 06 21 E3 E2 0F E9 CC FE F0 04 F2 E7 F7 D5 FD 0C 09 1B 1C 18 E0 C9 0D F2 16
1A 07 EA FC 15 E5 07 EF E1 F9 EC 00 D5 A6 0A 16 2B 46 F2 0D 01 FF 0D 04 DD FE F2 F1 D1 1F FD ED F2 DB E7 E3 05 FF FB 2B E4 09 18 23 CD 0C EA EE EB E6 0B 26 1D 18 DB 0F
FC 10 E4 DC E0 DE EA F0 D6 06 F5 E3 BF EE E3 CA 04 E1 0E 01 D1 AB 0F FB 0A B9 12 0C EC F6 0B D6 13 21 10 EA F3 0D F0 CC E9 16 DF F6 03 E5 16 1B B0 F7 E8 FB EF 0D F0 F3
EF 04 13 1E 27 10 91 29 3A C1 D5 3D 4F 01 F9 C6 E6 13 DF DF 04 28 16 01 28 1C D6 EE 33 C3 1D 14 FB DA 12 EB F4 E2 F3 DE D1 BB CA F6 1B 21 35 DB E3 C8 E9 BA 25 D0 16 C7
2D B2 FA 15 AD F8 11 D2 DC F1 15 16 DF CD 2B CD DF EA 19 3A D0 CC FA FA AB 06 80 F8 47 0D E9 FD 0A D8 F6 0A 31 22 FE E3 F9 CE 04 EA B0 3A F9 FA E8 E9 C4 F1 EA E2 32 03
D5 29 FE B9 D1 DF 06 FA F7 EE DD FF 07 E8 02 F1 2B F8 EC 10 ED C7 0A 05 E9 A8 EA E0 FA F4 EF D1 E7 22 EE FE D6 0E F0 CD 07 10 F4 BB CC CB 16 46 D5 0F F1 E5 EC 04 1C E0
FD E1 34 E5 E1 F3 15 0F 10 F1 C2 25 F0 BF BE DF B6 2A 17 2B C6 04 28 04 EA 12 11 29 E8 EF 97 22 F9 11 34 E9 06 4F F5 04 1D F1 14 F9 DC E3 11 E9 0C 15 D9 FE 20 D5 E5 2C
08 E2 EB 08 CB 32 CB 27 19 25 F7 1F EE 1D 14 29 CD 06 04 D1 EA 0E 04 FB F9 E0 2E F7 D8 0F 0A 1E F6 BA 14 BF EF 24 03 1A 1E 16 07 1A F9 31 D6 F8 DF E4 FD F5 1A 13 EE F1
08 2B 37 05 F3 29 C1 F9 00 D0 E0 11 BA 06 C0 2E CA 09 1A 20 46 3E BD 07 12 16 EA 14 19 E4 1C FF 02 EA 3B F2 17 2E FE 3A 13 2E 15 F7 01 08 19 F4 EA 1A F2 3A 07 11 19 EF
0F F9 F0 06 FD D3 13 05 CB DB 05 C4 E4 06 E6 D9 E7 F2 DB 25 80 05 11 F6 B8 C3 8D F6 DF 03 E0 DD F9 E6 E5 D9 D6 14 05 F5 DB 17 FE EB BD B8 F4 C9 E0 FF 80 EB 29 B9 C8 01
13 16 EE C0 E9 F0 29 C0 0B FD EE C2 F6 28 21 D0 EA B3 03 0A AE 09 26 FF 12 E9 24 38 DF 1D 2B DE FA C8 E0 D6 D7 17 FD F1 0A E2 1E D9 E3 9E F2 13 03 0A F1 EA 08 12 00 D2
38 1D 2B 06 1B E5 EF E7 24 C7 82 58 1D DC 03 F3 C0 0A E3 F4 00 04 00 F1 10 FF DE 0A F1 E1 08 B0 E3 A9 4D D3 2E 14 05 1A CB CD F3 47 06 09 F4 D1 C6 E0 B4 10 F9 40 06 E7
08 50 B3 B7 10 12 13 F4 32 45 EE 0C 13 28 33 F0 28 E4 3C 2F F8 FD 08 02 CA 3A 0E 16 23 00 1A ED 1E E6 10 09 F4 20 02 CD D3 C1 18 06 45 D5 2E 3E 16 FD D8 2A 03 0B C3 F1
02 E8 EE F4 DD 18 21 13 10 05 E4 FF 19 0C F9 80 FE 3F 18 1C F8 21 08 0A E5 14 E8 EA 0B 21 03 0B 00 80 F7 F5 0A 26 FF F3 17 80 E9 15 F8 0D B2 EB 06 20 E3 F9 CA 30 11 34
12 ED E1 1C 03 29 01 FA F9 0E FD 0B 0B 28 DF F2 FD 02 0F F2 F5 0B EA 05 D3 2A CC E8 35 0E E4 11 24 08 27 FF 15 16 EF 0B 1A 82 15 12 E1 00 EA 32 DE 10 09 FE C9 09 21 F3
DC E2 C5 0F D7 1A B1 FF 27 1C 1E DD B3 DD 14 CC 2D 44 ED 0E 64 02 B4 F9 0B 0C BA EE 1D 19 03 03 02 80 3B D9 21 09 F7 11 B4 C9 FA E3 03 39 E8 D7 10 0A EE 08 D8 F9 0B 1C
F9 E3 CF E3 D1 D0 E6 12 EB 09 F2 09 F9 C5 C9 10 12 F2 EE 08 E6 09 F9 FD F6 F4 DC E6 FD 0A F2 1A F4 8D 0F F0 EB CC FF D8 DF 9A F0 B6 03 EA 06 16 15 F9 F0 EF D2 06 F0 01
03 F7 E0 0E 26 33 04 21 F6 2C D0 E0 04 1A 0F FF 0E BB 19 17 D5 0A 06 01 21 07 FF 1A FE 05 D0 F8 0A 0C FE 04 12 06 FF 25 12 1E 14 27 05 10 E2 EA E4 DF ED 0D B6 FA 17 E4
1F 1B C9 1B 1B 31 05 17 34 F1 F4 EE 1F 09 D0 02 FA 09 E6 19 06 E1 1D 06 BD E3 DC 1E 07 06 E7 DA FE E9 01 DF 0F DD 00 BB FD 80 01 06 CE 00 FE EB 18 21 18 24 C6 FF F6 FB
0E 1D E0 1C FD 04 9B 13 FE 12 24 0F 06 4F EF 17 C5 06 CC EE 10 CE FF 01 0E 01 3E E8 F9 0C F3 2E F3 F8 0B F5 EC 22 ED 0F 2B F9 06 10 E8 25 F5 06 9B F5 FE FE F8 F5 1E F7

F8 0B EA FD 0B 08 F0 FB 14 34 EA 07 DE 26 EF 03 02 F6 ED 07 DF 07 24 F7 25 E6 F3 EA 1F 29 EF 1B EF 1A 0B 06 FA F7 F7 E8 28 D0 22 ED 02 31 F3 E0 42 18 FC FB C2 FF 08 F0
06 D0 DD 05 2C 06 FF 0B 00 ED 11 C8 C4 B9 06 0F 07 1B F0 E9 F8 FD 06 EC C7 E6 CC 33 FD 23 D1 CE FC C9 12 10 F1 06 04 EF CE 1C 1C ED 0C F2 BA D9 FE F1 00 BA FD ED 00 BF
16 05 DB CD F7 1A 33 DC EE 17 29 2A F7 C7 04 11 F8 0A 18 E2 08 F9 06 F1 1C 98 0D 3D 14 09 D9 C6 05 22 1E 13 17 E6 F8 B6 0E A5 05 CF F8 04 04 FF D1 01 05 0D B7 C2 20 E7
F9 B1 1D D0 F7 28 9C FC 06 0E B2 E3 AB E4 C8 37 AE F2 FA E5 BF 32 F1 F7 0C 2C F9 06 1F EA 0E E1 11 A1 38 0F 24 26 F9 ED F3 27 E2 30 3C 0F 1F D0 09 CD D1 0F 27 0F F5 FD
80 0E 12 E5 EC D8 C2 29 21 EE 04 B7 DC ED 16 F6 01 E3 DB 1E 0E 15 25 F4 DB FB FB 10 29 DE DE E5 DF BA BA 0E D5 19 FF DC 06 E7 01 FD 33 12 FB CC F5 0F E1 20 DD E7 E6 FE
09 E9 1B DF 8A 88 FA 12 F4 2F 2E 02 DD EF F5 1A 17 F4 C4 0F 26 38 0F F3 FC 0A FC EC FE 12 80 FE CF 15 18 B0 10 03 FF 2B F0 21 1D F7 CC 12 0B FD FF 0B E1 DB 2C EB EE 0F
FA EE 1C EF 34 8C 2A 0A E5 F6 E2 D3 FE FD 12 C2 C4 1C FC D6 C7 D4 15 F4 F4 E0 D9 E5 13 FF B1 31 24 AE 3E CD F1 14 FE EA D8 10 C8 DB C3 1F F7 EC F7 F7 CA 00 F6 2E F3 04
EE EE 12 F3 02 0E DF 2D 38 B9 20 10 00 22 F8 11 13 F4 F3 CE E3 CB 04 FA 80 1F D3 30 BB FD C4 FF CA C7 80 D6 03 CC F9 F7 DE 91 D6 FD 2B 06 0B 02 00 EF F1 D6 F3 BA 1F EB
E5 E7 20 F1 F2 2E 8D F1 01 0F 22 27 15 23 F0 1E E4 07 06 E7 E0 D1 0E F9 1D EA C7 D3 14 EA 10 25 FE 80 D0 28 EC E3 F5 12 F7 DD FC 03 15 28 16 9E FF 0F 21 2F F2 CE 20 F3
D2 FC EA 1C 06 1B 03 FA CD 16 F5 EE FB E2 34 18 0F 14 19 F4 00 1E F2 F9 3F FC FD E4 EF FC 25 F3 1C E6 F9 3B EC 04 02 01 1A 1F F4 F5 06 D6 C1 1C 23 20 E3 0E 0A 12 18 C7
FD CB E9 0A 1D 06 19 08 E6 04 E0 10 0D 24 0E 0B E8 D7 05 E8 44 09 F1 F9 DE 09 18 B8 1D D8 0B 05 29 B7 0D 04 08 17 FB 04 2F BD 36 26 1C E2 CE 18 1B 01 15 09 B4 F6 0D F1
BF 25 15 27 2B 47 03 0F EE 0B 07 F1 26 13 A4 13 D4 22 17 10 FF 1A 14 08 F3 28 0E 0E FC 0D A3 A3 F5 E7 FE F0 E8 D7 06 0D 3B E5 0A AC 19 90 F3 15 F3 13 B6 F1 1C 19 1F D3
D2 CB F3 E2 08 AB 1E 0A E1 F4 CB C5 D5 8C DC E4 E3 D3 A1 C1 EA F7 E8 F4 F6 12 F8 12 11 CD C9 00 02 26 E4 10 FF E6 01 80 E2 05 AE EF 26 F8 06 E0 F9 DB EB 8B 1B B8 D2 0E
17 F3 DF CB 01 C5 F2 18 18 E7 F2 EF F4 EC F2 B0 EF 11 F3 F5 D8 CA 31 F3 B2 06 04 0B 08 F4 E9 B2 CC 80 F2 0D AB EA 00 99 B8 AC DB 21 2E 00 05 F7 0A F9 CE 1F EC E0 2C 02
1D FD 0A 2D 98 F7 26 08 02 EE DF F9 20 C8 06 ED 0E F7 13 E7 EC 21 CF FE DB CC CD CD F1 EE BF F3 E2 BD 0C 26 1E 04 00 0C E6 C2 F5 E5 FA E8 FF 1A 07 D3 DF 19 0F 07 12 06
FC 15 1D E9 27 14 26 06 1E CE D7 C6 D6 96 0A F1 FB C8 0E 07 1A 25 DC FD EB F7 CB 07 E8 F9 BE FA C4 37 F6 29 1A 24 F5 40 F4 1C C9 13 FA F3 0A FF FD 17 DB FF E9 2E 21 F5
FF DA 13 03 09 31 FC 26 C6 01 EA 06 19 F8 1F E7 F5 99 EF EA 02 1C 30 09 E1 EC 07 D7 1C 16 38 16 1E 97 E2 F7 1B 3A FA 20 34 1A 1B 0C 12 D9 EA 03 0E FE 32 09 06 08 EA 1D
0A E4 05 E2 1A CD 02 EF DD 01 1C 06 D9 1D FD 90 09 00 D3 FC 00 C5 E6 EF 04 E6 04 C5 EC FF F1 FD EE 45 D5 FE 0D F4 EB 03 F0 06 0A 06 F0 F4 21 F3 03 2E F5 F8 18 E7 C0 23
F5 E4 0E 0C F9 DC 06 E3 22 D0 0C 0F DA 91 4E D2 E9 F9 EC 15 C3 B8 18 FD C9 94 0C F1 EC 01 E5 D3 AC E7 D5 F0 DE FE FA DD F9 CA 0D EE 15 FA 0B FF 27 03 28 F6 16 17 07 EE
3C D7 09 E3 EE 09 4A 24 08 D3 14 EB 02 05 E6 F6 17 32 FB 05 E4 08 FA 0D D4 0A 17 EE F7 01 33 D5 0A 2B A5 0E 3B FB F4 FD 3D 80 FF 10 D3 21 AF CD 1D 27 16 42 0F DE FD 15
27 F0 23 DB 18 05 25 FF 01 E8 EA 9F 05 04 D0 D0 E9 D0 F4 F7 F8 0D EF F9 EE 04 D4 1B 0F E6 00 13 0B C3 E8 EB 19 0F F8 25 06 5C DE 1C 85 13 27 F1 01 EA 0F 08 F8 F8 E1 03
F8 01 DA 0E 29 20 D7 ED 0A F0 0B E0 08 E0 E7 16 B0 09 F8 E8 26 04 F0 03 16 BE FC 03 FD 16 00 59 E9 28 0A D9 A6 0D 03 9C BF 3D 04 B3 FD F2 0E B4 32 FA 16 09 1A C3 F2 1F
F0 1D 1C BC 23 0E 10 DD E2 21 F1 EC 0A 18 F9 DB F9 01 E7 D9 9A E7 12 FB F6 17 F4 14 64 F2 D9 CF F6 87 83 B2 01 0A 07 D9 F1 09 FD D4 E4 D5 D5 F6 FC 00 05 06 F2 FB C6 A3
BC D1 17 01 05 42 F1 0F 29 2B 01 06 E4 1E F5 0E 22 02 1B 12 1A 28 DF 04 2E 0D EB D4 D5 0D 04 25 27 F5 C9 FC 07 F5 FE F5 AD 29 F7 26 27 F6 22 2D 1B 20 F7 FD 23 D9 13 14
D9 02 1F 0E D7 0F 8A 15 24 D5 F0 FF 09 BD 14 02 FD FC F3 E0 18 DE AC F6 5D 20 04 25 E3 2A E4 FD F8 A3 19 02 ED 15 F3 D9 E4 D5 FE 05 2E DB 1F 12 F6 DB F5 C0 FA D1 07 E4
F2 FC 0F 02 1C F6 D6 F0 2C DD 16 21 1D 21 25 10 2A 05 DD DB D7 8A 27 09 AE F9 80 18 09 D6 E9 CA B9 80 8B 08 E4 D6 02 E2 09 80 E3 F6 F0 1F C3 E6 0B EC 25 F8 F9 EE 0C EF
2B E7 17 DD FE CB EE D4 1A DB F4 C8 F3 B8 AF FA AF BE 14 E6 05 9D 1B F3 0D F7 02 C5 39 09 CE DD 24 EE F8 F6 2C 00 00 F5 FB CC CF 07 C3 12 D5 FF 2B 01 E3 04 F8 E1 95 14
F4 CA 1D C6 2D E4 CC 20 F6 0F 0F C7 F4 EB 15 1C 37 30 D5 05 E8 34 FB 00 23 00 E5 33 F7 0B 12 E6 07 AD E0 E4 10 A3 F3 FB 05 08 DD 19 2A ED EB FB 16 0B E9 E6 54 22 0E 13
11 F4 FA E2 3A F9 30 22 FF ED E9 04 07 35 1A F2 21 01 04 1B 19 25 C8 06 17 F6 DB DF F0 FD 2C 08 E9 18 C5 19 22 03 F9 CB 19 F8 19 09 B3 EC F9 1C F6 04 05 01 0A F1 04 E4
FC EE F4 1A BB F6 0A ED D7 F9 EA F6 13 EE 0C 01 88 E8 BE 0D FA F8 1C FE 16 06 FF CC 0D 24 0F FA FC FB EB 20 AC BE 07 1C F2 F0 FE 03 F5 FE 16 06 DC DF ED CD 09 0F 07 EF
F6 03 F7 F2 C1 12 EF 2C C6 20 F5 28 00 BA F6 F9 E9 15 16 F9 DA 15 F8 02 22 EB 0C 09 09 21 16 DD E3 06 C6 28 1B 16 01 D9 D8 DF 0B F4 1A 1B 05 FA FC 07 15 18 26 11 07 20
17 06 FC E1 30 94 03 06 AF 02 21 23 0C 10 23 0C E5 F2 B0 2B FB CB 26 FB E6 ED E0 D6 0A 2C 08 2D 8F DE E4 15 E8 21 F6 08 1B FB 40 DF 88 FD 35 CA FB 08 25 EA 1E EB 80 F3
11 F4 07 AE 34 FA 10 FF 00 09 08 1A FA 17 C7 FC 11 F6 C6 01 FB 10 09 00 E2 07 F1 29 FA F5 FB EF BC 29 FC 1A F9 EB FD 1B 04 0A 03 B7 86 E9 BA F4 DE E3 01 EA 07 94 B6 F2
E6 02 27 E8 E8 D8 E9 1B F0 80 FB C3 11 80 E8 0C 02 02 D2 12 1B FF F0 FB 20 19 D9 F1 FB F0 E8 8E 05 04 9B 00 BA E3 01 00 F1 2C 0C 84 0F 0F EF 0A E1 04 36 80 20 08 15 07
CA 08 F0 D5 A2 0D 0F 0A EB 0C 42 01 45 D4 B2 17 BE F0 E4 0B E8 FA D6 FD 04 FC F3 E9 22 08 FA C3 0A 3D 4B CA F6 25 F8 CA E4 00 EB D7 E7 C4 FF F5 C9 1F D0 E8 0A CE F4 11
F1 E3 12 EE 16 21 F9 15 23 29 1C FF EA 10 08 C9 37 E7 E0 CF FE E7 EF F3 FB 0D F3 02 DA DB E5 0E CD 33 31 2F DD 0C ED 40 CB 0A 07 F6 F6 15 1B E0 13 08 0E 1B D1 93 14 BF
FC 02 FB DE F5 0A BB 03 07 F9 2C E5 21 25 1E F3 10 E2 D6 D8 1B EF EA F5 DF FF 34 FB EA F7 2D 10 06 D2 E5 F2 F8 12 05 F8 03 FF 03 07 E8 F5 30 FA 21 25 27 F7 06 0B 01 08
0C E9 EF DC FE FD E8 E5 F0 E5 F6 00 DC A0 FB 03 2D 4C 0C EE 1E 0F F1 05 F3 FE 1D DF 18 1E 29 0E F2 56 E3 21 FC 01 FF 28 FA E2 0A 19 D5 1A F5 F7 03 03 38 1F FB 1D D1 2E
F5 F9 E5 D7 D4 D2 F0 F3 E2 F3 D9 D3 C2 F4 ED 00 CC 02 E7 EB D6 AC F2 FF FE E0 03 F9 FF 11 16 DB 07 20 1C E8 09 FD EF DB DD FE DD F7 E0 D9 05 05 D6 09 D2 F0 03 16 CC 06
E5 E6 EA 05 20 10 AE 37 3C F7 E0 05 48 03 D1 B2 E8 2D DB 2B E6 14 F8 F5 08 16 F5 0C E2 E8 06 BF D6 C2 EF 24 EB 00 FA 02 D3 E0 FA 08 20 D6 1F E7 01 EE 1B B7 D5 D2 22 1F
2D E0 EC 24 ED 08 E5 E4 E2 D1 1F 1D DF BE 02 F9 F0 BF F9 D8 E2 D8 2C FB CE 0F C5 DF FC 05 E1 11 D3 D6 08 20 36 14 06 20 21 D7 10 FE A0 27 E1 0F FB FF E4 00 EC F1 2C FD
DE FE 05 F7 B3 C5 0E FF 0E 15 BC C2 ED DB 01 E4 CA DF B1 F1 1D 80 01 EC FD 02 07 10 08 F4 EC EF F4 EF 14 D9 08 09 F4 C6 20 13 E7 C3 E0 12 17 04 CC 1E 14 FA 0C FB 08 E3
E6 D1 F6 12 E5 EB 02 E0 E4 FB DB F0 E1 C9 19 0F E0 34 FC D0 CD DF FA FB E3 CC B0 22 2B 18 8F 2A 10 B7 1D D9 12 37 F9 1E D7 0A ED EC F8 22 D6 C0 04 07 E1 F3 33 FB F6 10
F9 E8 1B 02 F2 1A C4 FA F3 0D CB 19 D7 3D FB 0E C4 05 DE F2 EB 17 E0 05 CF 03 E9 08 E4 FC 23 2D 0A C4 2B A9 F0 13 FA 12 F4 0F F6 1D FF 22 EA EE FD D3 E6 E6 07 04 C0 E7
0C 00 1D 27 23 02 C5 0B FD BF 00 1C 01 EE C6 F9 E4 FD EC 08 03 1B BF 00 27 1A DD 0F 13 D8 F3 09 DE 10 30 18 10 11 F8 2A E4 12 02 F5 1E FC 39 26 E9 04 D9 1D 15 23 08 D9
03 FF F0 03 FC D3 EE 21 FF C2 F9 E1 D6 D2 D6 11 EA DF D2 0C C3 FE EA FA B0 D3 EA FB 03 F1 D5 F5 11 E8 FA CC B2 26 02 DF DF 0D F0 E8 CF E8 D6 B8 F7 00 F9 D3 08 B5 08 E6
1B 19 D9 A1 C4 0B F3 E3 F7 04 FA DB FF 22 FA E3 BC F1 DC 1D E9 A2 10 FE 3A 08 14 2D 0E 24 0D E1 01 CD E1 0A E6 13 F9 CD E7 F8 F1 D5 EF C5 F9 1A F3 05 BD DB 1A 08 04 D2
34 F6 0D D9 1D CD D4 E4 FE F5 11 0A 36 E5 00 E6 E5 28 E5 08 B3 D0 13 00 B7 2B E0 0E F2 E3 25 90 E1 D3 3F E8 F9 0C FE 39 F1 EF 04 28 DB D7 E4 02 07 BD 1B EC DE 30 0D 06
03 25 DF F1 06 09 FD DE F4 39 E6 CC 03 15 0F 09 C2 F6 13 23 F3 F1 4D 08 D6 F1 14 F1 25 11 1A FE 17 F2 21 E3 01 01 01 C0 A7 B3 03 F4 11 CE 1D 1F 0D 01 BE 23 18 10 CD 09
19 E6 B5 0F E3 14 31 BE 06 FC FF ED 14 12 F2 E0 F4 F3 1B F2 03 02 15 F9 EA 32 CF BE F7 05 F6 02 DD AA E3 DD 0C 01 F9 05 35 8C F5 04 FA F2 ED 09 09 19 02 FD A7 1E F5 11
25 E0 F8 05 18 0D ED 24 EC 18 09 0B ED 20 F0 04 FB E1 05 DD 04 1D 25 FC F4 EC BC 19 21 0A F6 00 0F 18 0A 23 0F 09 01 2E 3E A1 24 27 E2 01 05 1B 0C 26 F0 16 F3 E8 F3 DE
FD F5 03 08 D2 3E CD 00 48 07 32 B8 DA E4 11 D7 FB E8 F7 00 40 00 D4 EC EC 19 D3 E7 14 FB 0C 04 12 80 07 2B 08 EF F1 08 C7 D9 EA EB 2B 19 ED FB 19 0E FE 0F CD F3 02 12
EB E0 06 F9 D3 F3 E9 05 EB 00 F0 0B F6 BB E6 0A 06 FF 04 09 D6 1E 01 F6 DB 03 0E C7 FD E2 F2 0F FE BF FC D1 03 BF FE E0 D6 89 E3 CA 0A 10 CC F7 0D F0 E9 0C DD F3 EA E0
20 05 04 FA 02 35 F3 EA E5 20 ED E0 CA 37 15 16 0F 80 2A 22 C6 0A ED FF 0D D6 01 F5 30 F9 F7 2E F0 0C 10 DA 1E 00 F8 20 F8 F9 28 17 1B 1E FE 08 DC E0 CC EA DB FA 11 EA
16 F1 C9 F9 1A 19 09 FD 11 F0 00 D8 E6 CF F2 E1 FF 21 D9 0B DE B7 03 F0 F7 EA 11 45 2C 11 0E FD 0A EC 17 FD 04 D6 FB D1 05 94 04 F6 E1 02 E8 C8 04 FF E2 FE DB D0 F5 F2
08 0D FF F5 3B CE 92 1C 09 1B 0B 10 E5 55 08 FD DB 0E D4 0A 2B F9 EC FF 08 DB E8 B6 DC FF 0B 43 16 02 22 E8 00 1B F9 F1 1D CD F7 10 E9 38 03 16 98 05 EE FD 1A D4 0E FA

08 0D 0D 01 2B 10 31 FF 37 33 C4 17 13 36 E5 21 1B E7 F8 0E FA E1 29 F8 1A E7 FE FD CA 28 E9 E4 E3 ED 00 0C 0C 03 08 F5 19 E0 2D FF 03 0F F3 FA 08 20 F6 25 E1 16 FE E0
05 03 F7 14 32 04 EF 20 FB E4 02 F5 D8 EA 1C 14 F0 15 16 1C F1 0B 2E F0 C1 D5 1D 29 CA DD 00 E6 E3 AC 00 FD 17 1E 05 18 DA 43 1E 35 EA DE E5 D5 C8 D9 1A F6 DA F2 F9 B6
FD 14 08 22 EE 27 1C 3A DF 0F 2D EF F5 C6 2D 09 1B 0B 21 DA 1E E6 E3 FB 13 E5 F5 07 29 09 DC F5 25 24 2C BD 02 DD F3 9B EA 80 10 F2 0A 0C 2E 13 DC 02 03 F0 C4 F8 3C F4
00 E9 1E F1 FE 08 BC D2 EE 00 DE 2C B0 F5 F1 31 ED 02 F2 00 DC 1D F3 FB 20 12 C0 02 22 F4 12 F0 07 80 19 FD FB 28 F3 E3 0B 24 1A 26 4C 1E FF E5 15 F7 04 17 43 19 D5 E3
DC BC F4 0A 35 F7 29 12 3F DF D2 FF 1C 10 9C EB C8 EC FE F8 D5 EA E1 F6 D4 16 1F DF 24 11 10 02 B8 A9 98 2C DE 1E F6 E4 CD 91 D2 0F 14 22 08 FA E0 D2 0C D3 14 C8 FD 10
1D F3 EE C9 97 DE 17 09 CA 3E 25 16 E7 13 CF 22 15 1D 01 01 F4 18 0D FF 01 00 DD E8 07 D3 80 F5 B1 D6 2B CF FC 0F F2 17 DB 1E 15 12 06 07 04 24 0E DD FF D9 33 FA 09 FC
10 0A 23 04 FD B9 D9 0B 00 E9 D8 F5 F5 F1 92 E2 FA 18 1E C8 80 F8 19 F5 EE 0A 04 24 FD F0 BA 25 22 CB 32 98 DD 03 FF BB F4 DD 02 06 0B 19 13 D8 0F 04 03 1F F1 11 CC 25
E4 DD D8 F5 23 1E BD FB 2E A1 0B 09 DE 05 1B 06 E7 F4 27 DC DA D9 1E 00 C8 13 03 18 EE FC FD E6 F4 B7 80 C6 F3 E4 F9 F5 DB BC BD FF CE 38 05 2E F8 E1 C3 EC ED C9 10 BE
F4 FB 1F 09 E0 09 80 FE 0A 2C 23 1F 0C 1A F5 39 17 F5 22 E7 DA E5 19 F6 4C D3 D1 A5 FD FE 25 3B C3 A5 B9 08 1B EE F4 1E DC C5 17 1A 05 1C 10 EB 0F 06 1E 2B 2C ED 1C 05
DF 18 11 0D 0F 0D 16 F4 D2 00 1A C9 1C F6 25 20 DF F9 12 4A E6 12 DE F7 2A 10 2A 03 E9 D8 2B CE 1B D5 F9 2B C6 05 F5 F6 13 3F E1 FE F1 C0 02 03 FF 19 06 04 D3 E3 1C BB
0F EB E0 20 26 11 14 D9 F8 02 C4 0A 1E 30 F9 21 0E A0 29 E3 26 44 DD F7 E4 CA FB A8 F6 AE EA EE 23 EC 15 F0 F9 2D F9 FC 4F 9D 32 1E 13 EA E4 2D EE F6 1A 0A BB 0E 0D E9
DC 2F 33 2F 1F 3B 0E FB 03 11 06 1C 14 16 A3 45 33 EF 03 02 F4 24 1E 03 EC 2B FE 08 E6 DC D9 9F F7 E3 18 C6 FE D8 08 05 31 F3 12 D5 35 A2 2C F3 20 11 97 16 DE 0C 1C CD
DD D2 D9 D4 F9 95 1D EF F1 1C F4 FE AA 9A 26 BA D9 D8 80 03 B8 19 07 F7 C9 0E DE 13 FC F0 CC FD DF 13 92 03 D6 D0 00 C6 F4 11 BE 0B 08 C5 E6 E8 FD DC FC C0 1F BE C7 FB
20 01 36 10 EB B8 BE 0B 1D 06 AD 00 0B 1D C6 BA EB D9 E2 E3 E7 D9 DB FF DC C9 0C 17 03 C0 FF 17 CC 80 D6 40 CF C2 00 EF D4 FA 03 42 D7 00 11 23 1C EF 09 E6 B3 E6 37 25
03 BC CF D5 80 E5 1C 1A FB F8 F5 F5 E5 A8 CD 17 2B F0 10 1F 02 F5 0D 02 07 F4 D0 DF 04 09 F3 14 C8 9D 33 39 23 F8 F3 02 D7 D9 FD E4 2A F4 FF 1C FB E9 08 09 EE 03 F5 ED
F5 13 ED DE CB 0B 16 12 14 E4 03 F2 BB A3 E4 F1 FF C9 07 33 26 23 FB F6 FD 0B C4 0A FD DB F7 10 BF E3 06 11 18 29 05 4D FC 11 A5 16 FA 01 F2 F7 0B 0B DD 09 00 2B 2F EA
D1 EB DD 0F FF 1B 2A 04 FD 0B EC 22 15 FB 22 F9 01 A8 DD C0 01 0C 22 FE F6 02 26 C5 0D 32 2B 1C 17 A6 DE 03 15 36 F5 0A 19 0A 0F 16 31 EA 16 FD 0E 10 07 0C 19 19 EC F5
F8 D3 E2 BE FC EB 04 20 E8 07 1A 09 E3 17 F4 A9 F5 F5 E4 0D 03 E0 E9 FE F4 FD 19 CF E1 F7 E4 F2 F4 1E DE E6 20 FB E8 13 E2 D0 F8 02 E8 F3 F1 E9 EB 1E 04 F4 05 00 D8 12
0E E3 DB 1B 15 E6 BE 13 14 DD DC 1A F5 9F 01 FB 06 29 D0 19 EF D7 4E F6 D9 2A 03 F5 E5 E1 E6 1E BA 26 0B 26 19 10 F9 DF ED C9 C7 FF DA 03 DE 21 1D 0F B0 F6 98 F3 ED FF
27 00 10 FE F0 FC 54 DC 32 C9 1B F4 00 18 F5 FA F2 FB D9 00 0C 2E F5 0D 12 F3 C6 A6 FB 16 35 F0 07 35 E7 2B 42 1E FD E0 23 8C 02 FF FF 0A FA D7 F7 1B 2C 51 06 FF 16 EB
0C DB 3A 01 13 1F 3E 10 11 ED ED B2 1A 03 0B 06 E7 C5 F3 D8 15 FA DF F5 10 1B 15 27 E5 C4 0D DD 20 FD F8 EF 11 20 FF 1A 0F 42 F5 08 9A 0D 38 01 22 FE EC 0A 1D 1C C4 0C
EF E6 2D 01 1B 25 F8 1F 10 E0 F0 31 F3 D2 10 10 DB 08 03 F1 0E F7 C2 F6 0B C5 E6 F3 E8 3C 0B 7A FC EA EA E0 80 1B F9 F5 AE 4B 19 F3 09 B2 01 C3 22 04 DF E8 16 C0 2F 1B
12 FF 1F 15 34 E6 08 0C E3 FB F9 1C F8 38 A8 BF EC C1 EA 80 A2 23 36 FC EA 36 1C 0E EB B1 00 A8 F5 8C 85 E6 21 17 FC 02 D0 ED F4 C6 ED 36 E2 0E 00 E6 FA 04 F0 F3 EA BD
CF DF 27 CD 07 60 C9 DE 35 13 3F DD 29 F8 03 07 26 0E 26 2E 09 FF 03 FD 2E DE 1A D2 0C 27 ED 1E 31 D5 F1 F4 FD 0A 01 DD C3 11 C5 F7 33 14 06 28 13 35 08 F4 05 0F 24 35
E5 03 E0 DB DC 0C A7 B3 17 D1 EA 21 0D CC 0F C7 1E 0B 04 08 0E 12 F1 FC 31 19 09 22 18 17 F2 F8 FE B0 23 FC CE 0F F2 C3 E1 D1 04 20 2B FE FC FC D4 C4 09 BB BB DF F6 0A
FE 1C D9 1C 13 1B C2 BE 42 FF EF 18 14 E3 15 E6 41 00 EE CC DA A5 4D FF F6 D8 AB F4 1C D5 36 C8 B9 81 98 26 1E BB 01 F5 09 DD F3 3A F0 36 D6 D5 F4 AC 20 07 DA B0 F8 F1
FC E1 36 2D 11 01 1E FE 19 D6 EC CD 03 BE E6 0D B5 D7 0C 80 17 A2 F9 01 1E DA 5D E9 16 DA CA 22 2F D4 FC ED 16 04 F9 FC B9 C1 FF F0 1F 1C F6 06 2E 13 F5 06 C4 1B 16 FA
D2 D8 E6 09 36 FD 08 04 1B DD EF 04 F6 CF BB CD 05 2D E8 E9 F9 59 DB 02 21 1F F3 1B AA 1F F2 F7 04 AF CC 16 F4 DC F8 D2 D6 3E 98 E1 2F A8 21 04 37 DF CD E8 19 F1 EA FA
0C 00 F9 FE 32 FA F3 BB 09 E4 EB ED F5 21 F1 0F 1D FE E7 1E 10 13 F0 FF 1D 0C F3 CE F3 1D F7 00 AE 11 E0 F5 0B 1A FB F2 18 03 0E FF D9 D2 CF F4 B7 FE 28 F1 08 00 01 EF
EE 08 38 02 FB F5 10 05 D4 0E FD 15 F3 22 0F 14 80 FA E5 EC B1 03 11 00 00 1D 0C 02 EC DF 02 B5 F1 B9 F9 D2 CB 87 01 05 EE 16 37 FE 18 01 EE 02 D7 E6 F8 FC C4 DC 31 E7
0A 03 B8 00 D1 00 03 8E E4 16 C2 39 0B BB F7 C5 17 10 27 03 FD 24 1C FF 17 F8 F2 F9 07 D1 14 D3 E2 12 CF 05 10 25 F2 A0 E0 F1 22 E6 43 04 1B FD 04 0E 2D 1D C7 03 ED 15
FF 1B 24 1D 12 C8 09 22 E3 18 03 1E 07 D0 99 24 13 F1 CE EB D2 C4 0B EF B1 F2 E8 E9 F3 D2 EA 0D 88 11 F6 22 00 E6 F8 03 09 17 42 CF 02 F9 01 E5 03 FE 1F F6 02 D0 B6 EA
28 0A 0A DE 0D 07 21 B9 FE 02 09 34 FC 16 DD 0B 01 1C E6 14 0D 0E 0B F2 93 DD 1D 12 F9 A0 C9 DC CA 2D E4 FF E9 EF F6 DB 0F FC F0 E8 D4 C2 BB EC E0 CC 17 EF 1E 84 E7 06
F5 1A 30 C1 A1 EA FC 07 0E C8 0E ED 0F EA 0C BD F9 07 1E F8 E5 2A FA FD C8 42 D6 ED 0B 26 EB 80 E6 ED C2 D8 A4 F6 FE 8D FB 41 BE AD 0C 0B F0 F4 A7 E1 4E 80 EE 10 06 F0
9E 0F E6 09 AC C5 12 F9 E5 16 29 D0 40 9F C6 A9 A8 F1 80 F2 30 F7 EB F1 CC 18 EE 11 2C FD 35 D7 23 3B 56 80 ED 20 FA E2 E1 0A 00 EC 2E E4 FC F5 F0 37 FE F8 12 11 9F 0C
11 F7 03 17 0D 30 03 15 0E 1B 22 0C E6 E5 F5 C4 3A C0 F2 F6 3D E5 FD 02 F1 FD E1 09 E7 FC C2 11 E5 22 34 1E F1 11 F2 34 F0 16 14 16 A7 05 1F F7 0F 05 10 1D F3 E0 1F E3
F6 1E E3 A8 2A 19 BC BE 0A FB E5 E7 EC 2B 0C E8 0B 16 DD E6 00 15 EA F8 2A 16 40 DA D8 12 F2 15 F5 D8 EB D8 F4 40 F5 FC F4 B4 DF 02 EF FD 28 19 17 09 03 F2 03 10 FB 1C
F3 DB D9 1A F5 13 F4 D8 E6 EA 17 02 F5 B9 E3 07 1E 0C 03 D3 1C 0B EE 08 EB 02 E1 D8 21 0F 1C 27 EF 48 FA 2C 0C F6 06 0C 13 E3 0D 12 FD 19 05 F0 F5 11 34 1E 0A 1A D7 02
01 D2 B5 CE CF BE E2 F3 C2 12 1E DB C6 01 9C 04 DC FD CE D1 CE 9C EA 06 D5 FB C2 F9 04 FF FF D3 17 0C 29 EE 0E 1F F8 18 D7 F8 F2 01 01 C2 05 CF 07 1C EF F5 F3 0A FB D2
F6 EF 28 EE E1 2B C7 B0 47 E0 F3 F0 45 0D D7 E1 15 15 C8 42 E9 25 F4 00 34 FC FD FC A3 1E F4 0F D0 AB F8 18 E0 EC 04 36 FF D7 F1 18 FE AF 38 14 FF 11 1C F1 09 C7 2A 15
0E 04 ED 56 DE 02 F8 0C 02 DF 06 2D 1D C2 BD 25 FC C9 F7 C0 D3 EC 0E 04 FB E1 C5 01 C6 E1 C5 B9 C8 E0 28 F3 2A 1D FA 0F 10 25 39 2A D9 F8 E0 EC F5 F0 03 26 3E F1 FA E8
FE F6 07 0D DF E2 17 24 EE FB CB 11 0D CD E5 CA C0 08 A5 F1 EE 90 F6 07 E8 32 0F D9 0C DE FE C9 FB DD E5 E6 D8 0D 02 26 16 17 15 E7 24 E3 05 1D CE 16 06 13 13 DE 09 D2
06 C3 EC 44 F7 D0 16 44 F7 07 E7 B3 87 D7 18 EC DE DF DD D6 DB F2 E2 F5 BF F9 ED 27 3E 07 11 FA 36 CE 0A F5 39 18 F3 FF CC 15 11 1C FE 2D B3 E6 F7 18 9F FF DA E0 EE E3
03 E3 18 E0 EC 15 F3 FA FA 1D 19 18 EA 2E FF 1C ED DC F5 E3 F4 ED FD F5 E2 ED CD F7 EF F9 0B 34 FE E4 38 FE D6 1D FE 21 F1 F6 FB 0F FE 17 CD E4 14 CA 07 E9 24 30 C5 14
20 F2 A1 EC 2D FA FB 1C FB C2 FB 3C FD FC 80 0F F6 BE 03 01 BF F3 22 04 35 31 CB FF DE 10 08 07 CA AF F8 14 0A E1 F9 22 DF 36 1E 04 04 F3 24 12 FC DC 12 07 E6 2F FC CC
F5 01 42 05 08 E8 F7 15 C4 DF E3 C5 E9 DC 00 19 AC F0 13 E6 C3 EB CE F6 B9 FC 3D FF 07 EC CC D5 15 F1 08 09 C6 F8 FA DB F2 E7 0A E4 DB 04 FF 90 C8 F5 B1 C6 E0 B8 2B AA
1B 2D EA F2 E1 0B 20 B0 ED F8 10 CB 06 14 FE CD DA E9 CB 14 F0 CF 14 02 1E F2 08 DF F9 16 0D F0 0C AE 04 B1 B8 1A 01 0E 14 05 1A DB 28 DB 3B 32 FC 12 08 0C 0E 08 06 CD
30 F9 0E DA 26 08 E8 8B FF 09 11 E7 29 34 B7 E3 FD FF DA 54 80 20 03 09 D6 0E E4 FA EE E8 09 32 1B F3 25 28 FD E6 02 38 F3 05 1F 09 D0 E5 C7 36 14 C9 18 0C 95 20 1B 1E
0F FB D3 36 32 0B 13 03 21 2C 05 FD F3 08 2B 00 F0 F1 EA C3 0F B7 23 03 DF 25 31 F6 18 D1 F7 E0 08 D6 03 17 F9 01 FE C1 BC D4 1D E2 37 EF EC 14 15 11 16 18 03 F9 F0 F8
18 F5 CB 12 08 09 3E AF 36 FF E7 E6 19 25 EB 12 FE 16 45 F5 16 FC 26 04 DA 17 E1 F6 0E CB FF DC EB 03 F1 D7 1E F6 F4 06 10 B1 14 EC 46 0B F0 24 0B 1B D4 0F E8 2C 3B EA
26 E8 F4 ED 42 F8 F6 E1 FF 0E E6 31 17 28 ED 45 0A DC 07 F2 0D 25 12 FE EF CD D4 E9 E9 F1 D4 E6 C7 04 F4 14 13 0E 03 16 1A 9D 17 2C 1B 01 F5 D3 E0 18 09 2E 3F 18 F7 F7
08 F6 E1 E8 DA 27 DE DF 31 F9 46 D6 02 11 21 D2 2D D2 F5 CC 1C D5 F3 F5 1D F8 D8 18 CD 30 03 00 00 80 EA 2D 18 E8 F2 0C 03 FE FC EB 1F 00 17 44 FD 18 0C 07 1F ED 03 FE
DB E7 DE E5 DE 07 EF F5 EB 0A F7 01 05 B0 F1 E0 FE FD 0B 17 D4 26 0F FD DD F3 F8 E4 DD E3 00 0B 0D E2 06 0F F6 E6 F9 BE FD AE E8 D6 05 1C 00 0D 10 0C D0 F8 0E FD 0B F2
F7 F2 2A D4 1B 17 DA CC 00 17 D1 FF DF 3E E9 42 E6 A6 2E 0B CF 22 EE 0C EC EA 05 E1 36 11 CE 3B E7 E1 19 E3 FF 15 F7 1D DE D3 15 0A 09 41 26 17 D2 F7 AB FD 10 0B 0D 07
32 DE 0A E3 22 13 EC 1E 1E F7 F2 E7 FE 0A FF EE 07 FF F2 F6 E2 DA E6 FD D0 D6 02 0E 27 04 12 EF 16 DE 0D CF 0F C7 F7 BF 30 85 06 FD FA 11 CC D1 03 FC E3 1F EA 02 F9 ED
26 F4 04 BD 51 F9 86 DF FA 01 FF F6 19 70 FA F6 18 04 0F FF 1F 1A 15 F9 15 D5 D0 E5 FB 08 D4 3D 07 25 1D 96 0E 2E F1 E8 30 EB F8 27 EF 3D EE 1E D2 16 F7 E5 0E F3 0B 19


03 0F 1B F1 F4 F0 C4 21 E0 17 EC F2 E3 C8 0D 1F DD BD ED EF 14 1D 03 01 E6 E0 E6 D3 07 13 0C 28 D1 26 E3 27 EC D0 03 FD E8 04 F6 FE D9 33 25 15 FC F7 06 2B EA 16 F9 02
1F E8 E8 F2 CE F7 CA 1A 01 11 08 02 EA FB FB 0E 07 17 2A 25 EC 02 EB F7 F2 F1 ED C1 2D F1 FB E3 F1 ED 0A 1A F6 AD F6 EB ED F4 F4 D7 F7 0F 23 DC B5 0C D7 18 A3 1E F4 16
12 08 0C E5 FD 12 E1 04 F2 F4 10 20 34 B2 DD 2F E9 D0 F5 0D BA 1A 28 08 39 33 D3 17 D5 15 EA CB E6 11 EB 06 F6 2D FF F6 03 35 1A E5 A1 FE 32 F2 9F CB 05 F5 F1 BF EB CD
F8 0D 3B FD 1C E5 08 30 1F 29 FF FC C4 23 08 23 2E 03 EC F7 EC 20 1A F4 EA 80 0B 02 0E E9 EB E2 FE F7 FB 00 E8 EF FF 01 F6 EF FF 06 F3 0C 11 31 34 12 CB E8 04 15 18 24
B0 D0 06 F3 F6 EE FD F0 09 03 0B CF 02 2E 1A 20 F4 0E E2 08 33 25 98 FB BC 47 F9 C0 D1 FF C1 12 2E 3D E5 05 EA EA F5 FB FE 1B 12 BE F3 27 07 FF F5 F0 F5 9F 92 10 1E 18
F3 1C 0E 1E DA 09 0D 05 EA 05 1B 08 D7 EE 07 04 10 F9 C8 F6 01 2F FE F7 FF 08 F6 14 F9 23 C4 D1 FA 16 E0 F2 23 10 F3 F0 04 09 FD FC 3D 01 EB 11 A3 D2 E8 E2 F3 E7 07 FC
D5 D4 F6 FC F1 C8 F6 C0 10 1F 18 F3 04 17 19 EE 0A E6 28 FA 1D E0 D7 F4 1F 05 E8 19 F3 D5 03 02 0F 13 41 07 11 C1 06 DD BE 09 F0 EA D9 DC F1 0B ED F5 06 F8 04 E1 E3 EC
17 04 FD DC 35 18 C3 0B E3 EA F3 FC EE 13 FF 2F EF DC 00 ED 29 0D DC 03 C4 E9 1E E9 EC EC FF 01 0B F2 F0 E6 2A D6 FB 16 FC FE 1C 10 0F 16 08 FB 1A 10 E5 02 F0 F4 2C 36
AF FF 06 16 F4 E2 0E DC F2 07 0E 04 F7 33 0B FF E3 EF B4 2B F6 E0 FD F5 0A FB EC 12 02 25 00 28 CD D5 DC FE 1F 1B FF 17 1A 06 06 27 0D 2E DE EB 09 CD 0B F6 C4 F2 FD 0E
0D FC C6 0B FC 10 F0 1E F0 00 36 1A 07 00 E4 2D FA 44 29 F2 D7 FF F7 EF EA EC E1 FE EE EB 03 11 16 DE F7 13 D2 F1 04 0E 37 A8 D9 DD DE FC E1 DE 0C 31 14 01 11 0D 04 E3
19 FA 07 17 E6 FE 03 BE EF 08 EE 06 14 0E F7 09 47 F9 E5 C5 42 F0 FF FC 27 EC E4 DD 29 FD E2 F9 E4 B9 06 10 FA F8 F5 0B ED 30 05 2E F0 0A 1C 02 CE E0 1A F3 FC 01 D4 CC
0A 22 92 CD 1D E2 09 04 F1 F5 06 0F F6 08 CC F5 E9 DB 08 3F 0E 34 E6 FC EA 17 F1 02 B4 02 03 C7 C9 14 F1 F3 4E ED F1 17 12 F3 0B 8E F0 FD 0A 2B EB EB BD 04 18 14 F4 F4
F3 D2 30 D5 E7 F3 07 11 F2 E1 03 B8 EB EB E6 FF DD 04 FB D5 11 15 B1 F3 05 C8 1A F2 04 C6 E1 FC C3 19 E3 FE DC E8 07 80 F8 0D DC B1 E0 0C F1 F5 E2 DD 0C B1 0D FA 45 05
BA 90 F8 E2 1B AF 14 C0 1F D4 FD FD 14 FF F3 06 EB 1C CD ED D7 D9 FF F7 EA 0B 0D 1A CE CE DF 02 C0 29 DF 08 2A 2A F7 EB DA CE AE AD 1D CC FC FD 0F CF F3 01 06 06 F0 0C
1F 2C 0B 16 E5 19 FF 1D 15 07 D6 0C 08 0F 13 FF 0B D8 F6 1F F2 00 CB F0 F0 04 05 F1 02 EF DC DF 22 25 F6 D7 11 15 F0 FD 03 F1 0B F8 EE F5 F9 04 F4 F8 04 10 F9 B1 21 01
01 27 1B 13 17 F7 03 DD 0D DE 12 EE E1 19 FE 03 C7 E7 DE 04 B2 09 EF 06 CE DB 26 1C 09 E9 0B 0E E7 F2 0F 20 26 03 09 41 1F EB E1 F0 06 FE 00 0B F6 E6 03 E0 10 EF 1C 12
EE 16 0A C1 FA F9 20 F1 EC 28 FB 32 D1 F2 F5 E3 ED FC FA 13 CE 03 2C 0C C2 19 EE 2B 1A E1 F1 09 03 A9 21 D7 2D 29 04 20 2A E8 D1 13 1C FC BC FF 0E ED 09 F4 0A EF 0E 1C
0D 08 0E 15 E0 E6 0A 0C F0 0A B6 F5 AF 0D ED EF 0D 3F D4 0A F6 E6 B8 F1 E7 E4 1F C8 F3 05 CA 0F D6 F6 00 F6 05 FE FD CD F1 1A E9 10 DB 14 06 EB ED EA 01 12 E1 F5 08 0C
D3 1E 1D FD EC 10 09 C5 FE 17 0E FF E9 F6 2C 33 F1 F9 00 E2 F3 E9 1A F8 DF 80 EF D5 00 CB 17 2D FF 15 E8 04 FA FD FB 03 0F 0F 2C CF 1E 23 08 EB E9 0C D9 10 26 CD 13 C9
3C FB F3 EA 0F 0C 0F 1F FC D1 15 E2 0E 1E C4 08 FB 10 2A C9 01 26 F3 04 DB 18 5D 06 F5 E4 48 E7 36 DC D7 19 28 E7 F9 07 25 F7 F0 F8 2E 37 CA 07 CD 06 0B E8 20 11 14 28
E5 A9 CA FB 3B 1D EE FC 1C FC EF E9 10 3F 04 E0 FD D9 22 18 09 E2 FD FE CD D7 B4 EF EA EB 09 D8 24 0C F9 F6 02 E0 03 0E 19 FC 10 0A CF 0D F2 F7 00 1D FE E7 0A 01 FC 06
DE 05 E9 E4 09 C2 E7 EA FC E2 03 DF E2 E3 13 17 FD F5 FF EF 18 FF F4 F7 E6 D0 F7 E1 E0 0D BA B3 F8 EA 14 19 34 F0 F9 FB E2 C5 F9 C3 80 F2 E1 07 0D 02 FC 0B DD 0F E4 F7
D9 E5 D0 E0 17 07 D2 F4 DF 26 0D CC 0C 0F 30 FD E7 E2 D1 FC DE 12 DE F7 0A 25 E9 E7 E5 1D 14 F9 E7 1D A9 AF EF EC F2 C1 22 D6 FD EF DC E1 E0 13 FE 0F ED C9 16 EB DA E5
F7 1B F0 2A 28 02 56 2C 12 0F 19 0B 31 2A F5 FD 0C 37 FF 0A 20 03 F2 01 13 22 C8 12 01 28 0B 11 10 07 1F ED C2 00 01 19 F2 0D 29 FF E3 08 18 1A 2D 15 15 E5 C8 F5 1D F7
04 D2 09 19 FA D4 CC FC 0E C1 12 15 27 F1 F1 15 E0 D0 D7 C5 04 07 DF F7 E8 1E D7 24 0F EC 0C DF 28 D4 FA F8 E7 B4 FA C1 06 2A FC E8 D9 FD F8 F9 E3 06 DC F0 BC D8 0F ED
F2 D2 E6 11 49 FE D3 CC FF F0 E1 1B FE DA 25 0C 02 DB F8 E2 1A C6 A4 F9 A7 01 DE FD BF EE 17 D0 F4 25 D5 15 FF D9 EF 13 BB 17 12 E3 27 0E 0A DC 02 E5 F5 DB F3 08 F4 0A
01 F0 0B 80 EC B3 02 C0 24 FE 23 F7 08 EE 04 C2 12 17 05 37 E4 DD 11 F3 CE 1F 19 EB DB 0E F2 A1 1B EC FD D6 D0 E3 FD 16 DE A9 E0 10 E0 EA BA 3D F9 F5 C2 04 2A D9 C7 EC
F2 0F 0C 13 0C BD EA E7 11 D7 47 07 13 27 33 15 3F 34 00 E5 17 0A 03 01 F5 21 0D 35 FE 05 24 F6 F0 F9 02 D5 1C 8F F7 1E D3 02 09 EF 16 0D D2 F4 33 1A F7 C7 F5 E6 05 18
09 19 F5 17 19 2F 17 25 02 EF EE 07 27 24 DD E5 22 13 F9 EF FF 24 08 01 EF C4 BB EF C2 E8 FC EF 06 F3 BA 04 02 13 05 10 05 25 FE 17 33 0F F9 FC B8 ED 0F F8 1E EB 2E B8
1B 36 BB B8 1C 20 FF 1C EC EF 08 E9 31 EA 0A B6 EF 0B F7 F9 ED CE 16 04 25 F2 E9 E0 05 07 F6 2B FE 1C 06 CE DC CF FD F0 16 E2 D4 0D E8 E4 EE 27 09 0B F6 E4 11 0E F3 07
05 F0 F3 2A C6 1A 15 E6 ED E0 14 20 21 07 05 24 FA 0F 3E FB FB 0D F1 F9 E3 E9 14 DF EA 21 1E 1D CE FD 00 C7 00 D7 02 B9 D8 12 F7 F8 1F 2C EA 29 DF F5 F4 C0 05 03 E4 21
02 18 0D 99 09 C5 C0 C2 E7 02 07 FD EA F1 14 F0 F6 F5 0C 1E DD 0F DD FD DF 03 E4 10 0B 1A DA D9 EA FF AD 14 F1 D8 F2 F4 FC 0F FB D7 D7 FE FF C8 C5 C6 01 08 0E EF BA 0D
F4 20 11 C2 D7 19 00 34 55 FB FD FD 0E FF F1 E3 1A FD DD 1D EA 2D F7 01 21 1C B2 32 06 42 80 16 A8 09 D0 00 F3 DF 06 F3 D7 09 EE 96 15 E7 E9 21 CD A4 D7 D1 F1 DF E5 EF
EE D1 0D FD 09 13 1F 01 13 41 0C FE 0B 0D DA 1F E3 FE F2 F2 87 2B B1 04 A8 FF 35 E0 EE BC 2A F4 F2 17 18 B4 EB 09 F5 04 17 01 22 D9 B6 CF DA 12 F2 E9 FD C9 06 1E 1E 02
DC D4 17 DE 43 C0 F9 0D E9 E5 0B 0E 0E 48 33 19 E1 BB 3A E9 09 19 98 FA 06 10 1A 14 E6 FE 27 A6 DD F0 02 FD CB F1 04 BF 80 06 0B C8 E4 F0 FF F6 CC EA E6 F3 06 BA 22 0B
09 F9 12 11 E0 F5 D2 0B DB F9 1E FB EB EA 16 29 06 1E BA 06 04 DD DF F3 17 EC 05 E4 B1 FE EB F4 DF E7 EC 13 1C 10 FD 28 E8 17 08 EE D7 1C 20 21 0B FF 16 F7 F0 FF D5 1F
F9 E1 FD FA A5 F5 27 3E 0B 07 10 EF F4 BE DA 02 0E 0B B4 C2 18 F4 1B FE F9 16 3C F3 3D 94 DF 18 24 E8 26 12 FA E8 FC F1 29 E1 D3 E4 CF E9 F4 E6 13 FC 0A F7 CD 23 E2 16
0A 34 EF F1 22 01 1D F7 F1 00 D6 06 D8 F9 F6 09 FC ED 05 13 F1 FB 07 03 0A EA EF 03 D7 06 03 C2 10 28 D2 09 F5 0B FD 3F F0 1C 23 23 17 FE F6 08 D2 D0 0D 1C DC 0F 17 11
18 05 03 E1 E4 9B 08 FF ED F8 EB F4 F8 E7 06 E4 DE D6 20 15 F1 93 0E EE 05 C1 1A 0C B5 FB 02 03 06 E1 BA 04 DD E2 F9 80 D4 0C F9 07 EE F9 17 06 DF E9 FE F3 EF FD FB FF
D4 16 EA 0B FC FE 08 2D 15 B6 F6 04 1A 25 EE BF E8 15 0B C1 27 FA EF F4 1B 16 1D 06 1B D5 1B 04 08 26 0F FB EB D7 07 04 E2 E6 F9 C6 FC 16 F8 E7 F7 09 F3 CD 07 01 05 DB
F5 0F E3 01 D1 03 07 D4 05 E8 2B F8 C7 F8 1A 0F E3 FE 26 33 DA D5 10 F7 CC FF E5 0F 14 21 12 EB 23 19 DC F3 09 FB FF F4 07 E8 CD C7 B2 3A 01 E7 FD 1E ED EE F6 06 E5 08
0C F6 FC BB F8 BA D9 34 DF C3 B4 F2 F3 F6 17 EB 29 0A 24 FB EC CA DA E9 08 B1 F0 CA F3 09 18 D4 0D E2 D0 E4 FD C8 FD AF 03 E6 DB DB B9 FC 0D FC FA FA DA D8 F5 09 F5 D3
FE 00 1A CD 01 D0 F6 FC F4 DB E3 F2 10 0D D7 F0 F8 10 10 18 DB 02 07 F0 21 EA 11 08 DF 13 D6 F3 15 B9 11 F2 F6 14 F3 F0 1F 04 08 D9 03 11 47 07 0A F8 D6 CE 05 05 EC 33
19 16 FA FC 04 0F D4 E1 2C DC 1E 11 17 FC 08 10 29 0E 04 EC F6 1C F6 FA F6 13 12 C7 FA 07 F7 D4 C5 72 D7 B6 DB 08 F2 0B D7 17 0B 09 E1 02 25 09 06 0C EE F0 04 F9 1F 14
E8 21 32 20 FD 19 C4 FF FA FD 11 F2 A0 17 EC 08 C3 05 08 0F 09 17 12 02 28 FA 2D 23 E5 F1 12 14 F7 E4 13 E1 08 0E 03 35 22 04 07 FD C5 1E EE F2 DD 21 E7 1D E5 F3 0D 0E
10 05 06 96 F7 DE 0F 10 CB EC E5 CE E2 EC 06 02 1B EE FC ED D6 E8 1C FE F8 80 03 E4 F9 E6 02 C6 F6 1A E7 C4 00 03 04 E2 FD 2E D9 E4 DF F3 E4 F5 10 02 CE 02 2D D2 AA FF
03 05 13 EB 0C 00 2C 09 FD E2 E5 E6 05 0D 26 94 FE 13 05 F0 EF 2A D4 01 0D C3 EA 26 B5 2C 0E 0A 07 EA 17 0D 03 E8 FB 1A FE C5 E5 DE F2 8E 05 EF 19 37 16 E4 29 17 F4 CF
33 1E 06 0E 07 FD 0B 03 2A F8 E3 09 1C 24 ED 1B DB F9 D8 CB 17 E4 04 00 20 F9 F5 15 E9 F6 DE D8 E3 0B F6 FF 31 14 FB 14 03 11 31 08 10 F1 CD E2 EA 0B D8 EF D8 0F 06 FE
23 1D C4 F6 06 E5 1D 0B 1D 30 FC 12 3E FC 26 EA 2B F9 32 0E 25 F3 11 05 03 2E D2 FD E8 48 01 CF 02 16 06 F9 F4 00 05 CD 0F EF 0A CA 32 D7 54 33 0A 0A 80 10 F2 EF C8 2B
EA F2 06 02 BF 11 02 40 D9 14 F9 13 01 F5 06 E8 15 CA FB FA 01 23 E8 F1 E2 E3 DC F2 EA 0D EA EA F7 D7 FF 01 10 10 F2 F9 16 BA 09 29 1F 0A C3 F1 E1 F7 0F F1 E7 11 0F F3
DA FC 0B 11 D7 11 E2 22 02 0D FF 0C 2A 80 F9 F8 1E F7 E2 FC 0B 0E FF E9 CD 2E F5 F9 FF 0D 11 F5 0B 18 26 E2 FC 14 F3 FC EB C7 FE D6 0F 0A EC 03 E5 1F 2A 07 17 15 01 FC
F9 9F DE E1 97 04 F0 DD FD F1 27 F3 F4 E6 F8 FC 01 40 0F DF 22 00 DE F4 E5 EE CD 30 08 07 24 1B F4 D3 26 06 0C FF F6 1D CB BA 02 18 11 0B 04 FA 23 00 E0 1C 18 FC FF 2E
05 A7 FF F6 CC F3 E5 12 FF 09 FF F6 FD B5 EC 0A 20 DF 0E E3 02 05 F2 06 CC F9 C4 CB F1 F4 EE 22 EE 0D 1A DF C0 C0 FC F6 C5 EB 14 E4 0D E4 FE 33 15 D6 0B EF 0F DA 09 FA
E2 0F 00 14 34 03 E0 13 FC 1C DE 1B E0 D3 FB E3 1B 90 E5 1A E0 06 08 F9 E3 12 DA 05 10 01 09 F6 08 E4 DA 0F 04 0C FB 1F F4 32 F8 05 E2 07 1F 0A 08 BB EB ED E8 00 21 BA
03 10 D4 18 D8 02 FE 20 02 EA E5 F9 F5 EB 04 12 0D FC E1 19 16 10 17 FF DB CB EC F1 E7 F0 EF DD 07 E1 10 19 14 C9 FC E7 CF C8 EE CA F2 13 0A EE B1 14 28 22 0C 16 E8 24
F0 30 EB 2A F8 01 E9 E9 E7 FC 09 01 1D 0F E6 10 E4 10 06 D7 0E FB 12 F6 D3 F5 3A 13 EC FB C3 23 14 2E 16 0C 00 10 F6 D0 0D 14 E6 13 E0 0E F8 DA A9 D4 07 15 14 E5 17 01

EB 00 22 12 F1 EC D1 18 C1 14 F6 06 D5 C3 0F 01 CA EC E1 DC EB 25 07 00 0E DC D8 E2 FE 3D 0A 29 EE 38 F9 FE CE D4 F6 F3 E8 06 F9 F1 F3 17 2D E4 1A F1 DD 03 D8 FD 08 D6
03 EF B3 FD 0F F4 DA 05 E4 F1 11 E6 F0 EF 09 01 EA FA 0A 0D CC 03 01 F3 0F F3 ED E7 14 FC 12 ED E5 F3 F3 FD D4 D0 FE F2 E6 0E F3 CA F4 04 E2 D6 C7 F5 F3 D8 DF F4 F8 D4
F5 E0 0A E0 C0 07 F2 FB 02 E9 39 07 F8 C1 F4 22 01 E6 28 E1 B4 F5 13 F6 19 D0 FE F4 FC E7 11 F2 04 1B FD 0D 05 0B F3 FD 07 E2 E7 DE EA 06 16 E8 E4 E4 FA D1 E5 F3 09 C0
F4 D6 14 DF 1C 07 FD 30 16 0F E8 DE C8 10 80 37 09 3D AB 0C 11 10 03 00 F3 0C DC F6 07 F2 F8 B3 04 E6 09 F2 D4 FD FD 18 F9 FD F0 09 E5 F6 0E 1B 25 06 CA D8 03 02 C8 16
B2 0C 0A DA E1 E0 AE 29 ED EF 18 B9 EB 14 00 03 F9 DE F4 12 1F 0E E1 F5 B1 F8 FB 11 DC DF E9 FD 00 11 E1 EC EC E4 FD E9 02 03 FD D8 08 10 0C 05 02 E0 B6 F1 C6 0A 01 0A
E0 D8 06 F6 B8 DA 0D 09 05 EE F7 F0 02 E4 FD 05 FB EB C7 E8 12 2F E4 F7 04 F0 05 0B F0 17 BF E3 F1 FB E6 02 12 03 F0 F5 1C 0A DF F3 34 16 EE FD CF C8 F5 EC 03 F8 00 05
01 F6 F8 FB FE C0 1B FB EF 12 EF F8 1F 07 2A E5 12 02 FC E5 19 06 E7 EC FE F2 EC DE 07 EA F1 0F 11 14 32 ED CA F9 F6 D6 F2 39 BF 15 FD E0 07 FF F4 F8 1A F2 02 F5 F9 01
FA FB 0E 0C 0F 0A D1 06 08 C7 11 F4 E3 00 17 13 14 F8 22 F3 06 ED FF 04 BF 08 9D 22 F3 00 E3 FE 18 10 D9 DF 05 E5 FC 22 E4 0A FF EC 23 FA 0B 1D EC F4 E3 B2 FB 01 18 FB
A1 F0 27 FE 0A FE 26 C0 0C 03 17 13 0B 22 01 13 07 FF FA F6 13 E3 E9 01 EB F7 F9 09 E6 F4 F9 0D CB E5 C7 10 15 15 F4 F6 00 0B FE 11 15 19 FB E8 0C DC 0F 02 F6 01 24 FB
FC EB D9 04 10 1E F8 0F D6 EF 1B 1A 2A 09 EA 02 0E 4E 0F FF CF FB DF EB 19 0D F5 E2 0D E0 12 0C 02 D3 E4 19 D9 DD F3 16 1A 03 ED CF E4 F8 BD FE F4 34 1F 0E 03 04 1A DF
16 DD 0F 0F FF 03 07 E4 DB 0D CE 12 F4 F6 18 04 14 0E CD BC 3E E7 F8 F9 F7 F3 03 CC 15 D5 E5 E2 10 12 FE 1F 07 FF 02 22 03 29 02 1A 06 06 04 E6 F6 E4 3C 09 D2 F5 E9 FC
FE 17 DB D6 16 BC E4 F5 F3 04 1F E5 21 22 D5 18 DE C9 0F 22 09 09 E4 01 1C E2 EC F1 EB 00 0A FD 9E 1B E7 F6 1E AB EC 1A 04 FE 02 A0 F1 C3 F6 22 E0 13 B9 0B FA 0D EF 0B
E6 C0 F7 D8 E5 E3 F8 0E 03 E6 04 AE DD E1 E5 10 F6 FE EE D0 F2 13 AE 02 0A F8 05 0C 17 D0 DD E8 E2 14 F9 F0 DD E7 F8 89 FF FA D2 E1 CE EF FE D3 05 FC F3 CE 19 D2 17 FC
E6 B6 F9 E7 F5 CA FC E2 06 D7 F4 E6 FD 0E F6 EA 09 06 DF EE C8 C0 F8 F6 D3 12 F2 23 EB CF 07 A8 E2 E4 D8 F0 10 0C 02 C4 CE E2 B9 EC 00 CE B5 FF 06 F1 EE 02 AD F5 0E 1B
18 1A F0 25 EA 18 13 06 16 F7 E4 05 0C 20 ED 00 2C BE 03 24 D7 09 DF F1 E6 E3 E2 F5 04 00 F2 D9 EE 0D DF FB 1E E4 F6 DE 20 E7 10 F7 F3 F5 1F 0E EA ED E4 0D 09 DB 24 F6
FE 09 F8 17 1A 06 01 F7 18 06 F2 DB E0 21 FD E6 C9 0A 0E 2A D1 0C EB 01 D5 CC F5 25 0B 0A E3 F5 EC DA 35 03 15 07 01 39 FE FE D1 E9 00 12 F5 05 08 11 E9 14 00 04 0A F7
FA FC 1F E8 F2 18 00 13 DE 29 07 29 ED 00 EB F0 D5 C5 EB F8 E4 07 20 FB E8 E8 EF FF 15 ED 07 15 CB E2 06 F4 11 19 F5 13 26 E9 D7 16 39 FC D0 08 1F F5 D5 02 06 E4 0E 45
07 DC 0D F4 01 D5 05 E7 0C EF D3 F8 BE 22 F8 EB 03 1D 00 00 F8 F2 BE F7 D9 D8 1F B7 0D FC D9 01 E1 E8 E1 0B FE FA FB C3 08 08 EB 05 E8 EE 23 E3 F6 F4 0F FF F3 E3 D6 07
D6 17 FD 05 05 0E 02 E3 07 EA EC FE E3 D6 4B F0 0C 00 19 08 F2 CF E8 F8 F7 83 0E FB EE 0D F4 12 FD 1D E7 E7 F5 F9 FF 09 EB 07 13 FA 17 0F 0A 00 28 1E DD F5 51 F3 02 02
29 CC EE C0 04 1D 12 12 D2 D3 3A D3 11 0A ED 08 13 28 20 D4 D7 28 EA 07 ED 17 2D F3 E1 E9 51 ED 29 FA CD 03 19 EC F7 20 0A F5 F6 03 FC 33 DE E5 23 FB 0E 00 11 F6 08 F5
01 CD F4 01 09 0F E9 09 17 CB F9 CD 0F 2D EB D7 E8 8E 16 07 E9 09 CA 00 D3 FC 00 EA 22 EF 03 05 13 05 DB A2 1F CC F9 19 FD 14 1A 22 E3 D6 15 0A 27 11 0E 0D 0B D5 F4 0D
F4 F6 E9 02 F6 C5 E1 DA DC CE 10 D3 06 E0 D3 0B B5 FD D7 E7 FC F5 E0 F8 E5 DE DE 08 01 F1 BC 28 FE 16 06 F7 34 03 FC C2 E9 E3 EE D9 B2 EE ED DA 30 F6 D9 01 FE 01 EA 20
DB 33 23 01 04 F5 E1 D4 E2 10 12 11 16 30 00 DB EE D1 FC 9D C4 E6 DF F0 F7 E1 FB 05 1C 05 35 D6 DF 18 AA D4 FA E0 EB F8 F0 E0 FD F2 0D F5 C9 06 F2 07 18 D5 06 D2 C0 D5
F0 00 12 11 23 FF 2D 04 F3 04 0E EB F0 19 EF FB 05 FA 08 18 4C 03 BB FA 22 FB E0 FD DC 20 30 1D 05 F3 FD 14 06 DF FE 04 CA 30 27 10 04 F2 FF 33 F4 F9 D6 EE 00 E7 07 F8
0A FD F6 09 FE D7 DF FC F6 D8 01 DF 08 FD F9 F3 D8 E7 E9 FC E0 E7 EB FB 00 07 E0 22 0D FA 1D E0 26 DD CE 02 EE E8 F6 09 01 19 F6 FC D7 F4 F0 1F 02 EE DB C2 28 EF 18 D0
F3 0E E3 14 39 FA 04 D2 FB FF 08 1A F5 F2 0D E8 F5 D8 05 04 20 C0 E7 FE A1 1B D6 19 0C D1 0F CE D8 1E C7 FB 22 F1 F1 05 FF D0 03 08 F0 F9 D1 EE FE ED 1A E6 DC 05 07 E4
FF 00 0C E9 C0 AA E1 DC 06 E5 FF F8 1D E2 B7 E1 D9 FA 1A F4 F8 A6 23 F0 F4 CE 11 E5 06 F6 FE A2 1B E0 03 E4 E7 E4 FB 27 EE B5 D2 19 E9 FF CF F4 03 02 CC 0F 06 F9 C0 20
15 C1 1A 01 07 06 DE 23 FB 09 24 D8 04 34 16 10 1B 06 13 04 0A 18 F1 0A 1A 0D 2F 38 D9 F8 21 1A C9 D2 CE DE 14 C2 00 04 20 0D 30 FA 1A 32 DC E6 27 0A F4 D7 25 D3 14 0C
09 12 27 E7 20 11 F3 28 E0 FC F1 15 1C 0B F7 F4 26 27 0F EB 03 22 FE 01 0E DA A5 F1 D9 E9 07 CF F8 E0 C9 20 FA 00 03 06 05 34 FE F3 E5 0E ED D9 E5 F3 EA 04 F7 E0 13 D3
F4 37 D7 DA EC 2D 07 0D DF E9 12 DA 1B EF FB E9 D7 F4 E5 C2 FD E4 FB F4 41 05 F9 E8 03 23 E5 25 F8 24 F9 C0 D3 F5 04 DF 0B E6 C7 00 E7 F0 F0 D0 EE FC 08 E7 F9 FC D0 EA
02 06 F9 33 C5 14 15 40 12 D6 F4 09 19 F0 F4 00 F9 1F 40 11 EC FD 0C 00 02 E6 23 08 F0 14 29 F2 E5 17 19 DE 0C 08 04 D9 DE EB FB 0C 1A 27 FD F9 16 2B 2F FB 24 00 19 17
13 2B 0A DD 42 AD DA F0 DC F9 F5 F8 01 F0 11 0F F0 00 C2 DF 17 B6 F3 F7 F3 DD F6 DC 20 20 E5 F0 05 05 C9 10 FF 04 F7 DA FF F0 ED FA C9 F2 02 B7 E3 F6 1D 0D 27 12 80 FB
D7 1A 1D B5 0A F2 08 19 11 01 04 01 E7 01 D8 05 02 1A E4 0F FA 1D FA F6 FD 0C E4 1A F9 2D 97 21 C6 F9 03 15 C8 D8 0A F2 F9 04 DC B5 DF 00 B5 B0 D8 88 F8 AF 0A D6 AF D3
D8 F1 21 F0 F6 27 FD 13 F3 B0 F5 C0 DB C2 E3 EA E7 F3 18 ED E5 D9 C3 FF A5 F8 FC F4 10 C2 0D DA 21 1A D7 FB BF E1 00 1D 00 F8 F1 D5 FC F9 E3 F0 CF 2D 11 FC E6 F8 08 08
E1 EB F5 BF 13 10 DC 0D 1A D9 C7 EE 3A 16 E1 2B 9C D3 42 04 EB D1 BC FA 03 F4 01 FF F3 01 01 E7 FA F5 FD C7 C8 02 F4 A5 B7 F2 1D FB F6 DE F0 DB EA F9 AE F9 00 DA 1A 19
00 DE 18 09 0B 05 ED 1E 02 15 0D 03 F1 DD F9 05 0E 16 CB FD 0D 0B E9 F2 0C 10 0D F0 B0 DB DF 12 CE EB CA F9 F3 10 FC 3C E5 26 17 EA FB 01 05 16 19 01 0F 0F C6 EB F5 BC
EB DA F3 E0 D8 E6 34 12 2A 00 ED F7 1A C9 E9 13 E2 E0 E6 D6 1D F0 16 01 EE F7 26 06 1E E8 C8 07 1C F6 13 12 F3 F1 F9 05 05 FA EB FC E9 EA 07 F9 F6 15 04 FF 2A 16 F4 12
01 11 03 DE 0A 03 FA 1C 02 F7 DC F1 E0 FC F1 03 0C C9 18 05 1D 14 E9 F8 04 D0 11 DD 29 FE 2E 00 0F 36 E6 0B FB FA F4 36 FD F7 F6 1A 04 19 FA FF F0 F8 1E 24 D5 13 05 2C
15 EC 02 FB 00 BE F2 F0 FA F2 CA DF F8 ED F2 21 C8 F5 FD E0 DB 83 00 F8 06 ED 0A F5 E8 01 EE 03 FF DC E8 F8 EE E1 F8 AB F5 0F E0 06 E5 DF 1A E8 09 F1 0C F2 F3 01 DE 04
CB FB CF F6 0C F7 03 18 14 ED FD FB 28 0E E9 C0 EF E0 DF E0 06 10 EE F4 E0 1E AE 1E E6 C6 FC D8 08 DA EE FF F9 D1 F7 08 02 12 09 F8 01 D7 13 1A FF F0 01 C7 00 C9 17 0F
F4 14 CE 12 DA F4 E5 EE EF D8 FA 06 D5 E8 D2 06 EC EB DC AE E6 FE 0D FE E7 19 FB F3 0C 14 FA 01 09 1F DB F9 23 14 F9 09 10 D8 C6 ED CF 00 F9 1A 18 09 EE F2 D0 E5 D9 E3
13 EA F7 16 DA C0 E5 20 F4 C2 C8 97 F3 06 1B FC CE 01 E9 D9 24 91 E1 EC 05 22 18 FB 02 ED FF FF 02 D9 10 B9 02 BE F7 C2 05 E3 C1 01 E1 11 0D B7 EB F1 E6 13 E5 2C D7 CB
E7 E9 EC 1E FC E7 CC EE 0E DB 09 D6 F4 1A 09 F3 02 E9 16 FF E3 EE DB 0E 0A C8 09 E8 F3 C6 DD EA 22 CE 07 F1 EF 0A 03 26 E5 1B DC EE C9 04 0A CB 2D 19 ED F5 18 FB EE FE
04 FA 0D 1A FD FD A9 C1 16 D8 0A F6 FF 14 FB DF 14 FA 07 EB F5 00 E4 FB DB 27 23 10 0E 01 10 EE D9 45 00 AD CD E3 F7 08 A9 0A EE 09 D6 E1 0C 0C 13 E1 E9 E2 F3 C6 F2 08
FC E6 FF 2B 21 F6 D0 2A F7 E3 EF 0E F5 16 CA F5 E7 E2 C0 00 D3 0C EB F7 2A F0 F2 19 E5 01 01 EE D0 E7 FE 22 19 EA F0 21 01 F5 FC 19 CF 09 13 36 DC 1F EF 05 0F 1C F5 0E
12 07 00 BB 0A C3 E9 11 01 D9 DD D1 BF DA F2 1A EA 00 06 C4 E6 E7 16 F3 EC 80 0B CD 20 FD F2 07 15 20 FC EA E6 01 FA D3 FF 22 BB DD C7 1F D6 DB 09 ED ED F3 DE CE EA FB
1D DD 05 F2 D5 04 F1 E7 08 FA CF D5 0D 11 0D D3 D5 F4 EA F5 EF E2 E7 F3 23 EF 12 23 EE 42 28 EE 0A 00 0F 3C 13 F5 F3 FD 19 CF D1 D4 13 8A 04 F4 EA 22 F0 C2 28 17 F8 DC
1F 0C 38 F4 FC B8 F1 E1 EB 0E F6 27 05 17 06 2D F8 B0 B3 07 20 18 21 F2 F1 17 B9 21 E0 EA 09 C7 D9 DA F5 E6 23 0C FE 3B 03 13 0D FD 0D F4 EC 0E F6 E0 30 F1 0F FD ED 15
21 EF C4 27 E2 D0 0F 0C FE 30 1B E3 2A 03 0C FE E7 FC 13 09 16 E9 1F F3 09 F4 25 F1 00 3E 02 DF F5 12 14 B5 12 D8 02 C2 11 EC 03 D5 12 E9 30 09 FC 14 CE 16 17 FE D2 26
02 08 C8 0E AA 14 05 F4 EF F2 D7 FD EF E0 E6 2D 12 AB FC 07 08 11 FC FF 08 1F 06 BE FD D4 F6 F7 F3 04 01 F6 25 F0 FC 0B 03 BE 10 20 0F 01 03 0A 07 FA 1B E0 EB 01 F5 F1
E6 01 04 13 D0 FC E9 16 E6 0B 09 02 12 8D D8 01 0F E5 DF D0 F8 1F 0F F5 C2 DB B7 15 F5 04 0A 1D 12 18 13 FF 04 1F F3 0A 0A DB 0C 08 F8 E9 1A FC FA FD 17 07 0C DC E2 DE
11 AE F5 12 99 07 07 29 0A FE 2C DA DE D7 F0 EA F4 08 10 DB E9 01 EF 05 EE 21 EE 1D 00 E9 10 F7 0A C8 FF 04 1F CD FA 1E C8 C1 06 0D 1D 0B 19 FE 11 1A F4 1E FF D2 FF 27
16 B4 10 18 BF F9 CC 18 F9 F1 FC E4 EC B7 01 E2 1D EE 07 EE ED 22 01 F6 CD 08 D3 A9 E5 CE F5 15 E2 0B 0F A1 E7 CC 01 F1 D2 CE 01 F8 04 1A D4 1C 10 E4 FE 08 F8 DF E9 F7
EE 10 25 F5 19 F5 02 CE 17 F9 EE 0D F7 DE 1B 12 E4 89 0A 06 E5 FF 00 01 0F EE DF CE 2E 09 0A 19 F7 FC F5 F4 1C 09 00 20 AB 0F FC 11 F9 F0 1C 1E 27 D6 CC DD FB F7 10 D3
E8 F2 EC FA D1 F0 EA C0 D9 EA FB DF CE B6 07 EC F5 01 D9 E5 F1 F1 E4 00 F5 F7 08 02 FE F9 E8 23 1E F2 1A 22 12 DD 03 EC F7 E1 02 C9 1A 07 FF BD C3 04 FB EF EC F5 E6 FA
00 10 1B F0 20 F6 D7 11 03 FD E5 E7 FF FE EA E9 DE 19 EB 01 2B E8 FE F5 06 E3 F9 DA E2 F5 EC 22 41 35 2D 27 04 08 F6 D7 07 E2 F1 FF E5 12 15 E7 E3 D7 FE 0F 20 00 15 1A

01 F6 E6 EC 10 EF F6 32 D2 18 D3 10 01 0D 05 F2 02 05 FE EF F9 11 16 F6 16 FA D4 D2 DA 0D 10 3F F8 3C E9 16 02 E2 FF FB DF 0A 08 FC 09 12 49 14 F0 F0 06 03 E5 F8 09 E4
0E 0B D8 F5 2B 07 DC 02 EA D5 06 10 0C 0C 05 E6 D3 FA 21 FF D8 20 1E F2 D1 EC F8 F7 E6 D9 11 E5 FA DE E0 EB ED FC F6 08 E5 0C FF 2B 08 F6 F6 D9 8B C8 F4 E4 ED F6 08 CD
F5 EA 3E 26 CF 15 EE 17 F1 09 09 FF 1F E1 14 FE E6 F8 0B D6 DE D7 FA FA 0C DD DE DE 21 E8 0E 07 09 01 13 19 FA F1 F7 C9 F3 80 E0 EA F7 01 1C D9 F3 25 02 1D D8 18 30 06
F7 E4 DE 05 26 09 20 0B 16 07 FF 34 C7 1B DE 19 28 1B D7 14 13 FB EF F9 08 42 D3 00 1D C9 E6 F3 16 88 E2 19 E2 F1 F1 F5 2D 1A 17 06 D1 31 DB 2D 35 F6 16 ED 1A DF C3 FA
E9 EA 12 F4 34 DE 31 0F 06 DD 03 BD ED 3F CF 1E FD EF DF FF 01 F8 F6 00 D1 FF EB 04 00 01 01 13 EC 5D DE F5 07 EF 00 E1 DE BE A7 02 DC 1A 12 FA F5 CC FE B6 1A FD F2 FF
FA DE E7 BD B5 E3 21 F1 EA FD 09 1F 01 27 B0 FB 14 FE 00 02 DF 11 0C FE 0D 08 D2 16 F9 D8 D9 E2 03 CC D3 02 0A EC FF FD 08 13 F0 04 1F 11 EE 32 FC 9D 19 EF 18 FB F1 EA
FC F3 1D 11 FD F8 E7 D3 E6 06 FC E8 1D 12 C1 06 29 09 19 C3 F7 12 EA F8 CB E9 F9 1C F8 EF 07 F2 2C 10 16 CD A4 F6 01 AB 07 CE 0F 1E 0C 07 26 C3 0B 1D 0A F8 EF 07 BD 0A
F7 EE 06 EA F4 FC E5 C0 ED E1 32 F1 FB FC 04 0C EA 05 08 0D 10 E0 26 09 C9 00 A8 0D D7 0A F3 E6 2C 0C FD DC F5 E7 FE 21 FA F6 02 EF CA 1E 00 22 C9 EA E0 B9 F7 1D 12 04
BC 0E 09 00 27 F2 E6 D5 08 21 FB 11 1B 00 EE 0D 07 26 1F C5 2D F7 EA F1 00 D9 0C 01 D3 F2 04 1C D6 D1 DC FA 01 15 F9 1B F8 FA 00 1C E6 FE FF 03 11 F7 0C F4 0D 05 0A 06
F7 06 33 F4 2B 25 08 F9 EC DC 21 F7 26 EE 07 05 EA 32 07 2B BB FE F5 FC F3 0C 3F F0 D8 C2 08 E9 0A E3 CB FB C6 E7 00 FA 1A EB ED E3 0C EE 0B E3 05 2E 1A 01 FE FF 18 E7
11 DE F1 15 05 21 0F 2B 01 1B A2 FA 03 08 37 1C 0B E3 2A 02 37 10 04 F0 E8 D3 E5 C1 07 B4 E9 E4 1F 03 13 E4 F6 26 F9 05 3A 17 FA 13 20 09 10 09 F5 D8 26 0A CD FF 0B 05
F8 23 14 E5 10 EC E3 F7 E4 1F 23 0C F0 0B F4 1C 13 EB 0D BC 16 15 0A EE 12 35 01 F2 CB D7 08 FB B5 16 EB BB EC BC FA 02 F5 11 0E AC FE B5 10 19 03 06 FA FD D8 22 F8 0E
FB D0 E7 F4 00 BF 10 07 EC E8 13 F1 C8 EE 3C 0B DA 04 CC F6 E4 2A 00 F4 03 04 F3 08 19 E7 D4 E1 D1 03 BF B6 D1 DB F8 CC F1 0F 04 ED CB DC E0 ED 05 F9 0D E6 05 C8 18 F0
F1 C8 2E F5 ED AC CC C8 FD F5 F5 E3 03 03 FA E2 1D 0C 14 FC EA CC CD F6 E7 D1 CF 10 E9 EF 0E 23 FB EA EA 01 14 EA F5 EF F7 20 DA FE BA D9 BD 25 09 E4 12 D0 8E E6 0E 17
18 F9 84 E3 E1 F4 02 0D 13 F9 10 E4 F8 E5 C8 01 34 E5 0C 18 F5 F8 07 FC 1E FA CE 19 F5 14 18 FA DC F1 F9 10 13 D9 FF E3 03 EC 2D F5 15 FF 1A 08 08 FB 21 1E ED D8 15 CB
FF 15 EE 09 E5 F1 E6 27 1F 05 13 EF CF FC E6 F9 FC FC 2E 3D 00 00 FC FD FA EC CF 17 FB 12 F2 0B E3 88 42 13 1B F2 00 3F 29 E4 E4 FF 01 1F FB FB 26 1B F1 FB 00 21 16 F3
ED FD 08 06 EB 05 1B E8 05 23 F0 2A E5 01 C0 21 DA D2 E5 D6 E6 0E 06 09 07 E1 0B F1 0E 13 08 0E F6 09 0F E6 0D 0F FF 14 16 FF 06 22 34 10 0C F4 11 0A D1 0B 24 F4 0A 16
11 C3 D2 B7 0C E2 FD FA 0D FB E2 E0 CD 28 E7 F9 F2 0C 19 FA 05 E5 EF FB DD E3 26 D0 F1 FA CA FD D0 CD BC EC 0F 08 EB D9 F7 EB E0 FC EA 02 02 FC E2 0A 0F ED 01 D1 DF E1
0C 25 E4 11 17 08 D5 01 F4 01 F1 1A F4 DC D9 FC 0F 20 E1 1A F0 FF 05 F8 DF 15 1F EE E5 F6 F4 14 D2 38 07 1B ED 01 F8 07 F1 ED EA 07 F3 E4 F0 0D 30 1D A4 EC AB 0E ED 26
0D F1 0F E9 D6 20 1F 03 FC C4 29 F6 0E 25 FC 2A C3 F6 FD 00 02 28 E9 07 FD F7 D4 EA FB 09 43 EF 10 EC EA 42 21 11 00 FB 02 07 E4 1E 15 2A F5 E3 A2 0D ED 2C 14 1E 18 F0
F0 D2 20 18 14 1F 06 EA 1F E9 F0 CB 1E 4B FB FD DD B9 ED DC 09 E7 B3 06 E1 1B 16 0A EB BD 03 E9 06 15 F3 F8 12 21 01 22 0D 0A 0A 0B CF E5 42 12 3D 0F E3 0D 0D E8 EC 15
F6 BF 04 12 0C E1 FC F5 FD B4 FC 1E 05 E0 B9 EB FD F4 D8 F3 0A FA B6 F9 FB F0 E7 ED FB FA E1 33 F7 20 E8 24 EE 03 FA E5 C4 F4 DF 04 ED C2 00 F9 20 F7 BE EB FD E7 25 10
E8 56 02 15 12 EC EE D6 ED 0F 10 4C 24 26 E7 AE F8 CD 18 89 F4 05 0C 02 FE 14 1C 16 9D A8 2A C0 D7 1F FC E6 EF 1B E6 00 DB BE 03 F9 E4 FE D8 29 11 F0 32 FE 12 EB E2 E7
0B 24 0D E2 16 F0 13 E6 E9 FC 30 E3 19 39 2F F1 18 27 0E 09 21 EC 08 FE 15 BA 04 FB 30 F4 07 06 E2 02 25 E6 FB 03 07 F6 CD 27 E2 14 E5 08 DE 1A EA 0B 24 05 DE 0D 25 0D
FA F3 EE FA FA F5 EA D2 08 C3 F7 0E 04 16 FA E7 D4 17 E5 1B E1 E7 D5 00 0C FD 0A 0F 1C 16 1B E5 1B E5 EC E7 CF FA FF E5 06 06 E5 0F D9 F5 EF 04 FA E9 0E EF F6 07 F6 FE
06 39 E1 04 F4 3A E1 B1 0B 10 02 18 18 02 1C DD E2 13 EF 06 01 F6 28 F7 C3 03 B5 FD 39 F7 30 F9 C7 39 B9 03 30 DE 05 0B 30 0D 07 16 09 38 87 E4 D7 C9 EA F0 DA DF F7 07
F3 F8 18 4A DE D7 FF FE 1E DF 1C E1 06 05 D2 FB ED 01 0D B0 0F C6 EC F9 F1 DD 34 12 07 B9 00 CF 2B FF 18 14 B9 02 F8 0F AB 8F 10 0D 0E 13 E9 F6 08 13 ED 23 BF F3 3D 15
D4 C3 0C 00 2F 39 0A E7 1F FC 02 F9 27 3E EC 05 F0 20 DE 23 2B 11 E3 07 10 FC FC 26 CA 0D DD D4 E6 3A AA F7 BB F4 FD 01 0C 2D DB EC E6 E1 0A E6 FF EB DE D9 18 D6 F0 10
FC 15 27 E0 11 0E D4 02 DE F6 E5 0B F3 15 2A 33 F1 0B 16 10 1D 0A 22 FE 17 00 D4 DB E4 F8 DF F2 BE B4 F7 DD F9 11 00 0D FF 18 F1 EA 0D D6 E1 A3 8B E1 10 F9 03 F6 01 DF
0C 21 28 E3 1E FC 01 F3 E2 EF 15 E4 01 15 0B F1 ED 0E EB 89 9D 17 E7 F7 20 20 00 03 EE F4 22 D8 03 0D F8 BF FD A3 FA D4 F9 CB F8 F1 FE F4 E5 C5 01 F4 10 F8 AF E1 F3 FD
02 DA 9D 51 E3 18 12 A7 0F E9 ED 2A 1D F0 26 BF F9 08 11 0B 13 E9 22 08 F6 08 0B FD F4 F4 2F DF F0 E2 22 C2 F6 08 03 B6 FC ED 10 0E 37 04 01 F5 16 1B 15 E9 06 E6 0B 15
01 31 29 FD 2F C9 E8 F3 F0 EA FB F4 11 F1 C0 12 00 2E 9B CA F2 B9 E5 00 CB 11 EB 0A 21 EC F1 F5 AC FD D8 08 E8 D4 FF F3 DF 05 1D E0 F9 F9 CA D9 C0 DA 0C E0 CE E8 A4 F2
F3 15 1E F4 E3 02 03 E2 2B F3 FE 00 13 08 D8 1F F3 14 1C 04 0A 09 11 F6 EC 00 FE E6 0E D6 AD 06 DA FB DC 13 D5 C3 FD DC F5 0D C9 DE 1C D5 C1 D2 C2 80 EC E3 06 B6 E7 FF
E3 1E 0E CB E1 16 15 05 08 80 FE FA FA 2F EA A5 EC F5 2A ED BE 18 0A 04 96 1F E7 E2 09 04 2E C8 03 12 FC AE C2 DE 06 D4 F5 0B E9 B9 F5 F5 DF CB C0 0C 19 18 D2 F7 E3 03
C3 00 D9 33 03 06 E5 0A F9 D3 A2 B6 37 F8 CA C1 D9 D9 1B FE 29 B3 C6 02 E1 3D 1B 19 01 E4 25 C3 07 EA 33 80 B8 08 EF D4 94 FB 3D 0B 2B 12 ED CA E6 2F CE 15 E0 FB D2 07
F1 F4 10 02 EB 0C F2 1B E4 2C 0F 1F F6 C5 ED DA E7 00 D3 14 2A 02 EC F8 00 FB E2 0A DC DD A5 22 EA D8 F1 02 CE 23 EE 1C 06 27 05 06 D4 07 20 07 D4 E1 F9 07 D9 F0 1F F3
FA 0A E7 D0 F5 EF 01 C1 2E FD E7 F6 C8 D3 ED 0A 04 0B EF E8 05 01 EF 05 2A E8 16 DA 04 1C 91 FF F3 EA FE FD FC 02 FD FE 13 F9 E8 0B 0E FA 13 0E CB 09 D8 09 24 18 F1 1C
01 F1 DD FE 04 11 FC E2 06 03 14 EA DC 17 E0 19 FE A0 21 F4 21 15 03 FF F3 07 04 DF 1F D9 1F 2B 09 07 17 05 0E 0F F3 20 07 11 F6 10 1D 0C F4 01 29 F3 1A 1F E3 13 F6 25
24 B7 F8 F5 D4 AF F8 15 F3 FF ED F1 F5 D2 C5 1E DF E7 DB AF BA A2 F3 F5 FC 12 E6 FB EE E4 EF FA F9 D9 E9 09 F6 00 F8 07 AD 00 E8 FC DA CE 0C B7 1B FD 18 F7 F5 EA 07 E4
04 EA F2 05 0B 0E FE 95 28 C1 FA FD 1B E5 E4 E0 17 B0 D4 22 39 30 F6 00 D9 EC F3 07 08 D0 E9 09 D1 D7 D4 06 F2 D3 09 43 15 F5 FA 0D FA CB 08 35 F0 16 FD E2 05 DB 22 2D
07 30 18 3D CE 00 1D 09 D5 E8 E8 0E 08 E8 80 1C EB FC 98 8B E7 F4 ED 00 E7 04 EB 0E C4 2C C2 E5 FA F1 FB 06 14 1A 07 F5 26 24 02 F7 F4 EF E6 F6 04 EF F5 11 F3 D8 C5 FC
1C E9 F4 20 F5 A0 E7 20 D5 C1 AF 04 FA FE D9 D9 D2 0C C0 DA F2 CD D7 00 01 3A 42 C6 00 CE 18 B7 07 DE F0 F8 E2 C4 F7 1D E9 FD 02 17 FD F6 FC DB E6 FD BC 02 F0 F8 EA D7
F9 A3 CB 38 1A A1 DC E6 1E FD F0 8A E9 01 13 FC 0B EF D1 F5 19 D9 CC 04 BD F9 11 DE E6 9E 0C 25 30 EE 23 07 05 2B F9 DE E5 01 EB 0D CF E8 CB DF 05 30 C1 1E F9 D6 DF 15
0E FA E8 E6 FC 07 C4 BC 2F E2 0D 0B 18 3B 27 EA F6 D8 05 D4 F9 F4 F2 F7 DD 01 F5 FE F5 E8 01 0A E8 2E FC F8 DE 08 F4 16 DA 03 F3 19 0D E5 F8 E7 0B 01 0D DE F4 EB 00 22
06 D5 83 0F FA F3 0D 38 0F F2 FE 1B 0B 26 D7 19 FE F1 DB 10 FE 0B 25 06 31 29 EF 05 E9 1A F8 E2 F4 BC EC 14 04 C6 F9 1E 3E FD FC 07 D6 F6 07 0A 09 EC 2D 12 F4 29 DE 00
0C 0C 11 D1 04 B5 F5 04 CD D6 F8 9E D7 E0 48 2C D3 E7 0F 95 E5 DA 07 F1 E4 02 16 EB 16 F9 11 F0 19 0E FB B6 D2 C3 F5 D3 F5 18 DB BB D1 0C 11 CC F0 FF D4 E1 AB D0 1F BC
10 2F 1E 1B 13 FC 2D A5 FF DA F3 F3 1A 21 DC ED FC F5 D1 C6 FC DC F1 03 23 FB 06 CF E8 1F 1E 2C 16 22 07 16 F6 10 F6 48 03 B8 F1 F1 0B B6 2E 17 CB 17 12 DF 19 29 26 C2
20 05 0E 1F F7 EB FC B3 27 1B E8 F8 E3 39 D5 F2 01 B6 D7 50 0B 2E 08 04 CC 1D C9 0E 34 81 03 09 1C FA 04 17 2A FC 0D 33 D6 FB E6 FC 0B 20 D0 1E 15 DC FF 2E 84 02 03 2C
16 BB A2 4A 28 B7 28 10 0E 27 08 04 33 30 06 F1 E6 EF FA E9 2F BD EA F5 06 30 68 EE F5 E8 F0 CD FE 1A 05 11 10 E8 01 BF 17 16 09 E8 11 FA 23 F0 09 22 32 1C 00 D1 07 F7
0F ED C4 04 E0 0D 2B BF 07 EA C1 EA 18 D3 EE 3F EF E9 0E F0 1A EF 08 F8 EF 18 02 E9 04 A9 10 F3 F6 31 18 E9 FB 0C FC 09 EB DC 0A EE EC F1 F8 17 F9 FA 03 DF E3 1D 18 F4
1A 1E 1B 07 FB F5 02 E0 C2 03 D2 1B 38 9C E7 2B F1 EF 18 DA 19 23 1E F5 E8 D8 CE 16 F8 F1 EC FE 03 E8 0F 19 1B 2E F6 0E 18 EF 0E 21 3F EC 1B E1 C7 E3 0D F3 32 DF F5 02
08 C4 BF F3 96 16 25 24 09 16 3F EA FC F4 06 F3 0A 01 EF FD F2 1C F3 08 10 0E 22 1D ED 01 15 03 18 92 06 24 00 06 F8 2E FA 1B FF 02 02 E7 0E 15 08 11 01 09 04 D7 FC F4
FA C7 FA 12 B0 04 CE 0D E4 18 FE DA EA E1 1A D2 0C F2 F9 06 F0 28 04 00 9B FA 30 C4 D9 C8 F5 04 F4 20 0F CF E7 14 FE E8 F5 DD 09 F0 E6 0D E1 FA 10 15 FA F0 14 DA F2 F3
CE 03 17 F5 37 EF FC B9 0E FA EC F6 ED 09 03 29 ED D3 07 E6 E2 04 E0 04 0B 03 F9 D8 02 1A 05 2C E9 E5 04 ED 23 15 F6 24 D7 CB F5 E6 02 22 16 0C 0A FF F5 FF 0B 06 11 0F
1E F3 23 EB E1 E1 CF DB FE 02 EA E2 04 09 05 CC 08 E6 EB E2 E9 05 CF FF C1 11 F9 BF 05 E8 06 0D 20 00 19 0B 25 D7 F4 D1 ED B7 FC EF 1A 0A F2 CB D5 FB FD 0B E6 00 E7 E2
23 EA ED F5 16 F1 CE D6 F6 F2 EA F4 2A 22 0D EE 19 2A 0F 14 28 04 0C 03 1C E4 F6 05 F8 08 DF 15 FF 26 2A E1 ED 19 ED AA 09 F7 02 0D D8 00 F8 E3 16 F6 0B FB 04 18 07 1B


0F 1E 09 11 80 EA F7 08 0F 18 F8 07 17 8D 25 11 D2 FF 26 12 1B 17 04 00 00 00 D1 2A 08 1C 00 F1 FA 0D 19 D0 00 FE 03 03 1E D8 22 F9 FD EA C6 31 D8 E2 FF 28 11 20 0F FA
BD 28 80 FE 80 DA 04 F9 9D 1E FA 0C E6 AD FE 21 EA F8 23 22 0A E0 0B FC 23 E4 02 E9 E1 00 06 D7 E8 F7 0F BF 1A E7 00 FE 14 E8 16 F7 03 E1 CB 3B 8B 3C C5 35 D0 2D EB 06
A5 25 F0 F5 FC 15 C0 EA C2 DB 19 2A ED D4 F1 18 ED 12 02 04 C9 0E FF F9 FB 21 D1 28 D3 F6 F8 B1 0A 28 A5 F3 BD 12 00 EA 09 FF F6 E2 DE FF F5 E8 AC E9 C7 D7 03 02 F9 A2
21 29 56 05 3E 15 2E 41 0E 23 FE A7 F7 49 17 2D 32 DC 1C F8 41 E3 05 08 2C B6 EE 10 00 19 01 14 21 1F F1 FC BF 22 FE 1B 32 EA 0D FD BE B9 3B 09 30 31 F4 37 EF 48 0C 10
CF A2 0C DC 08 0E 06 E6 0D EF F3 C8 1B 35 12 21 02 F4 E4 F3 0C 0A BF FF D9 2E 21 EB EB F7 EC 16 28 F2 C8 04 F3 D4 07 F3 E0 0B C6 C5 CE F9 04 F0 DA D8 FD B5 D3 BA 0B 1E
34 12 FC 05 0B 36 0F E7 F2 E2 E8 14 1A CA 03 FF D9 FE 07 0A D7 2A 20 FF 15 17 1D 1A 2D 27 D4 CD FA 05 E2 FE 11 24 F5 C0 30 0D DA 08 FD FC F8 26 EF F2 CB FF 02 EE 15 EC
CF DA F5 E5 FB C5 CA B7 1F 0F 02 D9 16 34 12 10 17 2A 22 D3 25 B1 00 F3 50 FC FF F3 E8 DE 07 07 01 24 01 19 D8 C6 FF 0D D3 12 20 EF CC CA 14 D2 FB 3D F3 41 09 DB 03 11
31 42 2E ED 2A 2D C7 22 BA 15 1E FD BE 08 DE 1D C2 E6 22 EE 23 17 F6 06 C8 C7 33 E2 20 B9 54 01 44 41 0C E6 19 01 FC 20 E2 02 F9 31 E7 05 FC E8 30 0B ED 16 0D 0B 26 49
C9 F6 07 25 EA D2 06 F2 0D 11 27 FF EA CC 1C 02 1B F0 99 F8 F4 FB 1D EF F3 EC 22 F2 F5 F4 F7 02 CC E8 0D 0A F4 0C F1 DE 26 23 14 2A F2 0A F0 1A 28 D5 20 06 EB 0E FD 13
D8 E3 0B 02 A1 F0 FD EE EA 02 17 12 17 F4 BB F5 F1 F1 FB F1 E2 F2 D3 03 D6 EA E7 03 E6 1D EA 05 2C 30 EE DB F6 18 04 0C 15 FD CC CD F5 C7 80 E0 FD 0D 09 FE F8 19 EA CC
E3 13 1D 18 B3 14 00 C7 B6 F6 E6 0C E5 DD F0 0E D9 20 10 32 E0 FF F3 FB 08 1D DD ED 43 FD F9 0D 15 B9 E1 03 11 37 02 FE F0 EA F3 3C 06 EB EF B4 EB E5 24 E0 1E 16 CE EB
09 FA F0 40 19 23 24 C3 F9 EF 06 12 2A 15 15 E0 1E 0C 08 22 43 06 0A 02 25 28 D4 1B A8 3E 05 C8 13 3F 1B DD 19 DB 00 F4 FB BE FE C2 F0 F3 12 28 F0 1C FA 18 37 36 FF FD
27 DC 32 EF E7 29 FA 2D F7 DE 0B E2 C5 E4 ED EE F6 1F 21 14 C4 FA A8 F3 FB CC 16 E4 23 D0 F3 27 B7 F7 C2 27 0A 01 F5 CE CD FA DD A5 E4 0D 1D 18 E8 0B FF 09 EE E6 2F EF
FA 80 E1 E4 2D D2 0E F8 21 04 1C C8 02 FE FE DB EB 04 F7 E0 18 D4 F1 F2 E5 F4 12 F0 FE BF B9 EE 80 03 CA E9 25 28 08 1C 06 CB DE DE 28 15 0F F2 DC DE F1 F8 14 16 0B 1E
0C FB 0F FE 19 10 08 1D D1 16 E7 15 F2 20 20 20 25 02 DF 1E B7 E6 CB FF F9 0C 19 F5 FA F6 F6 D8 22 EC 00 FD 20 17 F5 FF F2 17 C3 03 C1 D9 F9 10 E7 FE 17 17 0F B7 1E E1
F5 12 12 EE 1F E2 0C 18 F6 E5 0C F0 F3 FD 0B FE 13 34 F4 14 CB 07 A9 09 FE E9 14 04 03 22 F4 14 14 A3 C4 EF 20 EC 07 EA 0D 19 A1 E6 B7 EE F2 0D 1F FB 01 10 06 FF 03 01
0C 13 29 FD FB EA F8 0B 0F 28 10 3E B4 F1 00 DF 03 C9 11 42 F5 11 1C FF C8 46 CE E1 F2 FD DE EF 1C A4 21 F9 15 1C FC 0B 19 FE 05 2C 18 1D 03 1F 1C F4 E7 FA FD 16 13 0A
05 34 04 29 04 FF FD 1C EC 14 B5 FD BA DB 28 E8 E7 1A EE 06 F9 F6 FE F5 F1 E8 16 F4 05 F3 D2 11 B8 1A E6 20 F8 10 FF D3 E5 28 FA 27 BF 0E FB D4 EA 10 0F 13 D6 06 0C E9
AA 0A FE F5 06 02 E0 FA CB 1E 09 F4 0E 02 1D 31 FD 06 23 F2 12 EA 0D FD E0 80 12 02 D8 D0 2B 6A 19 39 F5 15 03 08 03 09 04 0D 21 F7 F1 11 F6 E7 BC 15 D6 EC 2C 21 1A 09
25 0C FE 10 09 1E CC 13 CA F5 12 04 FE B3 F4 17 FB E7 10 DC 18 14 09 06 1D D5 2E 21 0A 10 2C A9 3F 02 24 D5 EC DC F8 36 29 EB DD F8 09 31 B7 FF D6 BD CD F0 F6 60 1A F6
05 C1 BF 22 23 14 92 32 23 1C F5 ED D8 F4 11 03 F7 04 17 F3 2E E4 E9 FB EE 0D DE 0D C8 E2 16 EC 15 09 15 2B 17 AF FA 2C EF 07 26 13 23 21 BC F8 24 1C FE 19 17 E4 E6 25
FF DB FB FB D1 C3 FF CF F3 08 FC E7 DF F0 FA 38 05 0D 2A CA 20 03 E3 FE 07 EE F8 02 C8 30 E4 82 C9 EA 26 E8 0E 0E 02 18 D9 24 F3 E0 96 BD FF 1F E9 0F F8 24 EA 08 C9 08
E6 21 E0 21 22 31 EA 2F FC 0D 38 F7 1B 2E 0E 0D 0E FF C7 C9 08 20 05 01 44 E3 B9 01 D7 26 03 FE E7 FF 20 2F D6 EE FA C4 20 DD FD C4 E7 DC F9 29 14 EC F5 F1 36 DB D1 E3
0B 19 F3 01 0F E1 4A 08 0F 02 F6 FE 2B E1 FD 16 F4 22 E2 00 DA F0 FB 05 31 F8 DB 21 30 F4 01 0E E8 D7 01 FB 0D F7 F8 F8 B9 28 07 D2 CC E3 11 22 16 07 06 DE C4 FE 0B 06
8A D8 10 1D D4 EF 38 E5 07 B7 FA 12 05 D0 C4 28 E2 DB CE F3 FC 06 EA F3 A8 29 DF 1E F9 BF F5 BB FF D8 F9 00 F4 D0 FA DA 12 17 D7 BB C7 99 F1 D2 E8 37 0C 06 BE F1 F4 CA
D2 E4 05 DC 21 10 CA E8 F0 F5 E3 20 15 A3 EE 27 F4 0B DA F8 00 CE D3 FA C8 F9 EB FD F4 F8 22 E4 FE 1C EA DA EC 04 F3 1E CF 26 12 F6 C1 F3 06 EE 06 E8 08 FB E2 37 F6 18
E4 D3 EF B8 CC 96 09 FE EC 1E 1B 24 FC 26 3A E9 25 16 26 27 0E 01 10 F0 D4 44 1A F8 DC 11 28 9C 16 06 EB D0 1C A5 02 38 09 CA 18 EB EA FD 02 0E FA 1E 15 1E 23 F8 11 F2
F3 0D F9 FC 01 E9 F9 E2 34 E7 3E F1 14 FD 1E F2 37 2C DD D0 30 EA 32 F4 1B 03 2F ED EB 56 F0 0C BE 10 EE C2 D2 9E FC 10 9F D7 16 F9 F7 C9 E4 D5 40 EF FF BF 09 FE E4 16
12 08 FB FC F2 20 12 1C F7 08 EC 15 DF B4 DF 06 25 01 0A 1D EA 0B 02 08 07 FE 90 1B 0C F2 2B F4 EF F4 D7 0F DC F6 FF 1A ED 3C F6 FA 39 30 EF 07 A5 F2 FF D1 15 02 39 CB
03 40 CB 08 0F 10 05 09 F7 F9 FC C9 3F 27 22 D0 22 16 18 28 1F E6 E3 F5 05 C7 E8 BE 00 E7 0C 23 27 23 1A EC B4 BB F8 F2 12 FD D5 00 CF 2C 4D 07 0C 14 FE F2 ED 23 0F 09
0E E7 E8 FB 45 FC D2 BC F8 0A 06 F3 0A 18 F5 00 1B 0B D1 06 E7 E9 D7 F1 D2 06 0E BC F2 E4 02 41 B8 F3 FF 05 0E BE 01 E6 D5 12 01 0B 1A 00 19 25 16 D4 C9 ED EE F4 E2 10
DD FC 03 D4 F0 E3 D4 D3 0F 12 10 D9 16 EC 35 CE 02 E7 22 EB C7 04 D2 EE 06 0A 10 19 ED 09 FF 02 F5 24 EF 18 A5 DC F7 14 EB 1B D5 E7 E1 CF 29 13 EE DF FD B5 1F 13 FB 09
15 13 FE A4 04 4B F7 3D 02 F2 FF 22 E9 C8 1F FB FC 04 EF 17 08 16 1C 04 3C 18 EA 1D F3 49 BE F8 D3 E5 F8 00 13 EA F5 22 E3 E7 04 AE 21 F4 E6 38 BF D9 F5 09 09 07 0E F5
11 CA 0C 04 EE 14 F5 D7 FB 23 F0 48 FB 26 0E 0D 09 03 DB F9 26 1C B2 F7 DF EE 33 E9 D1 AF 2E 40 D1 12 DC B3 23 04 F9 E1 FA F2 01 F8 D6 B5 FD 15 C9 D4 CB F5 EF 03 1B FF
B3 EE 12 12 41 AA 15 D5 FF D4 EA F5 E1 18 31 13 0C BA 33 E4 3E FD E2 ED 14 DB 13 08 A6 19 38 C2 E0 E8 E1 1E 9D D0 04 B2 FE FC 38 D1 A0 E3 0A C5 DF FE 37 14 16 C7 26 FF
30 CB 0B 10 ED 08 F9 FB F3 E7 09 15 12 C5 19 FA 0B 35 B9 04 1A FE FD FC 18 C7 E2 0D F1 1D B1 E7 05 F2 EA 1A E0 0D F5 E4 FC 04 03 E8 0B 07 EE 09 BB 20 06 FE 05 23 03 1B
1C FE 06 11 82 11 17 2D F8 2B E4 0E C9 A6 EC 0A 13 C5 D1 ED 14 0C 30 07 B6 14 5F 0E 1A B6 9F 03 22 82 27 04 09 1F 04 E7 1B F4 D7 E4 EE D6 C7 FB C4 06 F3 10 EC 1F FD FD
08 17 13 C2 28 00 27 DD DA 23 EE 2A 0A 0B E1 F5 0C D9 0F 2B DD F0 FF F3 11 13 D4 DE F2 2D 05 C3 46 30 DB 15 1B 0A F6 0E 16 31 1D 34 18 D7 E4 FF F8 BA 02 13 EE C6 1A FB
0F 0C 16 0B 17 AF 07 DA 0B 01 DB F8 19 F1 28 B8 CE 0C 26 2B EE D8 EA 00 22 09 2C 12 C4 17 FD FF C2 F8 BB 29 D6 CB FD A9 E8 24 F3 16 39 F7 0B 01 EC F7 1E 0C EC E6 E7 05
B6 E4 09 00 9F E8 11 36 E1 DA 18 ED C9 D8 DD FC E4 04 12 AE 15 EC E3 F1 FB 1D 43 22 E6 0B FE FA 1A 19 0F F1 FD FB 09 08 1D F9 E0 AF CD 06 AC CD C8 3C 1E E5 FB 2B F9 F1
E1 0E E5 DD 15 15 C8 0C 2C 14 1B D2 12 0F 21 1D D0 06 4A 20 D4 E0 22 F6 F9 F5 48 0C EE F8 30 0F F7 36 F0 17 DE E1 02 17 FB DA 03 CE D4 11 EF D1 17 3B E2 34 E8 18 C7 22
C0 F3 F9 C1 EC C8 E7 95 23 04 0B F6 15 FD 23 DE FE 21 27 FC D1 DF DF F4 34 09 05 13 C7 3A 16 C3 F3 EC DC C6 ED 1E F3 AA 09 D0 ED B1 00 E5 03 1C 30 D3 D7 EB F5 F5 F9 E4
D6 E3 D9 CC 13 DE B1 0F FF F0 11 FD 0D 21 E8 16 11 F0 2C E2 FA 1F E5 02 32 FB 24 F0 EA 1C FC B6 40 F7 EA 3B B7 E9 06 D4 25 22 F6 05 A4 2E 01 0D E8 FA C5 EF 05 09 38 05
1F 1C 19 02 C3 00 0A A5 29 E7 F7 D1 2F DE FD E3 35 0C 11 F2 1E 1E E8 FB FD FB 11 C3 DE 08 EB CB F0 5E F5 F6 C7 FE FB F5 DF 1F F5 DE 23 CB 05 EA 15 D9 01 F7 E7 E4 FF E8
C1 EE 2B FD 12 0D F0 07 E9 06 2D 05 09 1A C4 F9 01 FA 30 FA CE 11 09 F9 1A ED 36 0E ED 07 10 21 42 DE E9 E7 0F 22 F3 0D 09 05 DA 2B B7 13 CD FD 0E 10 E3 16 FD EC 00 2D
F4 BA 10 ED E2 EB EE 10 E3 19 F5 D3 0B 0E 1A EA 18 2E FC 1F F0 CB FF EE FB C1 DD 0B 29 10 2D DD 06 E4 0A 16 EC E4 FF F2 DA 14 F8 00 E7 0C E6 06 EF 15 FB 21 0D 0B 86 FD
C7 05 08 EC EB 0D E3 F5 F2 23 EA EF F8 E0 1F B4 03 11 06 C6 01 20 FA 07 21 FC E9 3B B8 0A 36 EE F1 C8 19 20 CF FF F9 F9 11 24 C9 AC 2E 20 02 D5 24 08 15 C3 3D 14 F7 0A
E8 14 03 ED E3 E9 17 2A C0 04 F6 15 02 18 DB 02 D3 A4 0A F6 B4 04 11 FA 28 C8 FF 0C 09 12 E8 FF 30 FF 02 1E 39 0D F8 01 43 23 01 F5 0E 0A C1 D5 B8 E2 1D 09 14 F3 FE D7
E7 16 CC EE ED E5 1A F5 FB 10 F8 10 FB C2 F1 0F 3F 11 13 23 3B 17 31 F8 23 F5 A8 F9 F1 34 F3 F6 F4 2E E4 32 0E D6 F4 F9 3E F2 23 B9 17 E8 48 3E FB 35 C8 27 F2 D5 D1 07
E8 F5 E7 ED 98 E9 CE 2D D4 16 F6 2D D5 CB 06 F2 F4 CC F4 15 D8 21 D5 FC CA 00 0A 03 08 CB E7 06 E1 06 1F 13 F9 05 F2 FD 0C C7 12 1C 0A 24 BD BF FA D4 0A E5 DF 29 11 E5
02 05 C1 EE 80 21 0F 06 BB 06 00 13 0C 83 34 04 F2 19 09 1F 28 ED 20 F2 EC 38 05 11 00 ED FB 28 FE 07 20 C1 FC 06 F2 08 E9 DD 2E DF 0D 14 BA 12 C9 26 F6 17 16 23 22 19
E2 EF EF 04 80 0C E6 BA E7 DC 1D 0E F8 CB E9 22 2A 3A 07 29 1F 15 EA F1 20 EA D1 F0 C7 24 28 FD F8 F6 28 E5 FB F5 F6 FF F4 E2 45 38 3B 16 08 02 55 09 FF 22 0B 1B 04 29
03 29 DD 1B C2 F8 E2 F3 04 19 14 08 ED 80 FC F6 1B 2F 14 D9 17 F2 09 FA 1C 1B EE E8 08 FB E9 0A C5 DC 08 EF D5 DF 02 FC F1 EC 0A 15 EC 22 F9 1E 0C F0 F5 14 09 05 FC 22
F7 28 09 06 9F D8 EA 02 AF 20 00 39 3F AF 0A F4 CB E8 03 1B B9 F0 02 FC F8 F2 DF DB DB 01 F9 E1 13 DE F0 1B FE 0C 05 0D DA 40 EE FD DA 20 3F 07 06 A4 F7 FA 02 01 E8 94
E8 29 CC 1F 80 13 01 16 D8 0C E4 18 A5 9F 04 FB EB E4 02 FC 23 22 1E 05 E0 ED 0A E6 EF C0 F4 B3 10 D1 22 0D 3F DE F6 08 21 BC FE D3 36 09 06 13 9F 1A BB 21 E4 0C F9 2D
F9 0A 00 3B CA 0C 11 F1 FB DC 07 05 C9 D8 F8 12 01 32 0B EC E6 12 1F FA E9 0F 47 F4 09 FE DC FC EB 1D FC 29 DA 21 FA C3 CD 1E 12 29 E8 E9 E1 E1 24 05 F7 2D 13 E2 1E F1

B7 FD 1C 19 BA EC 14 1F F9 0A 07 FC 23 8C 26 D1 DE 20 F3 0B 11 03 FF FA 43 DC DC 2A 07 39 02 F6 12 0E 22 CF FD 01 00 03 49 D5 1F CC F6 ED D5 19 C6 F0 DD 26 15 04 16 E2
99 11 95 EE AC C0 1D 03 80 05 FD 0F E2 F7 ED F9 D9 0A F5 1D FF E4 23 FE 1F 0F D9 FE BD 1B F2 CE 07 FF FC E8 11 E6 F4 05 1E 03 DD B5 0C DB 80 1E 80 2C F4 0A BF 12 ED 00
98 04 33 CE 02 FB FC EB 9B F6 11 FF EB 0F 07 FD E9 04 2B 05 D4 F3 FB F6 08 F4 E6 F9 E1 08 16 E5 F1 1A BE DC D0 FA FC 02 FC D3 DD E7 05 FC F3 C1 C4 27 BE 17 20 16 E2 BB
E1 FC 17 F8 E4 11 35 0B 04 12 0C C5 0A 3D DC 33 21 08 E5 02 2F D6 07 FA 3E 03 F6 22 FF 23 F5 DE 2D F2 E5 EF 93 08 02 08 35 EE 0F 1B E1 B5 25 EE 15 38 18 13 0C 3C D0 11
D9 FA 19 C8 18 F7 E4 1B F5 E9 1A D8 0C 09 FC 11 2B C4 DA F9 EB F2 FC EE AD F1 E1 13 DF D3 E0 EC E7 0A AB FF E8 C8 F2 CC EC 09 D8 CD CF D4 FE D2 14 DB E3 C2 F3 CC FF 04
01 DF FF 06 EF 33 18 F3 20 EC CD F7 26 D0 D0 F7 F8 E6 F9 01 BB 01 1A F3 1A FE 12 1E 2F 15 DF 03 FA EB FA 28 03 0D F2 DD 34 05 9F FF F8 E6 F8 11 EA D9 E6 ED EA FA 0F E6
F4 E8 CA F5 08 D8 F3 09 EB 2D CC EF 13 2A 1B E5 0D 1B F1 DD 1C D4 E3 FA 39 E7 FC C9 FF DC 0B F7 13 05 F5 13 8F D7 01 FB 0F 2A 08 FB D0 E7 06 CE C5 1D 01 0F 14 E4 43 0A
22 FE 2C 0B F5 11 DB 30 9B E7 27 F0 06 F8 F1 13 E7 EC 1F 0F F7 05 10 FC ED 20 C4 F6 13 EF 41 14 4B 31 1E CF FF 0E F4 1B F1 37 11 ED F0 E7 E9 16 21 F6 E4 E4 2C 29 08 0F
D9 DB 14 03 22 ED 22 D7 01 0E F9 09 FB A1 1B ED 10 EB D2 D2 FA F6 F6 EF E4 F0 1F E4 F1 C6 09 FD E9 0E 08 FC E3 0F FC F1 2E FF 18 34 01 E5 01 16 1A D5 19 E6 02 FE 0E EF
CF B6 F8 EA 9C EF 0E F4 D2 F2 1E EF 11 FA C3 DA 0C 02 F6 F4 E3 F7 DB EE E7 20 F3 F1 E5 11 ED 12 35 3D FD E9 FF DC F2 FB 07 0F D3 DB D3 C9 8F DE D1 FE FF E9 E8 01 07 C3
D9 0B F6 E8 E7 08 EC B7 D6 0A E7 15 D9 CE EE FB B9 2E F8 24 F0 E5 03 03 EF 18 20 0B 33 C6 FF FE 02 27 06 0D 10 3E F3 08 E9 36 ED 0F 04 F5 EF 93 13 F8 30 C5 F6 00 D8 0A
FE 09 E6 33 05 D8 26 FC F5 F1 2B DF 26 07 1C 01 2F 04 3F E8 1B 1A 06 FA 35 FE F8 04 EC 37 04 C9 EB 2C 14 DA 25 D5 F4 D7 F4 8B 17 DB 17 DD EA 1A 01 03 07 04 24 05 E7 00
13 C9 EF F2 FD 11 F4 0A 09 DE 0C E8 C7 E8 E5 E9 F1 27 D1 18 CE ED C4 FC 09 01 07 13 1E CB F3 1A DA F7 FA 1C F1 EE 06 B0 DE D7 CE D6 C1 B4 25 00 23 25 F5 01 F0 DF 10 05
2D 83 E3 C9 41 CE F0 ED 26 F5 FB DC FA 21 F5 CE 0A F0 F1 F5 FB E3 E2 FC DE 1C EF 0D F1 D7 F2 9C AA D7 F5 B5 32 E9 FA E5 E0 0A E7 0E 06 0D 04 FE 12 04 F7 EB AD 09 02 22
05 FA C6 1C 22 20 1F 15 CF 10 F2 09 F5 18 DF 10 27 CF D9 18 C2 EE E1 FA F3 01 F9 EE E0 21 1D E5 F9 CB D1 F5 1D 05 FB DF 0B 09 E6 09 EC F0 0E 14 E7 EC 11 1B 23 C9 1F D5
13 FD 11 C1 1E 03 01 2D DB 01 F9 E7 FB 11 F4 EB 15 2E 0D 30 80 DD 8C 02 FE BE 04 FC F7 22 E7 0F 28 AA DA CD 17 FB 01 EF 0D 2F 9C F8 CB FF F4 29 38 11 EE 1D F9 06 06 EA
16 0F 28 EA F8 FC E1 1C 16 1D F7 2C AC 04 07 E5 12 B7 09 23 01 1B 08 08 EC 02 E3 C6 19 03 E8 1B 01 CE 0D F4 16 1B 05 FE 10 E4 10 42 1E 0D 07 27 0E F3 CF FE 04 06 1E 0A
E4 0B EC 16 1A FE 0F FE FB 14 C7 FB DF FA 20 FA CC 1A 13 04 0C FB E8 EF E6 EE 11 E1 14 FA E8 0A CD 08 D9 1F F0 13 FD B7 EA 07 E9 0B B4 FB 09 B3 E0 FE 22 0B F0 FF E5 E2
C9 1B D7 F8 24 02 E9 03 EA F4 D7 EF 08 E3 0C F4 0B EF 29 FA F8 C3 B0 F9 15 A6 16 05 DC 54 11 30 25 33 B2 CC CE FA 03 1E E2 1F 16 FB 0D E5 0A FC 21 1A B6 F7 42 0C F5 11
27 F6 E3 EC 0C 25 DA 12 B2 F7 18 07 15 89 F7 0C 32 07 21 06 F3 1A 08 F9 0F C4 DD 18 11 BC 35 D0 FB 13 E5 C2 FC F2 06 3E 0D 07 E7 14 F0 07 F9 E0 CD D1 F7 13 15 43 20 C5
0D E1 05 FC 23 17 AA 42 0B FA DD DB DC C9 0D E9 C3 04 19 E3 21 FA D9 01 FE DA D6 01 CB F2 F9 EE 09 F2 09 DD FD B1 08 28 C6 12 1C 19 1C 1A C1 00 F5 08 00 20 25 D8 D3 33
00 B6 F0 FB D9 C1 DB DB FE EE 23 C9 F8 F6 D4 27 E1 10 ED EB F8 17 E4 F4 0E 0B F6 1E D7 2B EA C4 D3 0A FC D8 07 04 08 26 D1 35 EF F5 EB AF 0D F3 0D EE B5 FA 19 F5 B1 12
E3 66 0D 04 17 F6 09 F1 FF 01 3F 23 18 F8 07 D9 0E 0D 1F 9A 1A C4 1F F9 3F B1 14 02 F3 1A 00 EE D5 F9 0B 17 D2 CF FA CE F4 DF 03 D0 DC FC F3 01 EB E9 0C ED 0D E0 AB C4
F7 18 11 C2 E2 D9 09 EE E2 E1 19 FD C7 AC FB FA E4 12 FB E1 E6 F5 FA 05 42 F8 0E FA 06 FD F1 0E C9 E2 E4 2D 02 C4 FB F2 B5 2E 0D F1 DE F0 17 09 FA D9 C3 E2 FE DD EF 17
80 E0 FD F1 C7 CE 3F E3 DE AC F8 F1 F0 DF DE FE D6 C6 0A 02 BB F5 0F ED A0 1E D4 16 FF F9 CE CA EE 01 A0 FA 06 F0 FA D1 1C 29 C1 DE AE 8F E3 02 FE 0E FB E0 1D DB 02 BA
E5 F5 C6 DF 2B F9 E1 EA DD 0F F9 13 0A 94 DC 00 DF CE DD 2E F5 C8 DE F4 D0 40 C6 FE 2A C9 13 E7 13 04 FC F3 00 FD F7 07 ED E8 32 12 E1 C9 DC 0C 1A EA FE F3 04 38 F9 EC
E1 0F E5 23 AE 94 E6 10 DD 1E 1D 22 11 26 00 1B FF 14 1A 13 35 18 1B FE ED F7 0D FC 1B F8 14 A5 04 F1 0B F4 23 9E F9 1C 16 C4 29 F2 F9 EA FB F3 04 26 0B 2A F3 17 18 10
D5 18 00 E5 DC D3 17 09 FE F1 12 E1 1C 24 1A E5 CF CB 11 E8 17 01 11 F7 47 E7 F8 F9 E4 18 E4 2A 92 F3 B6 28 1A DD 02 16 C7 07 DE E8 F2 01 0C B9 21 B0 EF 80 07 D1 1B 09
1B 11 29 F5 EA 1C FC 1C EA F9 08 11 C9 B3 E5 F0 21 0C 17 06 E8 0A FB FE 0F E6 82 17 1B F5 19 BE E4 CD EF 12 F9 DC 00 0C F9 2A E1 F0 26 0E 09 F4 BE 1A CF CF FC 06 09 EE
FF 40 DD 1A CE 1B FD 0C E5 FD 16 CA 2E 2A 1C 09 2E 01 F0 E5 35 F8 E4 FD 10 FA E8 E3 E8 F0 15 31 20 29 10 E6 DE E4 F2 D8 F8 FC E3 0B CB 12 5D B8 0C 03 06 F7 FD 0E AC FC
2B EF F0 01 0E F3 DC 2B 14 15 F6 F8 04 2A 04 D3 00 0B 02 06 EB CF 32 F1 DA C4 0C DE FE AC F1 3F C6 F6 F8 08 DF D7 FA 08 E0 F6 01 0A 13 25 23 F7 2E E2 D8 23 10 07 0F 19
FE 0D 1B 20 1B ED F3 0B 11 13 AD D9 21 01 0C EF D6 03 05 F9 E9 F2 B3 F9 0D F0 FC 0B 09 0D 03 DB 15 1D F9 09 BF FF FA FB F6 EF D6 F3 CE DB 10 21 F5 04 19 E8 1A 2D F8 14
05 0D FE F9 DB 23 F9 18 FD 05 09 18 D9 DF 10 25 F0 1E 01 DE 22 FD 14 FE 23 F5 FF 19 DF 30 B7 0D C7 F8 20 FB 1F E0 F8 18 EE E5 FF DC 14 DE D3 D7 BB BA 05 E9 20 06 DC E4
04 E9 F9 00 FC 16 E3 F7 DD 16 FE 2E F8 16 9E F6 15 03 03 08 4F C2 CC F7 C4 DB F4 18 DE C5 22 40 F3 1F DF DF DF BD F9 D8 EE DA E7 02 E0 1B 05 D9 D7 FA F6 22 BC FE F4 0D
E2 0A F5 EB 12 14 03 F6 29 BC BC E4 EF 27 0C 2E F0 9E 4D 07 F8 CA F9 FE 1D B4 06 F9 B3 13 16 C7 0D F6 F0 FE BE E3 F0 C7 F9 D5 6F F3 E0 36 F5 D4 EB F1 18 06 24 0A 31 0E
15 8F 06 D8 27 0C 1B 31 12 0B 00 00 19 EA 03 E6 F8 1E D4 28 22 F8 FA FC 14 FE 17 11 DB F8 C3 0B 17 FD E8 18 08 16 FC 0C EA 1E CC D8 2C E4 DE F2 E5 24 FC F1 D6 F4 14 D6
09 EF F7 F7 80 FD 29 20 0B 05 DE 0F E3 C6 E7 0B F8 D2 04 E0 14 0F 14 F9 FB EE 2E 2A 1E 0F B8 0B FC CA 06 13 13 06 FC F4 06 00 EB F5 19 DF EE 03 C6 F0 E8 10 29 F1 F0 00
0E 1B 0A DE 00 03 13 D9 FF 21 E1 03 1B 0C D1 FB 2F D0 28 14 F8 01 F4 F3 20 06 FA D7 24 29 28 F4 3B 52 1D 02 16 02 F4 19 1B 13 10 37 FB D2 E6 F8 0B F0 1A 05 D5 C8 15 1C
23 0F 32 2A 1F DA 01 CF 1D F7 A2 F3 FD 09 30 F4 B4 0A 02 EA E5 CA DC FE 27 E4 1E 04 E4 18 F9 FB B8 DB E3 2C E6 D7 06 DD 08 10 E2 10 3C F9 15 F4 09 F5 28 FF FE EC AD F7
B9 D1 EA E2 B3 FF 20 27 E3 E8 12 E4 F5 A9 C6 01 DA CE B3 B8 08 FC E3 E6 03 15 FF 23 E9 09 EF D0 10 F6 08 CE EF DC FF 10 0E 2C E7 EF E8 DA 02 F3 DA 21 0D AB EF 07 0F FD
E3 1B FB F3 F8 05 BD 2F 19 E7 E0 F9 12 26 00 0D EF EC F1 DB E6 F7 05 F4 1B FF 02 F2 E6 1F 1C F8 1C 29 CE 0A A3 25 FC 17 FB CC 05 FB DD FA EA F1 E9 26 FC 23 CD 05 D3 F7
DF E2 FE 13 D0 DA F8 95 22 0D 11 CB 0C 25 22 EF F0 15 1B E0 FA C1 EB FC 30 0B 14 2A 00 21 F8 DE DD F0 23 C0 F1 0B FD CD EB BD E1 AD 1C C9 11 F1 06 E9 BF 01 E0 08 CF F3
DE BC D3 14 0C E0 C6 D1 0D FA F7 C1 ED 25 F5 E4 2A E0 2E C7 05 CF C9 FF 42 D3 15 DC B1 00 04 AC 33 23 D6 19 CB D4 FA 1C F2 37 FD 05 BF C9 E3 E5 1B 2D BF 33 F6 07 1B F3
0F 10 18 09 D8 FF 18 D0 2C E2 05 CC 0B 04 14 C7 02 F0 F6 FA 1D C1 E1 01 07 16 32 D9 F5 F3 F1 E1 F8 35 10 E7 CE 03 FD 0B E1 05 F7 D5 1C B7 18 00 1D C0 F5 E0 BD B6 ED E2
F2 E0 EC 17 FD 0D 04 18 EA 06 15 1C 1E 37 CE E8 06 03 09 0B DD F5 CB F6 22 CD 1E 0C F0 26 01 F3 36 E9 D0 20 F3 1D F7 11 14 10 C5 1E BE F2 04 1B F1 20 F9 16 F6 F8 CF 1B
EB F1 EE 10 F5 B5 A9 1D DB 07 CE C6 FD 05 02 FF F9 1C F2 E5 E3 E9 16 00 FD 80 DB FD 47 15 0E C7 05 FD FA 05 D4 D2 FC E5 D9 18 EC 08 EB 03 D6 EF 00 F9 25 F0 E9 F3 D5 F9
B9 16 FF 01 D8 18 99 00 D1 24 F1 DE 0F 00 2B E4 D9 01 02 C9 03 37 16 F0 18 22 11 29 E9 0B 24 DD EE E2 26 3D B4 01 FD E4 33 19 CC D6 30 E0 0E D5 06 F5 FA E8 3B 2B ED FC
EA 08 05 EF D5 D5 F6 23 B0 2B E0 35 E2 FC DE 11 F1 97 E2 0E FC 19 14 FC 08 10 06 07 25 DA 0A D2 0C 08 28 2F 27 17 F3 15 06 26 CE F9 24 FA 0E F5 BA F9 27 E6 30 F1 F3 F3
00 20 B6 16 CF D2 34 07 DC 10 0B D6 EF BD 04 13 20 05 06 14 3F 13 14 F6 2F E3 E3 F5 06 35 D6 0A EF 29 09 D6 18 D5 FF EB 2E 16 28 E0 01 EA 06 04 F1 31 10 33 08 DB DE DF
06 EE C6 EF AC 06 BE 07 F9 0B F2 01 D6 A7 F6 26 E1 DC DE 18 F3 05 11 04 F6 09 24 15 08 C2 F7 24 E8 2A 0D 0A F5 0F EF 17 EA EF 05 01 BD 01 00 DF E5 EF 18 03 E5 16 FD E6
D7 26 FD 20 80 FF 15 1C B2 FD 0E 0D 00 80 0C FA F7 05 FB 21 19 02 14 EF CC FD F8 1B 13 F6 FE 1D 14 05 1A D1 F8 0E F0 FF F9 EB 0F EC 06 DD 16 EE B6 01 04 0B F8 0E F7 F6
EE DA F9 02 8F F3 EB FC F5 EA 0B E8 CD C7 FD 14 09 1D FD 07 0B 36 0A 00 09 17 F3 0D DA F1 12 F4 09 E9 10 EA 00 F6 03 18 E1 DB 3B 14 1A 04 13 FC 31 14 1A 1B F7 E6 FB 20
05 1A E4 15 A8 F6 D8 0C D2 F9 FC 12 DC 80 1A F2 11 3E F8 02 18 08 23 FF 02 23 DE DD 29 BB E9 14 C7 DB 21 E3 B7 F2 FD ED 12 A8 01 FE EE 2B D8 1E FA 0E F3 11 05 12 FF 18
E5 1C 24 D8 80 CE E5 C2 C3 EB FC 35 4E C8 0E F2 C2 00 1B 02 E8 C4 FF F4 27 DC 03 AD E2 23 0F FB 08 FD F8 F8 09 F1 FC 03 A8 17 EA 20 07 25 2F 11 F3 EB DB 17 1E EB E2 FA
AE 09 F2 11 A0 1E 0A E9 9A 00 F4 FC BB FD FA E8 DD FD F3 EA 07 1D F1 FB E4 F6 0C ED F0 D4 EB DB 12 E5 0D F3 2C D5 FC 0F 27 E4 F6 BB 28 FD F7 D8 AC 21 C5 21 F1 F2 E5 08
1A 01 1E 0C DF 05 04 EB 21 DA EC EB A1 D5 F3 E2 00 3A 08 E7 DE 00 15 07 FF FC 14 CE 0A 14 C2 FA CD 1B DE 4A E0 15 02 C3 E9 02 0F 1C DB DC FF EE 48 0A E1 01 18 EC 00 0F

B3 E3 0B 11 98 02 F6 45 B2 FB F1 17 1E A8 07 B1 FE 41 EE 1A 0E F3 0A FE 37 03 14 1C F3 20 09 37 13 1B 0A E5 07 FC FF F9 32 06 21 FA 06 E8 FE 2B B7 E4 19 23 14 08 18 E7
80 1F E7 FA 99 E7 02 F4 80 CE F7 22 E1 04 D0 F2 09 F5 2A EA 00 07 20 FA F8 F1 AC 1A BB 03 06 C4 21 EA F2 DF 18 CF F4 0C 1B 21 DB 11 24 E2 CC 0D 9F 0D DF F4 E1 3F 0A E6
D0 06 25 29 9C 17 EC 23 A4 07 0B 15 EB 1A 2D EF F4 04 02 E7 F7 FC 10 07 F6 06 12 EA F8 BC 31 EB F9 0A FD D6 10 ED 05 D7 0E D7 0E E9 23 22 DD DC DA 58 DB 38 21 2F 13 12
CB F3 C2 28 1A 05 3A D0 37 0A 11 12 F3 39 01 0E 34 D7 E3 10 5D E3 F6 00 46 48 24 2F EE BA F2 FB 3B BD B3 30 BF F6 FF 0E 39 0D 23 07 AF DB 09 FA 28 2F 31 1B 0C 16 D4 E9
01 D9 F5 ED 41 B8 2D F9 08 E0 2D B1 03 15 08 FB 1A 15 E4 D8 FC EE FE FB D2 FB E3 F3 F5 1F F7 E8 1B 1A 08 F4 16 D7 01 B9 FF B8 B5 EA D5 FA 17 DF 0E DD 12 81 0B 0F DE ED
09 EF C2 FA E4 13 16 C0 06 CC 02 1E 1A DE E2 BD 5D D8 48 05 B0 0A 29 F4 24 08 F5 29 24 C3 F3 EF 0C E4 D3 26 00 EF 00 0E 1A 15 ED 0C EF D3 0C 25 0A B9 12 ED F7 0D FA D2
0C FB D1 FC 33 ED C8 C4 E6 40 09 F6 03 61 AE FB FE 16 DF C0 06 2B E3 F1 CE EB EE 08 F6 E6 0E C8 3A 25 E1 16 98 F3 03 F0 23 02 0A F6 A4 F6 4E A7 F3 1A 09 DB FA F4 27 0E
1D DF 0F E3 D5 F6 E6 E7 9D FF 4F D2 25 DF 0F 0E F9 EA E0 27 DA FA 29 0A C5 21 C0 F8 F5 10 22 FE 42 12 1F F1 0D 00 08 F6 21 2A EC ED F8 21 F3 F7 15 01 F0 D8 25 2C F6 1C
D5 FB 06 E3 2F 04 06 8F 1A 0A FC 0F 07 DC E4 D3 F9 24 F3 C3 EB 0E E2 F6 EF E2 F7 E7 E7 EA 10 0C F7 FF EA F4 F4 09 08 18 17 F1 FE 29 0C E8 F9 25 1B FE 11 DE F9 EC 07 F2
A8 EE 04 F0 CB FE 05 EA E3 D3 00 E4 10 F4 E1 E2 0D 15 01 F7 E0 02 FE FB BD 1C 0A 0A CE D9 F1 F7 28 14 F8 F6 0E DF FD F1 F5 F1 E6 15 FF D1 0C D5 D0 F4 E9 DD FD 1D FD E2
E7 1E 1F 0E C6 23 1F E0 07 17 F3 0F DA BC F4 01 CA 24 14 1A EF F5 23 F6 B9 06 02 31 3C 98 FD E8 F4 27 FB CA 20 2E F4 FF 0A 13 0F F1 0C 06 E5 E4 1A E3 34 C1 FF 0D 1E 0B
02 20 2E 0E F9 07 03 E1 F1 E9 15 E2 26 1A 22 17 1C 31 44 9B 27 F8 23 05 3A 11 2A 16 C8 19 FB E0 EA E6 2B E5 07 02 05 D2 EF 91 FF DD 2F EB 31 0B 12 FF 29 02 E4 14 D2 11
12 CA A2 39 20 F6 04 D7 00 DF 03 0F C7 E9 CF C5 0E 1E C8 03 C5 0B ED F2 0A 0F F3 F2 16 E8 F1 F2 E3 0B DA E3 CE DC FA C7 CF F9 F4 E5 CC CE FB 02 32 1B 09 FC F7 DE 02 F5
28 B0 32 D6 0C D6 D1 DE 1C 0A 20 EC F8 0E FC 9B F5 DE E4 11 07 F6 CB F8 09 D5 C4 E2 CF 1C 0A E4 DD A7 2D CA 15 BC 08 0D EF 11 DF 00 EC 17 2A 0C 0E E3 0E F2 C8 01 0C 2A
FD 33 99 F9 3B FE 23 15 03 01 0C E2 D7 B1 D7 16 EB CD E1 03 C2 F0 12 F9 04 08 E4 0D F8 40 23 06 00 CE CA 04 F6 ED 00 DB 01 05 1D 04 24 D5 04 0B 0F E0 13 13 EE C6 F8 B4
F2 11 F4 D4 14 0F FE 19 FC FB 00 EE D8 F1 CC F0 01 42 1F 41 9C CB BF 02 08 A8 F9 08 EC 30 E9 31 03 9A DD F9 12 DA FB F2 10 0E A0 28 BD E1 08 13 4D 0C E7 1C 02 17 03 DB
F7 0E 1A 04 FA 00 F3 02 16 38 FD 3A D0 F3 EC 12 EA D2 14 03 EA 1D F7 F1 16 D9 16 E4 F7 21 ED 20 10 F2 0C EB 09 28 FD 18 13 FE 20 2F 36 2D 09 11 13 ED DE F6 0A 0D 28 FF
F7 EC BB 01 01 11 01 14 F5 06 F1 F3 BE 12 0B F8 CB 0D 4C 06 0E FF 10 FB F1 D9 1F E3 03 F7 EA 27 DA 0B D2 09 F5 0C 00 D6 FE F9 0A 26 EF 13 FA C2 F4 FF 19 0C EA F8 ED B9
01 42 DD 00 13 F4 DA D6 F2 0D 08 13 07 D4 CF FE F4 E0 ED FD 03 EE EE FF E6 18 08 E5 01 1D 05 1B EA 1E EA 1B CB 03 01 17 14 0F 23 08 EF CE 22 0A 1A FA BF F5 D4 0A EA 2E
47 1F FE FC EA 37 E9 15 C6 1E 15 13 C7 B0 E2 44 0C DF FB 33 FD 18 1A F8 FA CC A9 18 11 9C 29 AA 0D 12 18 0D 22 0A F4 26 FE ED F2 29 1C 04 04 F5 80 F4 D3 20 2B 3B 2D F2
06 E1 0B FF 23 02 8B 3E 09 0F 03 CA EE 07 10 E5 0B 01 EE B6 32 0C D7 FC 12 F3 E3 28 C5 DA 18 E1 17 F7 10 17 22 F0 FB 17 01 1F 24 0B 18 1E E4 E6 14 12 D6 14 27 EE EA 28
11 80 F2 08 E3 83 00 DB FC B9 18 DA EF F1 C6 F5 EE 04 DC F1 FD DF B0 FD 27 09 0D 0D D6 23 12 9E E3 22 EA F6 ED 10 FC 27 E9 11 F7 2C D5 BD 16 FC F5 E8 99 E7 16 D5 19 0A
F7 7F 1B ED 26 DA 02 E6 0C 17 44 2C 27 1D 25 BB 0A 2E 4F 80 2E 90 23 F2 2E D9 29 2C D9 A3 F6 EC DA CA 2F 04 ED 06 FE F0 20 FB 04 BA B7 F7 E7 1B FA 0E 16 18 F1 2C BF CA
1F 2B E4 D9 BD D9 33 CB E6 BF 0B ED F4 EB 41 CA DB 0C 19 DA FC 16 27 0B F9 F7 0F F1 22 FA 06 F5 C7 C4 01 E2 26 E3 F7 E7 B0 EE FD 1E F3 E9 DD 1C 1A 07 24 F9 EF 26 24 F2
B4 E4 F5 DF B3 DA 17 EF F4 9C F6 E6 C6 10 04 D4 CB DD F4 06 C1 E1 F5 FA CE 05 0B 04 F6 20 E2 D3 E3 14 9A 01 E5 CC F9 BB 0C 2D BD FE D3 E2 FB F6 E1 37 2E 06 F4 FB E2 DD
F2 08 B0 D9 EF 24 FF D2 CA 03 10 05 27 E1 00 F7 F5 E9 C4 3E DC 0B FE F0 BF 20 C4 FD 2F FA 00 08 FA E3 18 13 2B 06 FA F6 3F F2 29 0D F6 0C 8C 16 FA D6 E5 DA AF 22 F7 FF
D2 EA 26 4B D8 A7 F5 23 FF 24 2F 15 0C 14 FE 3D F4 0A 07 BE 4B 13 07 F6 FC D6 F9 2A FA 80 12 BD 12 12 15 22 FD C8 FD 31 E1 AC 51 07 08 18 26 BD 0D 1B 16 4E E7 12 3F 1D
DB 00 01 E3 33 18 25 BF 1F FA 1A E6 17 4B F9 DC F6 CD F1 FF 11 FB 03 05 41 BE F9 F0 A9 0B ED F1 D3 42 BB 30 29 DE 06 2B 21 24 CA D7 07 FE 2B A6 02 C5 1C 80 1B E9 FC F6
24 1A 05 14 EB 22 F4 DD E5 09 DD 07 D1 E0 F7 32 07 00 3E 03 0C F6 02 01 05 FF BB E6 22 03 F0 CE F4 A2 2C D9 15 D8 FB 12 EF E8 F6 D8 41 ED F3 B9 80 FA F8 F3 0B 1A 0B E2
FF 2C 00 43 FF EB F6 FE FE DE 09 DC 06 2F 0E F7 3D 29 07 A6 03 24 E6 EE F8 38 FD FE D7 9D 30 D7 29 0F 01 08 E6 DC FB ED 01 08 08 10 DA 1B 51 AC 1D 07 23 F8 C5 0E E2 11
34 CB 91 34 1A 02 D9 89 03 2B F8 0B 0F 1F EE CC 1F 05 F8 1A 13 DF 53 F7 F4 E7 00 F1 E1 AF EE 24 D4 D5 FF 0D 0F E3 FC FB EB 01 12 FF FB E2 1F F1 40 FF BF 4B 0B E3 00 1D
DE 1E 0C 34 21 DA F5 D9 1C 09 1C F6 1F 10 A9 F9 DD 0B B2 36 E8 06 C9 02 F3 1D D5 30 02 BC 18 DB EE 1A F8 EC B5 00 F2 23 E0 E9 0C B9 CC F6 D6 25 F3 EA 1D BF 93 E5 D2 0F
09 13 1E 2F AC 29 F9 FF F8 DE F6 01 F5 DF E1 2E F6 1C 39 D7 32 04 17 04 18 DD 1F EE F9 04 BF 0A CE FD 0D FA 2C EF FD 12 ED 09 12 E7 1F D6 00 E7 C5 D2 07 05 11 EB F3 0E
0C F5 F1 F9 DD 20 F9 BA EC D3 0C 28 FB 32 90 80 36 EE F6 E3 58 EC 13 01 D0 F1 DA F7 E0 F2 4A 3E C1 18 0B 80 FB C7 F4 D5 CF F8 F9 C9 D6 09 FD AF D0 E7 FB 0C CE F0 BE 0F
C6 2E DE 5D 13 2E 0D DD 0D B7 E9 CC F7 21 26 E4 F0 A6 11 2D 14 9E 20 00 12 42 17 1C CA FE 28 E5 0C FB 3C EB A2 E8 F9 F7 E0 D8 7F 08 BF 4E EA C2 DF 0D 4C 19 EE 1F E6 EC
11 A1 D9 E3 1B 1F 36 0B 15 1D 03 21 FF F2 DD D7 E4 22 D9 3B 01 0B D5 FF F4 07 F8 28 0D E1 C9 3B 39 D8 09 06 03 13 F4 17 0D 3A A1 E8 19 0A F3 FB D5 29 03 F8 E0 05 1D F2
07 FE EC 06 9B FC 0F E0 FF F9 F2 1A B9 97 FD 1E 00 D2 F1 ED FE 1B FB 04 E8 17 23 EE 07 16 BE F8 F6 F3 EF FA 0B 0C FD E9 13 EA E8 FD 1C FA FD 0B 80 14 C9 11 2F 1F FE 07
26 01 F6 05 05 08 18 E4 06 12 1E EC F2 1A E6 09 2B C7 21 EF 21 FB 2B F1 12 20 0E F1 18 F6 27 1B 0B 2D 3B 07 26 0D F4 16 1C 0E 18 33 F8 F1 D8 F7 34 F8 13 10 CB EA 02 05
11 B9 0C 0B 01 DE 01 05 16 08 CC 19 08 FE DE F6 C0 18 E8 B8 C1 D8 EC FC 10 0E F8 07 E1 05 FE FE C1 FC C4 32 F6 CE FF 10 DA FC F7 02 31 E8 0B B9 28 00 2E 10 05 E6 CC DF
EF E6 DA 0F F0 18 22 B7 E0 A0 FF 14 E3 97 A9 D0 18 A9 FA 1B 2F 11 FD 02 BA DE BA 06 20 00 D5 EE 03 E4 EC EC FA AB F7 39 14 07 CC 1A E1 C5 F7 0C EB FA 17 EA 07 16 06 35
EC 2F 1B 2D F0 E5 FA 12 FA E6 FF 28 1D 2A A4 EA 16 F5 CA D6 D7 1A D3 03 25 03 0E 1F B5 27 07 E5 2C FD E6 17 CB 2E FE 08 1B 28 21 E4 10 F9 CE C9 DF EC 06 12 C5 08 20 04
AA 82 10 1C E7 D0 F4 CB 1A 06 03 DD 08 14 D7 E9 EE 18 D3 FD DD D8 E5 01 33 24 13 0E EA 11 15 A4 CC FD DF EF 00 0A F7 0B F2 DB 06 CB 03 D9 F9 F9 14 F7 DD 03 DA F6 C6 FA
E3 90 E3 23 45 CC D0 F0 21 1F F1 A3 DB 2F 03 D4 22 02 D4 C4 1C A7 E1 02 16 EE 07 F8 8F A5 05 ED 06 10 F9 29 CA 20 04 D2 ED 16 1C F2 F8 DA 98 EF EF 63 C7 3E 33 FB EF 27
17 05 D9 E6 80 03 18 D4 28 EB EB C9 20 0B 2D DB F2 F9 09 DB 1F EE 04 0C 01 05 2A FA 0B E4 20 0F EC 39 1F 0A F4 04 FF 07 D6 0D 02 DF 42 D1 E0 F7 22 DC 0F DB A0 D8 FA B1
08 C7 9A 29 E5 F1 1D 19 19 05 2B 0B 0C FE 1F 10 F4 01 1D 18 25 1B 05 06 1B 1E E3 11 22 25 E9 D5 2C C3 0A EA 02 16 00 03 3B 08 DC F5 04 F6 07 F6 13 1B 09 1A EF 14 BF 14
CE E8 F8 0E F1 A5 CF 0D E5 10 CD C1 19 FB 05 E4 10 14 1F CF ED EB 1C FC 07 CF F6 11 06 18 20 BE 01 03 05 E3 CF E0 FE DE D0 CB F5 EB E9 18 17 E6 F8 D8 25 E0 E4 D8 FF F4
AB 3C 44 20 F4 11 F3 0E D8 08 02 FB EB 18 09 F5 16 FD D8 EA 13 3E F2 F9 0E FB 1C F3 02 0F 2E FD FE F6 22 14 BF 0A FB 0C 29 EE 25 08 0F BC 2A 0D E0 E9 16 DE 30 26 F6 E0
04 0A F2 29 E5 EB 17 EA F3 2B F4 1C D3 C5 E1 CD 06 F0 C2 32 1C 24 F9 F5 D1 21 C0 2A 37 80 29 DD 27 F9 45 0C 0F E8 F6 27 1A F9 E6 01 F4 03 09 13 0A 0B 19 05 02 17 01 0E
EA FD AC 18 EF C5 27 03 D6 FD 00 F7 F5 E4 07 E6 F6 01 FE FC 3E 17 0A FE 17 01 4F FE E2 C7 D3 E0 08 28 01 32 29 EC 00 19 0C 12 12 D5 EF 0E E3 E2 00 2E 40 22 0F C7 04 DB
0E E5 00 E3 CC 04 FA FE 19 1A E1 F4 EF C6 E9 2A F5 01 CB EA EF D4 12 FC 0E 01 F3 3E 14 B2 FB 16 E2 42 06 EE 10 0A F9 12 FB FB 05 F8 CB 0B E2 F7 CD F6 02 E4 15 F7 F0 12
F9 36 31 1F 87 FC FE F8 80 E6 EE 34 19 80 07 0B F8 F4 2C 1D FB 1F 10 F3 F9 E6 FD 2D 12 CA F6 09 2A E5 0E FD 05 16 00 01 29 FD 0E 0B 26 0F 01 F5 80 C9 F7 F3 28 30 23 24
EC A1 E2 F6 9B 12 08 19 F3 15 FA F8 E0 B9 17 18 D3 0A 10 04 D9 3D 02 00 18 2B 38 01 CC CC 13 05 06 AC 0A 15 09 4B F0 24 E6 2B 0F 1B 36 10 0B F4 30 1D 1F FE 04 D1 10 F7
00 14 EE EB 9E F3 E6 E7 B6 12 0F F1 D4 80 23 03 F8 14 E6 0B 0B 1C 1A F6 DB 11 19 FB 0D B8 F0 19 CC E4 32 EF DD 2F F7 E5 19 BD F0 06 DD 2B E9 02 23 10 F9 EA F2 FE 02 22
D8 00 07 FA 80 BA E3 C0 C6 D4 25 09 22 D9 F2 1C F1 20 0E CF 0A D4 F1 FF 24 EB 25 B4 E9 16 01 26 F4 FC 07 F1 FE FE 03 02 DD DF 17 1A 0F 18 0F 13 EE 27 FA 0F EE 04 00 10
CB 01 16 0B A0 09 F7 EC C5 E8 FC F7 D3 C9 E3 B2 13 FD 15 09 EE 27 D1 04 CE 23 FC DF E5 B3 0C CA 25 00 22 EA 1A D7 05 0A 0A C6 F3 01 2E 26 DD D1 B2 28 E0 35 08 0A DE 01
33 09 F7 0B B6 0F 1C C7 FB D2 0F F0 E8 EC 0C E9 15 29 30 EF FD 05 2A F0 10 0C 19 DF 24 15 DD 0A E1 0E 03 F9 FA 0E F8 9E F0 F7 28 19 E4 F6 DF 04 48 20 08 06 ED FF 19 17


