F3 E5 33 2B D1 0E 02 AA FE FB
CB 4A 34 1A FB 7F C9 DC D0 F0
ED 37 5D DF CD EE 23 F2 CA F3
15 5A BC D5 BC A8 DC F0 E0 39
BA 2E C4 09 FC F7 01 CF 65 48
0D B5 B5 27 0D 38 DD 0A AB 05
3E D8 1E DA 05 B2 E4 DF 3C 07
12 F4 F4 ED F4 D0 5C 00 C1 EE
0C 55 B4 D2 0A EB 12 F8 26 DE
08 F5 D5 CE 15 CA FE D0 50 FF
50 01 EF 22 D1 14 E1 04 E0 E5
BA ED FF EB C9 0F 42 28 42 28
01 22 17 29 4A F4 17 DF B8 00
37 3D E7 DC B2 C5 D5 E6 B2 73
18 11 D5 EE D2 FF AE 2C 9C 43
95 DA 3B 1C 00 0F 01 11 E3 F2
D5 42 CE 12 E9 37 18 CC D6 1D
11 B1 35 F4 47 13 1C F8 E9 D9
0D 70 CE C8 C4 BC 26 2F FD E5
02 CB BB 3C DD F0 B3 32 02 52
B9 65 CD 08 BC 21 03 CB 0F 4D
F6 C3 C9 12 17 2D E6 5C 2B E4
2E 34 50 D3 93 24 D5 DE FD 1D
F6 25 FD FA CA F3 C4 F7 53 48
2C C6 FE FF 48 FC F9 4B D1 D9
28 CB 59 DE 02 DB C5 2B 2A 9F
31 C9 E6 11 C8 75 ED FE A8 F7
19 ED F6 2E DD 1B 36 F0 29 EA
38 D2 B8 35 17 EA F4 D8 12 3B
E3 C6 19 E4 1C 0D C4 3D AC ED
20 FC BE 4F D5 DE C2 CF 36 F8
DD 04 C8 3A 36 D0 DA F7 0A CB
2D DD ED D9 12 E3 BD EA 55 1B
FD E7 EE BF E4 D5 F6 13 3F 46
DF 25 E6 EF 7F D8 F7 DF FA 17
80 53 02 01 1A F5 00 36 B7 F5
F1 BC 11 F8 25 1B 2E E2 AD E3
0A C5 D2 D9 F1 F0 3B BF 02 A6
F5 EF D9 0A 2C DA C6 09 05 31
AE BB E4 F9 09 0A FE F4 9D 9E
13 FD 28 E9 FE F1 E8 6A CC E1
3C 43 1B 2D 23 E7 DB BE 26 0A
34 2B ED BD DA C8 3E C2 23 F3
D5 C8 28 4B 03 E9 2C DE D2 BE
C3 D1 E8 DA F1 DB EC 0C 1F 7F
4D 13 47 EA 0E C1 DD CB 01 DF
DC F3 2D DE 29 0D FA E6 E1 E2
E0 24 0E F9 15 1B BC EE 5C 3F
B5 F0 B3 20 CF 33 09 F5 2A DB
F3 45 16 19 AC 1E F3 EF 55 14
05 0E BA CD 26 0C BE 49 27 2D
FF 2D 1B F2 C6 E2 4C EA 2B 15
29 C4 11 19 4C E7 AC 2F F5 BD
17 37 2B C5 60 CB CC F0 FF BC
D3 DF 27 1C E6 25 E1 09 CF 01
12 D4 26 25 DD 20 C6 0C D1 DF
