E9
E6
16
19
11
E6
13
F6
1A
F5
0B
0D
FF
0A
25
F5
E7
EA
F4
01
ED
F8
25
21
08
F0
F3
05
23
E7
FC
F3
EB
07
1B
FA
0D
02
D4
06
1C
1A
1C
EC
18
0B
F7
F4
00
F7
2B
21
E5
F9
F2
EE
E9
EF
E2
26
FE
24
2B
E8
08
03
15
1C
DE
F2
25
1F
DE
FC
F7
EC
F3
09
E4
08
03
0D
0D
F6
E4
14
0D
DC
C8
01
FD
F5
EE
21
EB
D3
FC
F8
0E
0B
25
F9
04
DC
E8
FC
ED
F5
EC
01
14
E8
FF
F7
F7
24
09
0B
FF
10
ED
DF
F5
00
00
EC
DB
18
F1
F8
1B
11
07
12
E3
09
F2
F8
D4
1B
F5
F5
F7
D4
02
EA
F1
35
F3
E6
EF
EB
F1
0C
FC
28
27
E7
21
F6
05
FD
0B
17
E5
FF
1B
F4
CF
E2
FC
F8
30
F2
F0
DA
FF
E8
0D
19
F2
1A
DC
FB
D4
FE
1B
FB
2F
E0
08
D6
E8
08
FC
B7
08
06
E4
FE
58
F3
F4
F8
1A
02
23
D6
F0
14
FD
A4
CB
14
29
1E
5F
E6
F5
C9
06
E6
CD
28
00
F8
12
BD
F9
33
FC
DA
55
E0
F8
03
01
04
EA
D1
F1
F0
EE
FE
36
FE
E0
10
0B
24
E3
0A
ED
1A
25
E0
ED
D7
E5
FC
06
E3
20
26
0F
FB
F9
EB
E7
1C
03
22
EE
E6
05
F8
0B
16
F8
00
06
F3
EB
FC
D5
1B
01
F6
06
18
F6
F4
F3
E8
F7
F9
FF
F1
EA
14
F7
06
ED
F1
FE
F9
05
F8
17
F3
1B
FA
EB
F3
FC
E0
EF
E2
14
E5
FD
18
E6
2E
24
0C
FA
DA
02
EA
19
11
FF
F4
06
ED
03
29
EB
E3
10
EE
E6
09
E9
0E
0B
09
05
EC
D9
02
04
2E
E4
F5
F2
0B
EF
16
02
FD
02
DF
F1
E5
DD
19
FE
29
DA
EE
2B
1B
12
E4
F8
0B
26
19
E1
0A
0B
CB
FF
1C
07
F8
03
02
F4
14
DC
06
11
DF
F9
17
F4
E6
E8
F9
FC
1C
F7
EB
FD
02
08
2E
00
FD
FB
FA
1E
16
E6
04
EB
23
EF
EB
23
10
F5
2B
14
06
0B
21
1E
D7
