10
FE
17
D6
17
D8
14
04
FD
12
13
EF
FC
E3
01
E2
F6
05
F4
07
00
0A
FD
FF
0D
18
FE
0D
F8
F7
02
04
28
16
E0
03
EE
10
E6
C1
F6
F8
08
FF
F0
12
03
00
14
0F
FF
05
08
0A
19
0F
08
EE
0C
F4
01
FD
DD
18
DE
15
05
DC
02
1C
FA
04
43
C3
E0
10
F9
EF
F6
EE
1F
13
E5
F7
E6
E3
0F
D7
D9
2A
DF
E6
08
F9
EE
15
25
E3
FB
00
02
F4
F9
E5
1E
10
02
1D
F1
0E
02
C1
18
FF
FA
0E
F3
01
FD
E3
F9
E9
F1
09
E9
05
0D
20
DC
02
FF
3A
F1
F4
1B
E4
E0
F8
F8
20
0C
ED
F2
1B
F8
28
18
D4
0D
EF
EA
0D
1C
F5
E0
EF
F9
F8
EE
01
FF
22
F9
F4
ED
FD
F2
14
0B
F8
24
0A
F3
1E
19
BC
EF
02
D5
F0
FE
04
F1
CF
E1
1C
D3
FE
09
F9
14
2F
F9
1A
DD
EA
E9
E9
E6
01
13
E5
0D
11
10
14
1D
2A
F0
EB
DA
02
1C
13
13
00
0E
FA
F8
DE
14
FB
F9
10
02
F9
03
05
07
DD
02
01
C5
0F
0B
01
FE
11
ED
F9
FC
02
07
03
02
0A
0B
0E
F1
07
1A
10
F8
05
FA
09
0D
FC
08
1C
0E
1A
FA
1D
CA
24
22
08
EF
12
07
F3
18
06
FE
FA
26
15
12
09
F5
EA
0D
24
FD
0C
14
C0
FF
0D
E8
EE
18
03
F7
2E
4B
0F
12
F4
EB
FF
0D
17
FF
10
FB
04
FA
FF
14
EB
1B
0B
02
E3
FF
09
1B
00
E3
0A
F8
D8
ED
07
09
36
EA
2A
F7
18
20
D2
FA
1E
FF
0D
D7
F6
19
27
0A
F8
27
0A
15
09
0A
02
2C
F6
06
F2
FE
02
F1
E3
09
19
CB
F0
FE
F4
22
EF
E4
04
CD
EE
15
F6
FD
15
F6
07
00
FD
FA
0C
FC
EF
10
21
23
24
0A
F9
FF
04
FE
17
17
EE
1B
E5
E3
12
0C
D6
F8
00
16
11
F7
01
E2
E0
01
16
11
07
31
02
ED
1B
D6
F3
E9
FB
FE
11
24
EB
1E
E8
06
E3
F2
CB
13
FD
E5
09
CD
D5
CC
D5
E4
DA
20
F1
D6
E0
F1
F9
11
FE
23
EE
E9
06
22
D1
E5
F1
FF
12
FA
FA
FB
0A
FA
11
F6
EA
E7
04
FF
FD
01
02
E4
0E
05
F1
07
F6
0B
FA
FA
F6
FA
FF
1C
E0
22
06
0F
00
0A
07
FE
07
33
EB
13
0C
D0
35
1E
17
F6
E8
00
FE
16
02
F4
03
02
00
EE
11
21
15
FF
13
F1
E8
09
F9
F5
E1
04
01
F6
E7
F8
04
FC
F0
19
C9
F7
CA
D3
EF
04
00
F0
03
F5
08
F9
E3
23
19
12
FE
FB
01
00
0D
28
F4
0B
07
ED
F5
09
EC
EF
F1
22
FB
06
03
F2
26
F5
F8
0C
FA
07
E6
00
FB
30
2A
11
E6
10
FA
20
E8
00
FD
EB
00
F5
DB
3F
1F
13
0A
10
11
01
E1
F7
10
F2
F9
2D
FB
25
EC
F0
FF
C8
1B
F2
FF
26
07
E3
F1
F9
F7
E3
2E
22
F5
04
08
43
01
F9
06
1F
F8
DC
DD
13
FE
0F
FD
0B
E7
30
22
E9
FD
F2
FA
F3
0F
D2
F6
19
F2
20
FB
02
04
DD
09
F5
02
13
12
DB
F2
F5
0D
FC
0C
F4
04
E3
03
DB
0A
03
0A
F6
0A
0E
FF
E4
FB
FA
F8
E7
0A
07
18
F0
08
DA
F0
FD
EF
21
0A
F0
F2
EB
0D
EE
F3
18
E2
D6
E1
F4
1C
0C
C0
10
19
CF
08
32
F5
F3
F6
05
E6
EE
04
F9
07
05
F6
F1
06
06
23
DD
18
F6
00
15
10
11
07
09
23
0B
F7
FC
F7
E0
09
02
0B
0D
03
2B
0B
0B
25
E7
0F
00
EA
16
35
DD
11
1D
07
0F
04
11
0B
C4
11
F2
DA
14
1E
0C
FA
FB
06
F6
FD
05
EE
1A
D6
ED
15
01
EA
28
1B
EF
F4
E1
D6
D9
0E
FE
04
FF
16
06
ED
F8
FB
DA
ED
14
1E
CF
13
EF
FC
F8
0B
F6
E4
0F
2D
DE
00
FE
E6
02
0E
11
D5
D6
FB
EC
F6
F1
17
E3
F4
00
E2
0A
1B
F2
E3
1A
15
02
08
04
FD
04
07
27
1B
D4
13
01
FA
18
FC
08
E3
19
06
08
FB
08
FE
0A
FB
FC
0B
21
FB
12
0C
D7
F7
FA
15
FB
2E
02
FA
EB
FE
01
E7
F6
08
01
00
E4
E6
F1
F0
08
F8
FE
FB
04
E4
13
06
FC
06
23
20
24
F6
E1
05
FD
E2
1E
D6
E5
0A
F8
01
C6
F4
FC
D4
FD
F0
03
2A
EA
FF
E9
03
FE
0E
11
08
08
E4
06
DA
F9
36
0E
F9
0C
F2
F2
F7
17
FB
16
31
12
1C
CF
2C
D4
1A
11
0E
0B
F4
0F
00
20
DD
FB
E5
DE
F0
F9
EB
E7
CA
09
E8
06
1B
22
30
DE
F3
23
0D
08
17
F6
BD
0E
FF
03
18
21
09
F1
05
DF
0C
25
03
22
01
FD
03
12
D6
E9
CF
FD
33
F1
22
24
0F
1C
D3
E7
FC
13
D7
0B
12
03
EB
EB
F2
DC
F6
05
07
13
E4
1F
DF
00
FB
0C
10
09
F5
F9
07
FD
B0
E7
12
F4
F3
D0
DA
EF
0A
F9
0F
F0
1A
F8
05
04
FE
26
FC
EB
D7
BF
EE
EC
F6
DB
F1
03
14
F6
17
11
FB
35
2A
21
FA
E9
09
0A
ED
0D
E1
E8
04
F9
FD
DC
F9
00
02
C0
F6
F5
23
FB
07
F3
B2
06
03
D8
E2
FA
FA
D1
FC
F7
E4
E9
D4
2A
05
F8
FD
E6
CE
D1
03
1B
09
1C
05
F2
02
FF
DD
03
F3
E5
02
FD
F8
0D
E7
28
F9
F9
08
10
15
1B
F3
FC
E1
05
18
00
06
E3
FA
0F
03
BE
DC
1A
0A
00
16
14
05
ED
DD
10
49
F7
F3
27
FD
E3
07
17
CD
0D
DC
FC
E1
23
0A
EE
F4
00
FB
05
19
16
DD
E0
ED
C6
EC
F0
E6
F0
D5
F3
1A
EF
1E
07
F5
EB
F6
C9
0E
E3
ED
FF
F4
1D
D3
E6
FC
DF
F7
02
03
04
06
DA
05
EE
03
F7
DD
10
03
F6
FF
1D
1E
0A
13
FF
18
E2
EE
0B
F1
0B
1A
05
DC
FB
C9
16
F6
CE
1B
F2
FC
FC
13
05
C6
05
FF
FA
04
F9
F4
1F
FD
DE
10
08
0E
F5
02
F9
FD
F0
FC
06
E2
19
20
FE
01
F3
FB
17
17
10
11
04
10
04
F7
E1
1C
17
1A
08
08
0C
F5
19
FA
06
EF
0E
03
15
EE
0B
08
0C
1E
F2
F8
05
E9
F9
1B
07
FD
F8
12
EA
EB
F8
EC
10
E2
D9
DB
06
1C
C7
EC
0E
14
0A
E7
23
F5
12
F8
15
E9
F7
07
11
FC
0A
DD
E3
DA
10
EE
0B
09
26
19
EB
DF
F9
F4
20
10
14
30
E6
04
04
10
1F
09
26
AF
0E
D5
FB
00
22
F9
F2
00
DD
EC
F3
E6
07
0D
E8
EC
00
F1
1A
FC
17
11
FB
0E
1F
19
10
20
F3
1F
1B
D7
03
F6
04
F3
F5
FC
3A
04
01
F8
EA
FD
FF
E4
FC
E5
19
EF
FC
F4
17
E4
14
FE
08
02
FF
E9
E9
F6
13
26
14
03
F8
FF
CC
03
04
DF
E8
DB
F0
3D
08
EF
DE
CA
2B
EB
06
C6
0B
07
EC
FB
D5
F0
D6
C6
EA
F9
20
09
D2
DC
E1
FA
FA
FD
0C
09
13
12
18
C8
F7
FA
01
0F
0E
0A
F2
ED
EE
07
E6
F4
00
FF
07
EC
E4
F9
EA
17
FD
F9
09
F6
F7
EE
06
16
EF
02
13
1B
1B
01
F9
E7
EA
0F
E2
E2
D4
FD
0C
08
D1
29
F6
EE
F4
F9
0D
F9
11
09
F6
00
04
23
F7
0D
18
15
F2
25
E9
0A
02
0F
FA
05
1C
08
0B
EB
FC
E7
0B
D0
17
D0
09
F2
0B
F1
06
F2
EC
06
F0
EB
E3
E5
11
19
FA
DB
0B
25
EF
0A
1A
02
E8
F1
E7
EA
C5
FC
DB
04
EF
DE
F9
1B
08
0C
0E
ED
09
F6
FE
FF
18
F1
32
16
29
13
09
04
1B
E5
0F
06
FB
D7
DF
AD
DD
FC
D2
E3
16
E9
0C
DE
00
33
FD
F0
29
02
1D
0A
19
DD
FD
17
F0
FE
16
03
E8
DF
05
FD
D4
0E
10
0E
07
03
32
07
0B
FE
13
C6
E2
E8
E8
0B
FF
F8
12
E7
FD
05
EB
F2
E3
0A
03
0E
E0
04
FC
DE
0F
06
E8
14
DA
14
ED
F5
15
1F
E0
0F
F1
FE
1D
0B
F4
F6
E2
F3
B3
DD
D1
F0
07
D9
18
04
EE
E4
FA
00
F6
08
05
15
F5
FF
02
14
F9
F1
1C
FE
0C
C8
F4
03
DD
F9
D1
D7
C4
08
04
26
EE
B6
FC
1C
FC
1E
2A
05
07
F6
07
F6
0B
20
F9
07
04
EB
F3
09
10
07
F7
08
06
FF
09
0D
08
0A
06
11
08
11
FD
07
E5
04
EE
0F
EA
08
03
1D
F7
24
F3
02
07
00
1C
0D
D5
AB
11
1B
17
FA
06
01
0C
E7
E1
D6
24
33
FF
F3
FB
E8
1F
28
2E
14
1B
E9
EF
B8
03
EB
FE
E6
EB
DD
FE
D2
CE
E9
F7
03
F0
0C
18
F8
EA
FB
EE
E2
01
0F
EB
13
DD
FF
F9
2F
06
EF
02
08
F4
07
F5
F9
02
E5
24
D1
EF
F6
0F
03
03
0C
EA
E8
F0
D4
10
24
E2
DF
05
10
E5
15
08
F8
E6
FC
03
F1
BE
16
09
16
0C
FE
FF
DF
22
E8
06
06
EA
F9
0B
05
F8
05
23
D4
16
FF
EF
F7
FB
0D
19
0C
F1
0A
F3
F0
14
EE
E9
F9
F9
F7
F9
F2
F7
02
F7
F3
05
01
FC
FE
26
1B
02
F7
F7
18
04
F3
03
05
13
D4
0D
DD
05
0F
03
12
F2
FC
08
FD
11
FD
1B
FC
02
FE
11
FF
DD
E0
FA
F3
0D
07
18
E2
F9
2C
0C
EB
F1
18
0A
01
1B
00
05
24
1B
1D
CA
03
CD
0C
FA
08
0E
01
06
EA
CC
2F
15
EA
D2
10
DE
E0
EF
BD
EB
EB
06
ED
09
25
0B
D8
E0
F9
0B
18
EF
E1
00
2D
0D
0A
F1
04
EC
06
F4
FE
08
15
10
FA
09
05
09
C5
EF
E9
CE
F6
CB
07
F0
0B
1C
F7
E2
E4
4B
E3
09
FB
F5
C3
D9
00
15
ED
01
FC
E5
E5
28
D8
0E
E1
F9
1D
F4
F5
0B
20
06
F0
C1
02
13
F5
D1
EC
FA
26
F7
01
F2
11
FC
02
F6
21
0C
F3
00
B3
DE
CE
0F
11
01
F2
05
0F
0C
EA
1D
0D
26
13
27
FE
E3
19
0D
DC
2D
EF
01
0E
01
01
0D
E8
1B
D4
A4
FE
01
00
16
B7
C6
EC
14
0F
DE
15
DA
08
FE
1F
17
DB
F0
FC
0D
27
0D
BF
DF
0D
CF
03
F8
0A
10
15
DF
0A
02
F8
FA
F1
E6
07
EB
E1
1D
F3
22
21
11
0F
0C
10
20
0D
01
06
FB
14
FD
F4
01
02
08
F9
D2
19
FB
17
F4
02
F5
47
F1
F8
FE
22
1C
CD
26
32
FA
D4
0A
FA
14
10
DF
08
2D
0C
0B
E2
F5
F4
16
13
55
D5
01
E8
C5
02
12
BF
E5
F9
EF
1F
FD
14
18
28
0D
05
03
04
08
19
FF
0D
E5
BC
F1
1C
C6
FE
02
11
1B
0A
F2
01
07
D0
EA
E3
EC
05
F3
EA
1F
39
F4
0B
F2
15
F5
03
07
E9
1A
ED
12
F2
ED
CD
13
F4
F0
20
DD
12
12
1E
04
B6
FF
06
0C
10
EB
E7
22
F7
D7
F8
07
16
F6
07
F6
03
FC
ED
FF
F4
19
10
11
02
0C
F6
07
1B
13
F6
FA
06
EE
FE
EA
FF
F3
0D
0E
D9
2F
F2
10
EF
F9
E1
FC
F8
F8
FD
1D
F1
09
1B
EE
F3
FB
FC
FE
FC
F9
14
EA
F7
12
FC
D3
13
1B
16
FB
E1
04
1E
FB
FA
F5
22
27
F6
0B
FD
25
F9
13
01
F8
FF
EB
0C
39
FB
EC
0A
0A
20
06
DE
07
16
26
ED
E3
F6
1A
00
0A
39
EB
1A
F9
04
2A
D7
24
F2
FB
F0
F2
F6
21
08
29
DC
D6
F7
0E
EF
1D
CD
2D
0D
F6
F6
E9
19
16
0D
27
FA
11
1A
2D
FA
FB
CF
EC
E6
01
05
03
F2
26
ED
2E
14
FB
FB
EE
EF
FB
F3
F1
01
16
0D
29
FD
F3
1A
2C
0B
00
FD
25
0D
E7
20
FF
1E
10
34
E4
FF
B5
10
D7
E3
F5
04
15
F0
FB
E2
E2
D0
07
FD
F9
DD
FC
30
E9
EB
15
06
05
E8
DF
18
FF
F5
F8
2B
EC
FB
E6
D1
C4
13
37
13
14
A1
02
0E
15
0A
06
F9
03
E9
FD
0E
F1
E3
0A
0F
09
EF
E3
1D
07
3E
ED
07
FE
F8
F7
F3
F2
1E
1C
03
0C
DE
1F
F7
EE
18
D1
EB
DA
F8
F4
0D
F0
08
18
0D
0F
F9
03
EF
09
F0
F7
0C
FE
F4
F5
0E
1A
1F
E5
05
FC
1A
D9
F5
FD
0B
F8
F9
27
07
EF
ED
2F
DD
0C
D7
06
E5
00
01
07
0B
05
0A
E4
F1
20
EE
F3
D0
DA
1F
F9
C2
F5
14
E4
16
FA
03
ED
14
E7
EC
CB
12
FB
10
11
FC
03
18
13
FD
F3
19
FF
03
E9
04
0A
DF
F8
17
1C
F2
F6
32
E7
DB
05
F5
E2
F0
F2
DE
B2
DF
E9
EF
1B
F2
09
18
FE
28
CC
F2
06
03
03
01
F1
EE
0B
EC
F1
18
F5
E6
F4
E5
23
0C
F9
F0
FC
16
0A
00
0B
11
2D
FB
F4
0D
02
16
FC
00
0C
F4
E9
E6
F6
1B
EB
2D
F3
0D
16
DC
08
11
0C
E1
FF
05
E4
05
FD
0C
F7
F7
04
F9
E1
F4
E5
02
01
0C
F7
FA
DD
E6
0C
CB
18
05
F3
A7
0A
FC
13
E3
F5
1F
11
F2
06
18
F4
F7
03
09
E4
ED
0E
FF
E4
C0
DF
09
D6
09
35
F8
9D
E7
FA
02
DD
DB
F9
25
0A
1D
11
02
FB
EB
E5
F0
FA
25
EE
F5
27
0D
0F
08
10
0C
E4
11
0F
F4
0E
FE
0C
1A
13
15
FC
CB
ED
12
23
FC
16
FE
14
0B
DF
08
E0
15
0D
19
EE
0B
08
E9
08
E0
0A
17
17
04
00
05
07
DA
E8
C1
1E
05
10
F2
EA
F5
15
1F
18
21
12
07
01
C2
F7
07
F8
BA
F1
00
05
FF
E6
F1
D3
F8
22
E7
FA
DD
0A
F6
ED
D7
08
08
0C
0C
E0
F0
D0
18
09
E0
F2
FC
1F
0B
DD
01
03
CB
0F
DF
F5
FC
F5
EF
02
E5
0E
02
C0
03
13
0A
02
08
F5
1B
F1
18
0A
F8
EB
F9
E8
EC
FE
06
FF
09
0D
07
17
E9
0A
FE
11
02
E8
10
F2
06
1A
FD
11
E6
23
E1
F4
00
08
03
11
F4
07
07
FD
FA
11
02
03
F7
FE
16
F9
F6
0A
F5
19
EF
07
05
FB
0F
01
40
11
11
06
FF
EA
0A
05
05
E4
E5
0C
F2
F9
F7
09
00
F4
F9
FF
FF
EA
0A
15
21
F9
F5
F8
F0
D4
E5
21
E3
0E
EC
12
F7
1F
2D
17
E9
04
22
11
15
12
1A
DB
27
F5
0D
D6
EB
D8
02
0A
0C
2C
09
10
CD
EC
36
E5
F2
F3
EC
F6
CE
07
FD
E8
C8
F0
0F
0D
F1
1B
1B
F7
F3
EF
10
DA
F0
0E
04
F1
F9
08
04
02
F2
20
FE
CD
06
1C
41
02
DA
D5
CB
DF
F0
EE
F4
E3
04
E3
DF
F2
EB
F9
DA
43
F9
11
17
F0
D2
FE
FC
03
0D
D8
16
FF
F8
1E
E7
14
02
0F
F4
EA
E3
E7
F7
01
F7
0C
0E
FC
10
F9
30
FB
0A
F2
16
01
F6
04
FE
FD
01
11
EE
DC
F3
E8
14
E0
D0
ED
FB
E8
ED
EE
0F
E2
F6
0A
DB
00
FD
14
FE
DF
1F
1F
ED
FD
EC
08
FE
F2
FE
BF
FD
1D
F5
FC
27
06
F4
2D
C9
D5
C8
F5
EE
0C
E6
23
10
16
D0
EE
E3
28
C9
E7
DF
F6
E5
0C
F0
E6
04
E1
F7
03
19
E4
F4
1C
E5
0D
E7
0E
16
DE
0C
FB
B4
10
DB
02
F1
E0
07
16
E3
1C
E7
10
E9
FF
04
22
09
FD
E2
DB
FF
07
0B
F2
F3
F8
FD
23
2C
18
16
CA
2C
01
20
06
CF
14
E6
DC
2F
1C
03
D5
DA
0B
00
08
21
B2
15
0B
F1
9F
26
0A
07
2E
DE
19
F1
A0
29
17
E4
F7
FF
F8
11
1C
FE
03
E5
BB
27
E9
E1
FF
05
F4
FA
F2
0E
FA
D5
09
23
F7
05
17
E0
F5
13
E4
F9
06
04
FC
2D
D7
F6
FB
EF
1A
0C
10
DC
FB
FA
10
F6
DF
19
F4
09
00
F9
10
DF
E9
0C
DF
0C
1A
17
11
0D
E1
F5
00
04
04
EC
F7
FA
E8
07
F4
00
26
10
0B
01
F9
0A
F1
0B
F9
18
0D
0B
1E
0C
E9
13
16
1E
00
F7
CC
07
07
D5
12
D6
22
04
18
00
10
F9
01
04
F6
FB
FB
EC
F1
FE
FD
05
12
20
FD
17
30
F7
F6
20
FA
F5
24
F0
DE
1F
02
E1
F1
16
2E
E1
06
FD
EE
D7
02
FF
32
E0
CC
E5
FF
E9
E4
05
0A
28
E3
03
07
35
FF
E2
21
02
1C
11
13
EA
0B
2D
F2
F3
0B
16
0F
E9
11
02
02
E5
23
E9
F5
F5
E2
F8
FB
1D
D8
FD
17
1A
35
FA
01
07
CF
0E
F6
03
DC
F8
DC
1F
06
21
F6
14
FF
06
10
02
E7
13
1D
E5
F8
1D
18
0C
27
D5
11
E7
DC
0D
0E
FF
E9
02
10
1A
EA
F2
F0
ED
0A
ED
12
05
1F
F8
14
EE
02
DE
E5
F2
F6
35
0F
F4
21
12
18
FD
E8
E8
04
EF
01
E4
E2
01
D8
E7
11
F6
9E
DD
FD
08
02
04
31
19
0D
E7
D2
06
15
19
FB
F8
0C
00
ED
02
02
00
F6
10
0C
D6
FF
02
06
0C
F9
14
F2
FA
08
F2
07
F2
1C
13
DD
13
0D
02
2C
E1
02
F4
00
D5
E2
FD
DA
FF
E6
F3
2F
32
DB
0B
F1
17
0C
F0
FB
FA
08
07
F4
01
FF
02
F4
02
18
0F
01
FE
F9
F8
F1
E8
1C
EE
16
0A
08
DF
E5
ED
01
C6
14
C9
F8
E2
0A
DA
EC
EC
EF
F6
E0
FA
02
0C
24
E3
0C
0F
F4
17
28
FC
17
02
FB
F2
19
04
0F
2C
D0
04
04
F3
13
ED
BE
1B
00
E8
07
ED
0C
11
DA
0E
1D
29
F1
F6
30
E0
0B
DD
E7
EE
FC
EB
E8
16
31
F5
1B
FD
E8
13
14
E1
F5
F5
F0
05
23
08
F5
05
05
DA
BE
18
F6
1D
06
01
16
00
E7
F3
09
24
14
0C
FC
E8
0E
FD
06
06
0E
FB
E6
E8
0A
EC
FE
F2
FE
D4
33
08
15
F5
2F
E8
FA
F8
DA
0B
19
0E
1A
F6
04
E7
05
06
F8
D7
F7
13
BF
12
0B
0A
E4
1B
FF
EE
D7
E8
F9
09
03
02
FD
1F
01
03
29
F7
EC
D4
EA
07
F0
E6
DC
EB
F0
05
0E
0B
0D
FB
0F
02
E6
07
01
04
0C
F8
E9
F1
E9
1A
02
0D
ED
08
1E
19
0C
03
03
04
16
03
02
2A
EF
11
F4
E7
FA
00
DE
FE
F1
E1
F6
00
FF
0C
08
DE
0C
06
0C
1F
F1
04
D1
11
E0
08
FA
F2
26
EB
12
20
E3
03
08
EF
E2
1A
F8
04
FB
FC
18
FF
FC
07
DC
FA
F9
E7
C3
00
F9
F2
FB
EE
E2
CD
EF
2B
03
EF
E2
C6
17
E2
3A
2D
E0
EC
0A
F6
EE
FE
FF
04
C1
02
ED
0E
E3
FE
EC
3E
28
27
02
07
00
F0
F4
0F
0B
12
0D
13
E8
0A
06
09
0B
F9
13
D1
FF
0C
17
FF
C7
1E
EB
F8
14
00
05
26
ED
FA
00
00
EF
E1
E9
E2
E8
0C
03
F4
F6
0C
11
FD
02
17
0A
E0
00
F5
F6
02
03
07
00
02
EC
FA
08
06
F7
1A
F6
F4
0E
2B
15
0A
D3
F9
F6
D7
18
F2
04
1B
F4
1B
E2
F2
0D
DA
0C
F3
11
15
FC
05
0B
F0
03
04
1E
1A
1D
F0
FD
10
DF
D8
14
ED
E0
04
1D
03
CC
FC
F0
B0
F4
EF
F5
34
F7
07
EF
E3
0E
F6
0F
02
1E
03
28
BA
FE
2B
01
E2
15
F8
D3
15
28
F4
02
1D
11
02
E7
00
DF
1E
FC
F9
FB
00
FF
EE
16
0B
FF
F3
E4
11
08
FB
0B
DE
FA
25
FB
ED
11
1D
F4
0D
20
04
F3
21
C4
D1
1D
1F
04
F8
19
F4
ED
E3
D8
0A
2A
01
1E
10
F7
11
FF
C3
E7
EA
26
0E
C6
16
F7
11
0A
EC
D9
23
FE
F5
E2
F1
EB
01
C5
07
06
D8
FA
16
F4
D9
14
00
06
E6
16
E9
17
0D
F4
09
05
C1
E3
0D
EE
ED
CF
DE
09
07
01
13
FC
03
FA
F7
17
17
0F
E4
E9
D4
AF
16
E3
03
D5
FA
F5
F7
EE
F3
03
00
35
EE
0E
FA
0D
1C
E4
F2
1C
E4
FB
14
06
F4
C2
D4
DA
EC
E3
0A
FC
1B
0E
00
EC
E0
E7
D5
EC
CB
EE
E0
D3
16
F7
BC
EC
E1
2D
0A
FD
C7
E9
A7
E4
FF
03
FB
06
E7
12
10
DD
F5
1C
FB
E2
D7
E2
1B
02
E4
03
D2
F3
FD
F9
12
18
DA
19
F7
2D
1F
03
00
C6
F4
18
E8
FE
D7
22
0F
05
1B
04
27
F9
DC
13
27
F4
FB
12
23
00
E9
11
CF
1A
FD
DC
E4
1A
CC
D2
F7
0A
F5
F9
12
D3
EB
DD
EB
CA
1D
02
F5
10
FF
07
E1
C1
1D
25
A9
F4
18
C3
1C
E7
03
EF
01
10
EC
EC
F4
E4
FB
F8
E4
E5
04
F8
E5
E5
27
11
CD
1D
D0
D4
F5
F0
17
F6
E9
1F
06
C1
F8
F8
F4
0A
0D
04
DF
11
F0
16
FC
D8
28
09
0E
EF
EC
06
E4
F4
0A
10
06
21
FD
2F
09
C4
00
03
FD
01
01
E8
F7
F7
F2
0D
16
1E
0D
F4
F9
EC
0C
F5
1A
0B
0B
EE
08
1F
07
EF
04
F9
1C
EA
F9
F7
E6
E2
E4
FE
D4
05
08
06
01
1A
00
FA
03
E3
01
F0
08
FD
F5
FC
ED
FB
24
FB
D8
DD
F7
03
E6
13
E8
E0
16
D8
FF
F3
DA
E7
DE
07
26
10
00
EF
CA
EE
06
08
FC
EA
DD
EF
DB
EE
DA
F5
0D
13
FB
EA
30
D7
CA
01
20
12
35
10
E8
F6
1A
F8
11
0A
DA
09
AC
EF
F6
11
CE
15
01
EF
EC
D3
FE
D6
01
02
21
F8
E9
FC
05
0B
18
F6
03
10
07
17
1F
E7
2D
20
11
10
03
0B
F6
DF
E6
03
EB
F9
E2
DA
0D
0C
D3
E9
D6
18
05
EF
EF
02
F3
FC
06
0C
0F
D1
D9
07
17
24
05
03
05
CB
FD
F9
D3
1E
CD
F2
FA
00
3D
C4
FA
F4
08
16
0C
ED
E4
02
EC
D8
D6
CB
F6
D5
F9
14
FF
09
12
0B
F7
ED
F9
1E
FA
23
FF
EB
ED
15
22
E4
F3
FE
06
0B
F3
03
0B
DD
1E
EC
CE
F6
04
F0
F7
F0
DB
EE
13
FA
01
FF
F4
14
1A
04
09
FB
EA
FF
06
02
F6
01
B2
DF
27
EA
ED
D4
D8
FE
01
EA
FC
C2
E1
10
F0
F8
EB
EC
EE
BE
FB
0F
0E
EF
01
12
FC
E6
08
10
01
FE
01
1D
FB
24
F2
0F
E5
E6
FE
0B
99
0E
F1
F7
FB
1A
F8
DC
03
D5
FC
CB
E4
E7
E2
FD
FA
F9
0A
F3
F5
15
E6
04
F8
05
EF
ED
EF
F2
2D
C6
01
D5
BE
01
FB
F3
01
1A
DE
F6
FE
FE
11
EF
E5
29
32
F3
0C
04
02
10
CC
E8
25
BF
C8
F6
EE
D9
D7
06
DB
E8
DF
2C
D8
D7
14
F7
CB
1E
04
15
1D
16
F0
08
1F
F2
0B
02
E9
E6
16
01
0A
C6
FC
04
2A
F8
FC
2A
F2
1C
1A
2D
C9
E5
DB
FB
00
F0
F4
24
D8
28
21
E0
0D
11
12
FB
E1
F4
0C
07
F2
05
F0
F3
E5
FC
0E
F1
DE
00
14
CC
21
1C
12
E8
0F
E4
01
C7
D6
E6
EA
C1
F0
06
F8
EF
FF
0C
F6
F7
B6
D0
15
13
08
FB
DA
E0
06
FC
03
EE
11
2D
F1
FC
0F
F1
F4
D2
E8
E6
DA
FB
27
FD
15
F9
03
0C
1B
24
13
F2
01
01
1A
08
1B
13
15
0A
E7
0B
FE
E4
E7
EB
DA
FA
FD
FC
20
02
0F
D9
ED
03
2D
02
F3
E7
04
D0
03
14
E7
FC
13
05
F0
EA
FB
11
01
C6
0A
DD
EA
EF
FE
12
F5
F4
18
ED
E5
F6
EA
A4
1C
F9
07
00
EB
FB
EF
CE
2B
2E
E8
FE
B6
10
DD
3C
15
DE
EB
13
EB
E9
05
F3
F1
AA
F3
F4
F3
E8
E6
F0
3F
29
08
16
06
FE
E7
EF
13
0B
19
18
1A
E5
15
EF
1C
D5
D2
0D
B1
0C
E7
1A
FE
C2
F6
D0
FC
28
DE
00
22
E9
FF
F9
0E
D8
E7
E8
EA
F4
ED
0C
DE
D2
14
F7
F8
F7
13
F6
EA
2C
DD
06
F5
F8
F4
0A
00
F7
03
FF
E5
F5
01
F9
E2
00
15
29
F8
CA
17
06
CA
1B
04
F6
05
D3
FF
FC
19
F5
06
FB
04
F8
25
F3
07
17
03
11
E8
12
12
13
0E
EC
00
06
D6
F1
F1
F0
F4
FF
07
D1
07
F8
06
1C
18
F7
D2
EC
EF
07
DD
EA
F1
DC
FC
03
32
39
B3
0C
26
02
E8
DE
24
EC
F1
2F
19
0B
0C
0F
0D
E8
08
DB
F6
E8
F6
13
FC
F6
C0
DD
34
EE
D2
F6
0B
09
F8
12
D2
F3
11
37
EB
01
2C
16
24
15
FA
F3
F1
DE
FA
23
31
04
F5
EE
F8
A7
D5
E5
F1
1C
1E
29
D7
FF
0D
15
B1
F9
F7
1E
EA
DB
0F
EE
F9
26
E5
F2
CA
FD
E7
0E
D4
DE
F0
EC
F3
24
FD
1C
E8
CA
C8
11
0D
16
C8
DD
F9
06
01
00
16
02
F7
CB
F2
FA
F7
D7
F7
0C
2B
01
FE
E8
05
18
FF
0E
21
EF
29
15
D9
CC
F5
01
29
14
18
06
07
30
DE
0D
F2
2B
EC
27
FE
03
FC
FF
D3
35
24
EA
07
FE
FF
BE
0F
03
C2
9B
09
04
13
0A
C8
DD
F6
02
DB
13
F4
C6
D8
F5
0B
DB
D4
EB
1C
01
1E
01
A5
01
F9
F3
0A
04
0F
06
E6
EB
13
F7
10
1B
F4
04
D7
D1
F2
EB
F5
E6
10
07
09
00
F4
1C
D9
F4
FA
11
1A
FD
07
E0
F9
03
ED
C5
0D
16
14
DF
FC
12
32
08
01
00
FC
F0
ED
33
21
11
F8
08
F3
18
0E
A8
10
22
E9
E9
E2
D8
08
F8
1E
2B
EF
CE
DB
FC
13
12
C8
19
03
EF
0D
FC
35
0D
E9
1E
1C
D8
03
E2
21
FA
14
EE
C8
EF
16
F9
F7
00
00
FD
15
16
EC
FE
FF
F6
EE
F2
E7
D1
F6
14
09
01
E8
0A
08
D7
0D
F6
02
08
DC
03
C9
FD
DC
24
FE
ED
18
F1
0C
22
FD
16
CA
E6
FD
20
00
FE
F9
1B
04
D3
16
FA
F7
0B
F5
EB
F4
F6
EA
10
15
29
04
0B
FB
F8
0A
F6
E2
F9
0D
F5
E0
24
E7
0D
F8
12
09
08
DF
1F
F5
CF
15
01
DD
DC
EB
05
0E
21
F8
F5
F1
CE
F8
D9
01
F9
E9
0B
FF
09
FD
12
10
C7
1E
02
E2
04
E7
E1
24
01
C6
EB
ED
18
F2
01
12
12
E5
14
03
03
FB
FF
2C
06
E6
DC
EF
0F
19
03
F1
F5
16
01
FD
EB
E1
F6
10
02
34
D2
F3
ED
12
10
E2
0D
F5
FC
E0
FF
F1
30
E5
21
03
F5
E6
E5
05
F2
C7
13
0A
F0
E5
C3
13
00
05
27
F8
16
FF
1F
25
ED
D6
10
FF
10
10
0B
F2
F0
D0
3B
FF
E8
F3
EF
ED
03
DD
FD
FC
2D
27
0C
FE
E9
21
13
FF
08
0C
F0
0E
0C
2C
0D
13
F7
0D
D3
EF
E5
10
17
D7
00
EF
02
04
E4
F2
EE
F9
00
1F
CB
E3
E5
12
F5
DD
F5
1C
F1
FF
FB
0C
F4
03
06
33
CC
0B
16
E2
EE
FB
1E
FD
0E
FE
F5
0B
09
05
19
E2
04
FF
F3
12
F0
C3
20
FF
F0
E5
F3
F9
02
14
04
FA
0B
F9
01
0C
10
FA
09
04
F0
DA
12
1F
D6
C9
D2
06
08
FD
05
08
E3
09
02
0C
F2
F2
12
E6
0F
EE
D6
00
D9
04
03
21
05
F6
12
01
EB
0A
EC
DB
0F
F1
03
F2
06
E3
EA
EF
20
15
10
C0
EA
F4
07
3A
21
EF
FD
F0
E0
03
F5
FA
2F
D4
EE
1F
F1
17
EC
F6
10
F5
FE
08
08
32
EC
07
C2
09
E8
0F
01
F4
00
FD
FD
D9
19
0C
04
EF
EF
08
FD
E6
08
28
F4
F7
1D
1C
D8
DD
DD
16
EB
E3
0A
E6
85
15
ED
FB
03
ED
20
0D
EE
0D
F0
D0
F5
FB
1D
0C
EC
14
23
01
1A
16
FA
C2
ED
18
23
13
D4
E4
FE
1F
FD
0C
2A
01
1B
F9
11
1B
FC
F8
EE
F8
0D
FC
03
D5
1E
2C
E6
0E
1B
1C
1D
B0
28
08
2A
E2
06
0E
F6
0F
F9
FD
F9
E1
0B
0A
D9
FC
0F
26
ED
08
ED
02
C6
E2
F6
D8
03
F2
1D
F5
1E
E0
17
FC
E8
E9
FA
F0
1E
14
04
D0
DD
F5
FD
FE
F3
FA
11
DB
F4
20
E0
F9
E9
F7
BE
D1
1D
1A
F0
02
ED
22
17
07
26
15
E0
13
F2
06
01
E7
14
1A
04
FC
09
F8
E9
D0
1A
F8
1D
04
0B
F9
21
33
F6
0D
F6
EA
F7
05
07
FD
F9
F2
15
00
F0
08
E0
EE
EF
07
F5
0D
C5
CE
F4
14
00
02
1D
F5
F1
07
05
FB
0C
C4
AD
ED
F2
F6
F4
F6
0D
F8
CC
28
30
E0
11
EE
F7
F3
18
EE
D4
FB
0F
37
E4
08
C3
F6
C9
DC
DF
FB
1B
E6
EA
26
2C
15
1B
0B
FB
F7
01
02
0F
11
1F
00
1A
07
CC
F2
A8
C5
10
C9
15
F5
FE
F8
E7
FA
19
F3
F2
ED
1A
19
FC
0B
EF
09
E5
08
D5
F1
01
D9
ED
E0
EC
12
F9
0E
F3
06
06
ED
13
E3
FB
07
F7
1C
0D
FA
17
F9
0C
E1
F8
EA
06
FE
14
16
08
FB
02
27
0B
E8
15
07
0C
E6
E2
01
FE
10
0B
03
1E
F6
FB
0A
05
FF
CB
08
0B
12
18
F0
F1
0A
FB
02
00
FB
FA
0A
E8
FE
F9
03
08
FF
04
25
F7
21
01
12
00
FB
0E
E6
C6
EF
0F
F4
11
17
38
D2
1F
24
0E
F8
FE
25
F8
07
19
03
E8
10
11
0A
EC
EA
EA
06
F4
F3
17
FF
0C
EA
CB
0C
E0
D3
08
16
F3
D2
30
FF
ED
E1
12
F5
DB
21
2C
04
FE
FB
E6
E4
0E
EB
2C
FE
FD
B5
F2
03
E0
EE
0A
DD
F8
16
1D
1D
18
F6
14
E3
D3
01
27
FD
F5
FC
F0
E7
10
DF
F9
E9
0E
19
F9
BC
DE
12
D1
00
16
FC
D8
32
06
20
03
F0
E2
E7
08
05
FD
F7
C9
0F
1D
09
3C
17
17
F4
30
30
1A
F4
DF
F6
DC
0A
FE
0B
EB
03
08
F0
F6
12
C6
05
D5
10
FB
F6
F2
0D
F4
0C
EC
0B
16
EC
21
03
04
DF
FA
28
19
F9
15
E4
F1
FF
30
00
FC
FF
1C
1A
10
13
ED
F8
2C
A9
E4
F3
F1
CB
FE
05
01
13
26
08
01
EA
EE
DB
F0
F1
FA
F1
D3
FD
06
D3
DB
F1
EF
E6
B9
FC
03
07
31
07
18
E6
E8
29
E1
DD
0A
F6
01
FD
E9
E6
F5
E7
DB
E2
14
ED
E0
05
10
08
FC
1F
E5
18
F2
05
E6
1C
08
FD
F8
F7
09
03
F9
0A
FD
24
0A
F6
FF
01
EE
07
FE
F8
E9
DD
22
FD
26
0F
BF
04
48
30
1D
02
0B
F8
11
E0
FD
BD
03
0D
2A
0A
E7
0D
24
0F
F4
F3
F9
15
F8
19
E7
E9
FD
FA
D6
C8
FC
06
0E
08
D8
F7
EF
02
16
FE
06
1A
DE
FA
D1
0C
F3
0D
15
19
FE
D4
1F
06
1B
FC
0B
0D
F8
FF
DF
12
FF
26
EA
FA
01
0A
E3
0E
E4
07
14
07
F7
00
D3
11
18
F4
F0
FC
0E
16
0B
10
EA
10
0F
0F
FB
F5
FB
28
0D
18
F4
13
01
F9
A9
13
E4
17
FB
0E
E0
E6
DD
F7
08
DC
EA
FD
18
10
0C
FB
EA
04
FA
FB
FD
FD
FB
1A
24
1A
FA
17
FB
01
F5
01
1B
C9
E9
14
10
D1
18
0E
F7
18
17
E4
F5
0F
05
EF
15
00
FD
F2
1F
0B
14
0A
D5
0C
03
EF
E5
F8
0F
24
F6
E9
FB
1D
EE
C7
2F
E8
0C
26
21
F1
05
20
16
F2
17
EC
E7
E5
04
07
FB
FD
0E
F2
FD
15
EF
08
1D
0A
EA
13
17
30
1A
F3
F4
F6
D9
09
FC
F6
DA
F5
03
2B
FD
15
01
FF
01
FD
20
15
D1
ED
0A
09
01
0A
FD
08
10
FB
FB
FC
10
0A
26
1C
ED
F9
22
27
18
FB
F5
09
E9
D7
EE
0C
FA
F7
2B
E9
F5
E4
FD
E6
CF
0B
1E
E7
11
E2
00
EA
19
DC
FB
16
0B
DF
E2
1A
F8
DA
ED
B8
00
E8
EB
E6
0E
F9
15
0C
00
0C
E5
11
07
FB
E1
EC
0F
FB
E3
F1
FE
03
E8
16
01
F1
F3
FD
12
04
E9
FE
E4
0A
01
01
06
01
17
21
C5
3D
EE
03
F9
E8
05
D3
1F
EC
F9
E0
D3
FE
12
1C
26
E3
ED
F9
F9
23
0A
E3
CF
1A
19
0B
F5
F7
F7
03
FC
16
00
F1
F0
05
E8
01
03
07
25
02
F0
03
19
F0
04
08
03
A7
E8
E7
FC
E7
DB
C3
01
F4
FC
F8
FD
0B
F8
F3
01
D7
FC
FC
E1
F3
0C
E9
05
E5
DD
C4
0E
F3
1B
19
EF
0C
19
FC
0F
E9
EE
F3
ED
01
E6
F8
E9
E8
E8
1C
07
02
DE
F5
04
F8
09
F7
EF
E1
FB
FE
0C
22
29
E2
15
1A
06
23
DE
DD
DD
F6
FD
0C
23
05
F7
22
CC
02
D8
1D
E6
07
F0
F4
08
FD
F0
F1
25
06
06
0C
E1
FA
04
FE
03
11
FD
F9
F6
16
09
DF
FF
F7
F0
D8
0D
01
FE
FE
39
FE
D0
E1
08
F8
0A
09
1E
ED
E0
ED
E1
05
F7
D3
E6
13
03
1E
FF
F9
E9
FA
E8
02
F3
DA
26
EF
F1
15
30
29
0D
E7
0E
14
F6
FF
F4
05
FC
F2
D2
ED
F8
09
F0
FF
16
11
22
11
EB
FA
EF
04
10
04
E6
EE
F4
1F
17
E0
F4
05
06
09
02
F5
E7
F5
10
ED
19
1E
06
22
F5
FD
15
F0
D4
D5
01
F0
E9
F6
07
FD
05
DA
10
0B
F3
EF
DC
FF
E8
0F
F4
EF
EC
E9
20
ED
09
F8
02
FE
01
DF
B6
0B
FD
ED
FC
E2
FD
01
FE
1D
28
06
24
21
F2
13
0D
10
04
F5
DF
BC
0A
37
0C
13
D8
CF
FD
E8
1F
1C
9F
0A
03
18
DC
01
FA
F6
FD
EE
23
04
FA
0C
07
F4
F4
12
04
0B
0B
C7
FA
08
1C
04
26
0E
EC
FF
02
1E
0E
02
05
D6
01
13
0C
FD
DE
F7
02
E0
1E
14
08
10
20
03
F9
15
F3
FE
03
E4
EB
16
14
01
0C
0A
0A
11
FC
07
EA
F5
F7
F0
03
FB
0C
02
13
13
F0
F4
DF
09
EE
00
F7
FC
02
19
01
0D
FA
15
F9
E9
FF
EF
2A
11
F9
04
EE
20
10
F8
0D
03
1F
28
ED
FF
FE
F7
FF
0A
0F
0A
16
F3
FC
FF
C7
D2
1D
E3
FA
FD
1C
F5
D8
16
0F
D1
EF
F5
E7
19
F4
FF
EC
B9
19
F0
FE
FF
13
D1
0D
D6
E9
E7
ED
EE
26
F9
EE
01
F1
0E
2D
05
08
E3
FE
0B
0E
0D
01
F7
EE
F4
02
F9
07
26
1D
03
1B
11
09
10
F2
17
10
1E
C7
00
0F
22
FC
12
14
EF
06
40
1A
E6
ED
05
EB
23
21
0A
06
DA
0A
23
21
ED
09
1A
D7
06
E3
D3
D4
EC
11
E5
D8
EE
E7
D4
EA
13
DA
3C
CB
C6
E7
3B
10
E6
F4
04
D0
E8
DB
F4
08
FC
DA
19
E8
E6
06
0D
0A
0F
BF
0A
26
E0
23
F7
09
F1
09
F2
24
F7
E7
02
D0
20
03
FD
02
FD
F5
14
EB
02
C8
1A
DB
1C
FE
17
FC
01
04
E2
FC
04
27
F0
FC
07
21
16
12
0A
0B
E3
FA
E8
E4
FE
11
29
FE
FB
08
31
F2
04
03
08
EC
C2
E3
02
0E
C2
F2
F5
E7
22
0A
FF
DB
F4
F6
0F
02
07
0E
DE
EC
04
15
FC
FD
D3
11
F6
BA
F4
F6
F8
02
F4
F2
0C
C6
17
D8
DA
DB
06
04
E2
F5
C6
14
FE
0C
D7
17
F7
DE
F8
1E
E6
EB
01
02
E4
E5
0C
E5
32
0B
05
06
1C
0C
F7
26
26
0B
06
E6
DD
12
15
24
D1
FE
DF
E3
FF
EA
04
2E
06
D9
03
21
00
3B
FB
03
DF
CD
EA
EA
D4
D7
08
13
AF
1E
2D
DC
06
E5
11
F3
25
1E
F3
E2
CC
F7
FF
C8
DF
08
F6
16
F6
F0
1F
EB
F2
0F
ED
EB
F4
C9
1A
E9
FE
17
FB
F8
20
02
CD
16
F7
03
E7
10
FF
1C
07
F8
F1
13
1E
DE
FD
EE
E8
E1
05
11
01
17
0B
09
17
B2
07
00
ED
0D
FE
FF
00
18
E9
FC
11
13
04
F9
FB
F2
22
00
05
02
06
E5
F1
C3
0B
F5
07
0D
16
D9
E2
EE
EA
E3
27
E6
F1
F6
FA
ED
E3
EA
ED
01
F9
D8
F2
E2
0C
0F
EC
DA
13
EF
21
E9
DA
DC
E6
C8
22
F7
FA
E3
F9
E8
D3
FD
DF
E7
E1
00
30
17
E8
EC
FF
1F
01
13
23
D7
FB
ED
10
EA
FE
C9
18
0F
E9
FC
3C
1E
D8
F3
EF
0E
09
29
F1
F3
1E
1D
1A
1A
C9
F5
B9
EC
04
EF
01
00
0F
07
10
05
13
15
0F
FC
10
00
12
F9
06
02
12
E6
F2
F2
F5
04
0E
08
19
29
13
FE
F4
13
FC
E9
D9
EA
D3
FC
FC
E2
04
14
E3
E8
05
12
F0
13
EE
06
ED
05
04
09
19
DC
FC
01
2F
05
DF
F7
F3
E1
F2
2C
EB
E2
A1
03
ED
D7
21
FA
12
E5
EF
FB
EA
EC
E0
EB
DF
EB
D5
DA
13
02
EE
FA
FB
28
DC
02
E7
04
05
16
0C
17
08
EC
E5
F4
05
B9
06
F8
EE
E6
D8
E1
05
EA
F5
E4
FA
FC
01
17
03
03
CF
DA
F9
0C
0A
F7
F4
0F
0D
DC
07
E3
E9
08
13
FB
E8
15
D3
F4
14
F4
03
08
CF
10
F3
F5
F1
D9
C6
EC
FC
E1
EE
F1
F5
EC
FC
01
09
F9
E9
F8
F5
ED
04
F8
F7
02
E0
30
FE
EC
EA
14
D3
F2
22
12
9F
D0
CF
11
08
F0
C2
EB
E4
DB
F6
CB
EA
F9
F6
EE
D9
EA
07
E2
E0
F8
F2
F7
FA
FA
0C
EA
0B
1E
F8
DC
01
16
E8
F8
F2
FC
04
02
00
06
F7
EF
06
F0
D1
12
03
E5
02
EA
10
04
EC
E6
04
05
DA
23
FE
E5
0A
0F
11
13
E5
DE
E9
BD
ED
07
F6
02
FC
FC
1B
E5
EE
EE
11
EA
0C
F4
D9
DF
12
E1
E3
0B
E4
F5
0B
D9
0C
0C
FF
09
11
03
D7
0C
E4
01
EB
E6
F7
18
DA
0D
15
DA
FC
20
04
F9
FA
1A
F2
00
26
FE
1C
C8
F6
06
03
0B
D2
06
1A
07
14
24
00
F0
F1
D8
FE
D8
D7
FF
F3
C8
EB
35
0A
EF
0A
E9
1B
FA
DE
01
14
0C
F4
FF
05
E1
05
FA
0A
10
21
38
FE
FA
0F
19
04
EA
DE
ED
D4
EC
06
FA
F9
0D
18
FE
FF
0C
EF
EF
0E
FC
F9
FE
D2
08
FF
0C
FD
1E
DD
E1
D4
E7
01
10
F8
06
E5
15
09
D6
01
00
29
D9
E8
F8
05
DF
F9
1E
E8
F0
F4
F6
E4
EF
E9
FF
0F
C3
FF
FD
2B
FE
FA
F4
FF
F5
2E
0B
F1
26
28
FE
2A
05
FF
F6
F2
E3
CC
E3
0C
3F
02
EF
E5
14
EF
2D
1F
AC
17
1B
F0
D1
0E
EE
F2
CD
D7
F9
1A
F4
F8
01
0F
E6
02
08
11
14
D7
FD
12
1D
18
03
17
FA
F1
00
14
0E
FD
12
EA
F3
0E
06
05
DD
FC
CE
F9
17
F0
11
17
0B
10
02
0F
FE
E4
03
FA
FA
0C
1E
E9
0C
10
05
EE
EC
07
E0
11
03
E0
F6
FC
FE
F9
17
13
F8
02
F1
F8
FB
F7
FE
FE
F4
22
CC
04
06
F5
09
FC
F5
0B
30
10
EE
F7
F0
02
FE
0A
07
FB
07
07
E1
F7
06
00
F1
ED
FF
0F
02
05
EF
0E
E9
DB
11
E5
F6
F4
20
E8
CD
13
0D
29
0E
05
FF
C6
0C
01
FD
D3
07
17
ED
FB
DD
FB
23
D3
F9
F0
E8
D1
C0
01
04
FD
0A
19
14
F1
2F
08
0D
09
19
EF
E8
F3
04
F5
1A
F3
FB
09
13
DC
01
02
F7
E7
FC
F9
00
25
D6
FC
09
18
22
08
28
EE
FE
07
32
22
2A
0E
FE
11
0B
09
FA
DC
02
FF
3C
FA
F7
F2
C3
0D
07
EA
FB
F9
24
C9
F4
EF
E7
DE
07
F9
D5
00
DC
D7
09
19
ED
0C
FA
09
E1
E0
0B
CF
DF
F3
FC
09
E1
E9
F5
15
1D
06
D3
15
0E
E8
FB
0B
F3
EE
0C
F4
1A
04
FB
05
F7
14
0A
F7
1B
F3
F3
18
1A
1F
D6
FA
0F
34
1F
25
F5
15
1A
DD
03
EB
F8
05
17
F7
0D
FE
32
03
06
22
06
CE
FF
EF
D9
26
0C
11
D4
26
F4
18
28
F5
DA
E1
D2
FA
17
CE
DE
EE
0C
06
E4
F4
C0
22
E2
2F
DF
F6
1C
26
29
FA
F1
06
19
D1
EF
05
BE
EE
E9
F8
13
04
D2
15
B9
19
E1
F7
12
0D
FD
E9
06
DD
0B
09
F0
E9
25
1B
C4
0B
21
EF
04
FA
08
FC
D0
E6
09
1E
02
16
04
E8
08
06
2C
24
04
18
0B
01
02
F5
FA
F9
22
E6
F0
E3
07
09
1B
F5
01
FB
E7
EF
4D
FD
30
EE
0C
FA
E3
ED
13
1C
06
EB
29
0A
E2
FD
E1
25
0D
06
F2
CB
E9
00
1A
F7
C3
03
E8
15
23
F0
F9
08
BE
F1
E1
EF
DC
C9
01
1A
FA
F0
0B
0D
F7
10
10
F3
E9
ED
F8
20
16
0D
03
F8
03
F2
07
0F
1C
01
F5
F0
C3
12
0E
0D
05
02
EA
FA
DD
1C
03
F2
21
02
0B
F2
07
E5
03
1E
2B
0C
10
01
F3
F1
04
C5
FB
FA
E6
FD
BA
FD
0C
01
1E
1E
FB
E5
F7
F5
E6
10
02
05
E0
E9
03
FF
F3
E9
02
EF
F4
F3
CE
FA
17
E0
F3
FC
E9
F6
F9
07
E7
04
CE
F3
F1
F8
E9
34
1C
F7
EE
E0
19
D9
F5
19
0B
DE
E9
17
10
F4
0F
1B
E1
16
EC
2A
FF
1D
DF
07
DF
F3
FF
3A
27
F5
EA
E8
FE
F5
0B
ED
FB
28
21
E9
24
01
F8
D3
0D
0D
16
10
F6
02
18
FC
05
03
14
F7
08
0A
E6
0C
DD
F7
F7
17
F9
EF
13
05
0C
1D
F1
C8
11
00
FA
F9
19
F8
EF
E7
25
F3
DE
04
12
D2
08
00
DF
16
16
15
28
FE
E9
12
19
12
D6
19
D9
0F
1D
2E
EA
E3
F7
02
01
F3
25
11
07
DD
D5
06
01
D8
1F
FD
EC
08
E4
DE
FC
FA
E3
E1
E8
07
00
25
14
0A
F5
01
0F
E6
12
18
ED
FA
1D
E4
0B
FB
17
CF
EF
F0
C0
21
08
00
F7
C5
ED
11
12
03
D6
01
0E
05
12
F9
1A
DC
F6
F9
14
00
EA
EF
1E
FB
2D
D9
C8
02
06
0A
DB
12
03
D0
F8
10
FF
07
05
B9
09
20
0E
FB
E7
BD
04
07
E5
FE
E8
1F
F9
F7
1A
08
0C
EC
DC
0A
FB
FC
DA
DD
18
EC
1D
04
05
07
E6
E8
0C
0B
1A
B5
AE
BC
0A
32
11
E2
FD
09
EC
F6
E1
EA
09
0E
1F
FA
E4
10
DD
10
EE
E8
06
F6
05
15
1F
2D
E7
0B
E7
FB
15
01
FE
0B
09
F4
08
22
22
03
DF
E8
04
CB
EE
12
EB
D4
F6
10
E6
07
E7
FB
26
E5
22
DC
B4
14
1D
0B
FD
ED
EB
1F
CC
02
14
04
00
F7
0C
18
07
1F
0E
EF
1C
EF
FC
D7
E5
0E
05
FA
07
FA
FC
12
09
0E
16
02
08
0F
F5
08
12
F3
08
E6
F2
F1
12
01
1B
13
DE
04
19
2D
1B
D8
21
F7
FE
FD
03
17
AE
11
06
E3
1F
D3
12
13
FA
E4
25
10
F2
E5
00
FE
E5
03
16
F4
06
E6
37
ED
0F
0B
16
0F
EF
EA
11
02
09
09
E7
DE
DF
FD
F8
DF
1C
EC
1B
00
EC
3D
11
FD
F1
18
E1
C0
22
0E
0F
FF
F8
29
E6
0E
0F
ED
E6
F8
09
1A
FA
D1
21
12
18
0C
FC
D9
EE
CB
F9
0F
0A
F8
15
F0
0D
21
01
F7
F6
EC
EC
0B
08
03
E8
F2
0C
DE
DF
F1
CE
E6
F1
FC
0A
0E
D5
EA
05
2F
FC
F1
FE
FF
E5
00
EC
01
34
0A
0F
ED
22
01
FB
EB
EF
E7
C9
01
25
CB
27
05
11
E8
05
F5
C3
1C
23
0F
C8
EE
D2
ED
DD
CA
E4
FC
03
F6
FF
0C
01
05
16
FF
15
E4
0C
01
0D
0D
FF
06
01
0B
EE
FF
04
F9
F7
19
FC
13
09
F0
FF
EF
CE
F9
05
10
27
00
06
01
07
FB
EF
FE
F4
0B
FA
00
FA
E6
13
0B
01
F8
FC
F2
F1
05
1F
03
FC
FF
FD
0A
12
05
06
11
E7
EF
E7
F6
08
FC
0B
0E
DE
0F
0B
06
11
0A
23
04
17
FB
03
EA
F1
17
1C
03
E0
F5
0B
00
04
F7
EE
12
07
0F
0C
F3
EE
FC
ED
0B
E2
08
03
11
0E
FB
0D
EE
FD
F0
FA
2F
FF
15
01
05
11
F6
1B
EE
E2
17
F9
F9
EE
E5
37
06
FE
ED
0B
D5
D3
05
F6
F0
04
FE
09
F2
12
F6
F3
FA
0C
11
00
F5
17
FD
29
07
FF
F5
F4
D8
3B
08
F0
DA
F3
FB
E8
04
F7
13
E8
FE
3D
1E
07
F9
DD
E7
09
03
1E
17
FF
D6
1E
0E
02
15
1A
E6
35
DB
F1
02
BF
FC
E2
F6
E6
FD
0E
CF
0C
00
B8
FE
10
F7
EF
E3
F5
2B
F9
09
F9
0F
ED
F6
04
F7
