07
C6
FE
F1
DC
06
16
0A
FB
11
F6
F5
D0
0E
EC
E7
F8
F4
F6
0A
0A
05
D7
03
FD
F3
03
F6
19
15
00
33
0B
04
F0
13
FD
AD
28
17
17
F5
FE
05
E5
00
08
ED
27
14
04
0C
1F
14
FB
E1
00
06
05
19
07
DB
EF
1E
FC
B9
C1
09
FE
FE
01
FE
F0
18
25
E4
06
09
0D
09
FC
15
1F
0A
F9
FD
14
0A
FB
F4
08
F4
03
FC
14
DD
21
0A
1D
06
FC
C2
F3
08
29
02
01
E6
FD
07
0B
E9
0E
03
F8
DD
03
0A
F1
FB
16
EB
0E
14
D9
F6
18
14
FC
E2
E8
07
F5
04
E0
22
F1
28
F6
FD
0E
0C
F5
15
F5
12
0E
22
0A
F7
E5
D3
E1
13
E9
0D
F7
EE
F7
FB
10
16
1E
D8
08
C9
03
FB
0A
FF
E9
EE
D8
D2
05
12
00
15
09
FA
08
1B
FD
EF
00
EA
08
00
06
FD
0B
FB
FA
E2
05
01
17
FF
D9
1F
15
13
03
05
01
F6
05
28
F3
CA
02
F4
0C
FD
C7
04
DD
FB
04
F9
FE
FD
F5
10
F5
0E
FE
02
DA
F6
06
12
05
FD
F8
D7
21
F0
FF
03
08
FE
28
09
07
E9
F5
F2
09
01
F6
DC
F3
E8
F7
20
CE
96
10
02
F5
00
0C
2B
FD
25
F8
0D
43
14
17
FC
FC
F2
ED
FB
E4
02
BC
0B
09
03
05
F5
2F
FB
EC
E3
02
1A
17
13
E5
CC
1C
1E
04
16
F6
EA
38
08
01
0B
03
F5
0B
25
07
E5
FF
0D
1F
15
09
FB
0A
13
F6
EA
B9
FF
07
D1
2F
F5
ED
EA
FE
D7
0E
0F
21
FC
EF
F2
F4
EE
DD
D6
21
FD
0B
EF
F5
E5
D6
24
FF
BE
C2
F4
F5
F5
FF
FB
11
FD
E2
E9
E3
02
F7
F5
13
EE
EE
04
E5
F2
F8
DC
F7
B9
FE
E8
13
EF
F5
0E
15
E2
CD
9D
CA
23
09
E8
0E
F7
F9
E0
26
C5
04
F9
10
E0
1D
05
F9
18
E4
E8
0C
F7
15
07
06
EF
D2
2D
FB
CA
AF
F9
F6
D4
F2
FB
05
F3
F0
08
DE
09
12
11
E5
04
FA
E0
E7
23
01
E8
EB
09
05
F8
FA
0B
0E
F5
F9
0C
E5
C6
20
DF
CE
10
E1
06
06
28
10
F8
EB
1B
F9
DC
FA
FC
FA
FB
10
18
D7
F6
F0
DE
E0
EE
FB
F2
F1
FE
4C
F1
E4
1A
10
F4
00
D3
EC
F7
10
CA
D7
FA
03
FB
07
FC
13
2C
EE
F9
E4
F6
EE
16
13
D8
0F
07
FF
29
24
09
E7
E9
EF
02
2A
FE
CE
F3
FE
F1
08
E6
0B
E8
E1
03
F8
16
2C
FC
27
00
F2
F3
E7
F9
DA
06
0D
F7
EF
F1
0A
F4
0A
F1
23
0F
F9
E9
EF
F0
07
EA
02
F1
0B
DB
F5
0F
E4
E3
C7
0D
FD
E7
1F
15
E5
03
05
FF
FC
DD
17
F8
30
18
E0
F6
0D
ED
01
25
E6
32
0E
0C
D8
0C
01
EC
FE
0E
F3
F1
10
EC
04
15
1E
ED
02
12
19
0B
E4
25
12
02
D5
ED
03
FD
CB
E5
01
F3
FD
E9
0B
F8
22
0A
ED
1D
FB
D0
01
17
38
21
E4
FB
FA
01
12
F8
03
DD
28
16
09
F4
06
2C
12
19
11
DA
02
F0
05
15
F8
0A
F2
F7
03
08
D6
1A
18
F8
0C
0C
F9
00
07
0F
1B
F9
0D
FD
ED
E9
F7
F8
07
F8
EF
F5
07
0E
EE
F7
31
1A
E3
09
0A
EF
F9
0B
0A
0F
FB
FE
DC
03
F6
F3
F0
CD
12
F5
13
F8
0B
1D
16
01
D2
F5
F4
FF
13
16
FC
E3
FE
10
08
F5
B2
FB
FE
F2
07
13
06
0B
03
23
13
07
14
F9
FB
B4
FF
F6
00
E2
04
EA
ED
1B
EC
D4
F1
1F
F9
17
06
FA
F6
05
E9
08
F0
14
00
02
F7
F4
EC
C4
E4
14
EA
05
ED
04
0F
19
EE
05
C3
FE
0A
16
FE
02
21
14
1B
F7
F2
F8
F6
04
25
05
FF
FA
11
F3
F5
14
EC
F9
05
ED
24
E5
2E
E9
02
D2
1C
D9
06
07
0E
15
EE
EC
1C
D0
F4
08
06
EE
18
F4
0C
08
F7
E0
13
E6
F1
14
E8
F3
15
CF
F2
2B
1A
F1
D8
EE
DA
0B
F5
12
20
EE
0C
01
F8
FD
13
0F
F2
0C
E3
05
FF
1B
F7
F8
16
25
17
CF
23
F3
01
F9
0A
FE
D8
F9
DF
0F
2C
F9
DC
F8
24
F8
F5
17
0F
FE
02
FF
14
15
15
D8
D7
F6
DD
C4
EB
00
FC
E0
00
03
1D
F5
0B
1E
FE
F9
03
E3
E1
EB
E8
01
1F
17
0B
FE
F4
1C
F7
EA
DC
CF
1A
F7
1F
07
16
D3
E6
F1
11
CB
E2
04
E5
EB
FA
DF
09
04
E3
DA
EF
04
FD
0C
0D
E4
04
F1
D8
16
ED
F1
F4
11
C8
D9
D2
FD
1D
08
04
1D
CF
04
95
21
D9
0D
F8
09
F0
11
3C
F9
FA
EC
F4
E2
11
02
18
00
FF
07
06
D1
F6
C6
2A
C5
17
04
30
CD
FD
11
F2
13
19
F2
F3
06
FE
ED
12
F2
F6
00
F6
EF
CC
10
FD
F8
01
E6
1F
FC
ED
16
E4
FA
EE
FC
EB
DB
FF
23
F6
17
EE
F0
FD
06
F4
15
1F
F5
14
F2
07
D8
09
0C
D0
0E
FF
11
20
C3
06
FE
15
E2
D6
F8
DA
E6
06
0F
FC
FC
F1
07
27
03
0A
EF
EA
02
FD
FE
EB
28
D3
28
01
ED
FA
02
00
B5
03
1B
03
FA
DA
13
F5
0E
12
10
0A
EE
0C
2E
01
EC
15
EC
EB
02
FE
14
F7
ED
29
04
F2
F8
0A
C6
2D
09
11
13
F5
D3
FA
01
0B
E0
0C
E5
FC
12
20
EA
F8
2F
0E
0A
F0
ED
FC
16
12
EF
18
F1
13
31
05
FD
04
04
ED
10
EB
F8
FA
0E
EA
FA
49
ED
E9
32
DE
21
01
F3
FD
F3
EE
F4
10
F9
0C
E6
FC
23
F3
09
FC
36
F6
CD
F8
B6
05
C3
E8
DB
E6
F2
12
18
05
EF
EC
0E
07
16
0D
FC
FB
24
FA
FC
08
DE
D4
FF
EA
F1
18
00
14
22
F0
1F
C5
FC
F5
FA
EA
E3
EE
0D
1E
0C
FE
F3
00
FB
ED
FA
1D
F4
03
F9
08
16
24
0B
14
06
0A
05
D0
0C
F3
2B
C8
F6
EF
1E
0E
FB
FE
E0
EF
0D
03
CE
EB
D4
EE
14
E2
02
FA
08
0E
19
22
21
0F
FA
E3
13
FA
ED
E1
06
D3
FA
3B
FB
EA
21
E7
0A
E5
02
B9
FC
FD
04
0C
03
13
06
EC
F2
05
E8
1E
E7
FE
14
EF
29
D4
DC
12
CD
0F
DD
FD
2A
1D
D8
F9
11
0D
E8
0F
25
11
06
13
FE
24
06
F9
16
00
E7
EA
06
00
D2
11
17
FD
D7
AF
36
D8
F7
2D
E6
FE
07
F3
05
0D
E6
D6
11
02
E4
14
12
01
F6
08
D1
03
D0
FA
CE
DC
FF
18
E3
F6
FC
18
FB
11
CC
F2
F6
F6
E6
02
00
FA
D5
EF
CA
10
0E
FD
ED
EF
CB
F8
03
FD
F4
ED
F8
AB
F3
11
04
E2
D7
07
0C
FA
F4
F1
34
22
D8
F7
0D
2A
1B
1D
0F
F9
FC
BB
25
E0
FD
DF
0B
F3
E4
FE
0D
1E
1F
C8
EE
01
1B
EB
02
E1
CB
F8
F5
05
17
E8
FB
20
E8
E8
0B
12
FE
0D
10
DE
07
F5
FE
DA
0A
06
FD
F0
10
FD
06
F6
0B
2E
3A
F1
F2
FB
D1
17
28
10
FE
09
21
0F
0D
F8
0C
FE
F3
FE
FA
0E
C8
00
DC
0F
FD
FD
FD
F6
D3
15
FB
F6
12
FB
08
36
D9
E7
FE
EE
EA
EE
22
F6
04
1F
27
EB
E9
E6
05
FA
17
3E
E9
0F
F7
05
27
E8
CD
E7
21
F1
F3
F9
FB
FD
E5
1F
C9
0A
FE
F3
FF
F8
E1
01
E1
07
03
E2
00
15
EA
F0
DF
F3
13
02
05
04
F7
23
00
F4
F8
16
FF
DD
F4
FD
E8
02
0E
E7
04
E9
F3
FB
1F
BF
DC
DC
F1
04
0F
01
F0
D0
0C
FA
EC
C9
E7
F2
C3
D4
17
FC
07
FB
1B
16
06
0F
18
10
02
FC
06
F7
1A
0C
1A
E6
05
EA
0C
1A
07
0B
11
F3
F6
E7
E1
15
19
06
FE
E7
14
EC
0F
E6
F3
17
E5
EE
BE
00
FC
1C
04
19
22
18
D2
FD
F0
10
FD
02
FA
D6
F9
20
1C
11
DB
11
07
E5
F7
EC
F5
17
2A
F1
20
D3
F7
F6
07
04
05
15
33
22
F5
E8
01
DC
F2
24
F2
FD
F7
27
ED
17
24
05
1C
C1
99
02
07
E9
DA
F6
C1
07
06
0C
D8
13
0D
F4
0C
EE
E1
EF
F9
14
FD
E9
11
F7
E7
18
06
22
F2
21
1A
E7
F9
ED
D9
12
00
06
0E
15
05
17
FD
F5
10
0C
03
DF
FA
F7
1A
09
14
09
F8
F7
28
16
01
06
34
E3
10
EC
D1
01
EB
E4
0E
F1
D6
F7
10
06
EE
16
0C
DA
0A
0C
FA
FA
06
1F
1F
0D
DE
FF
10
04
EB
0C
DA
F5
0B
C0
FD
09
FC
ED
0A
FB
12
FC
07
F4
18
01
03
FE
02
FE
03
0A
EA
11
1C
EE
EE
E5
E9
19
E1
0E
32
26
09
F3
D1
07
26
F4
E2
F5
F3
E7
EC
0F
E5
06
E0
F6
1C
13
F2
FD
1E
1D
F1
DA
18
16
15
22
0F
F7
FE
FC
03
04
06
0A
00
FB
FB
FC
02
F9
04
FF
FB
F8
04
F7
FD
01
07
08
F7
FD
F5
0C
F6
FC
09
FF
F9
FE
0B
FA
FF
FF
03
0C
F8
06
06
00
F8
04
FB
07
06
F8
FA
01
04
01
05
F8
04
FA
02
04
FA
00
03
01
04
0D
F4
35
08
EA
00
11
26
00
E3
E8
E1
0C
1F
04
ED
01
D5
C4
F9
22
00
DD
06
03
03
07
0A
1A
1B
D8
17
F3
06
01
E3
E1
E3
07
1B
F9
F9
F4
06
04
07
EE
EF
E9
01
F3
20
FF
06
EF
E4
FC
ED
C0
12
05
FB
F7
E3
22
E2
01
F2
0C
FB
FD
14
0B
08
FB
08
01
0F
FF
0D
04
E0
FE
09
14
F9
F2
22
18
1E
1F
05
25
FF
37
FF
0C
25
0C
08
DE
D5
1E
17
1D
F7
F4
CF
E2
15
0E
04
F5
FE
09
13
FE
F1
F4
24
FC
FA
00
08
16
29
0A
21
11
0B
F5
EB
E3
01
F0
EC
FA
0E
EF
E8
97
13
0C
E9
FF
2E
F8
15
E6
F8
03
21
0C
0B
28
F1
20
07
1E
F7
09
E9
F2
FC
FD
E0
2A
26
1E
F1
09
0D
F7
01
2A
DD
1A
07
15
0A
13
1B
F2
EF
03
ED
F0
02
0E
04
02
30
E8
B6
AE
D5
F3
F7
F8
FA
F0
F0
18
DA
EC
0B
12
FC
F5
04
08
0B
D0
FA
F4
09
D5
06
01
EE
F2
0E
F7
E7
FF
E1
FB
FD
F9
DA
F8
F5
19
F3
F7
F9
EA
1D
1B
E7
FB
F7
F4
DB
21
25
03
FB
08
E9
CC
05
E6
1C
0E
EE
01
0B
FA
01
0A
07
CD
FF
0F
34
E3
DF
0F
CE
1F
11
F9
FA
0F
0B
E2
FB
CA
F3
EA
EE
F3
15
00
F0
E3
ED
24
30
0D
F3
FF
D3
36
09
05
F6
D4
E1
C2
C8
F8
0B
EC
0F
02
0C
E4
DC
FE
01
04
D1
20
02
13
20
08
01
FC
20
07
07
1E
F9
E5
F3
07
12
08
F0
00
FC
FD
1C
04
EC
0F
DB
D2
F1
E1
F2
E4
0C
FC
FD
07
07
FC
FA
FB
1A
11
1A
E5
04
0E
0A
FF
EB
E8
D3
10
FF
18
03
1F
13
2B
0A
E5
DA
04
07
1A
05
10
CD
0E
FD
FF
30
E2
0F
F2
E5
F5
F1
01
EA
F5
07
E7
FB
E1
17
20
FD
F5
FE
CE
F8
EA
03
CF
1C
EE
FC
F0
DF
38
FA
07
DF
FB
20
04
03
EF
0D
26
12
1F
0D
01
EA
23
1C
05
ED
EE
E9
13
23
1A
FD
FF
F8
17
0E
02
F0
02
14
F2
F2
C3
F9
19
B5
29
FF
F5
0A
E6
DA
F4
16
1B
D1
E4
DF
01
D2
E5
DF
21
FD
0D
E3
EF
FD
12
1B
F5
DC
C3
1D
F7
F6
E9
0C
0D
08
9B
D7
E2
0D
EB
EA
F6
EF
EF
01
06
F8
F4
09
E9
AB
FE
EA
1B
CB
0E
FC
F1
E9
92
B8
E6
09
2F
06
05
F6
07
08
11
DD
D8
E7
02
EA
14
1E
01
1A
03
E9
0B
FD
FE
01
0B
1B
13
23
02
D2
BB
13
F2
FB
EA
04
FE
03
D1
00
05
20
E6
F7
E1
0A
FA
D9
1F
26
03
0E
DA
D0
F4
FC
03
EC
26
E2
04
25
C5
EA
FD
0A
EC
ED
0D
06
0C
02
14
01
FB
FA
0E
AF
0D
0B
05
EA
07
0C
F6
05
11
DB
00
D7
F9
0A
10
03
04
F6
FD
FA
15
F0
0E
D7
F1
09
DA
BA
D1
F6
DB
04
E0
D9
04
23
D5
F0
DC
05
EE
08
DF
E7
ED
D9
0C
01
1C
00
E1
C4
EC
D6
2B
FF
D0
04
F0
FF
FB
EF
FF
E5
FC
E0
05
18
07
FD
18
FC
FB
EF
DC
DE
D0
0B
01
0C
CD
E0
F6
E8
E8
10
18
FF
1B
05
F8
F5
F8
2B
E2
E3
0C
F8
D7
FD
E3
EF
C6
EB
0A
FD
3A
FC
EC
33
D8
1B
E3
DE
1F
F8
FE
16
EE
FB
FB
06
F3
37
E8
F9
E2
FA
05
24
04
15
F1
0A
EF
FC
1D
ED
00
FD
FA
DF
00
FA
25
FC
D4
F9
13
F3
DD
BF
0C
0B
E1
D3
06
EC
07
DE
0B
E5
F0
EE
F4
22
F4
1D
F9
FC
2E
13
DD
08
11
00
06
F4
ED
FA
F8
15
04
FA
DD
F3
0F
1A
19
DE
EE
D8
13
F5
F8
07
08
FB
05
F6
F5
FF
06
F3
10
10
FD
09
05
0C
1C
E5
F9
FC
E6
F1
1C
13
C9
06
0F
DB
FC
0E
FF
F7
0D
21
E4
F6
0D
02
FD
16
08
11
FE
E0
EE
EF
19
D2
EF
F9
F3
DF
10
FE
F5
0C
1C
06
E4
E4
E8
F7
05
08
FA
E3
E7
0D
F3
FF
F2
11
FC
F5
FA
FA
15
F8
03
0F
10
F3
EF
ED
FC
C9
0E
14
F9
FA
15
CD
FA
EE
1A
EF
0B
07
03
09
F8
FD
0B
22
E1
FC
EE
EE
FF
18
FA
ED
EF
18
C3
1F
17
03
E5
FE
04
25
FC
BF
D4
FE
03
05
FC
FC
1F
14
D5
FE
D3
DC
F4
17
09
09
0C
ED
ED
04
0C
13
DF
D9
F3
01
12
D9
EF
FB
01
DC
0A
DE
1D
FC
07
2D
F5
04
1E
F7
05
04
01
D1
08
F3
FE
F8
04
D9
09
FA
C8
F6
E5
F9
FA
E9
E7
FE
07
01
D8
F3
E2
0D
FC
0E
FF
F0
0F
FA
01
F3
1A
E8
FA
13
A9
0C
D9
15
FA
E4
0C
04
1F
BC
FF
F0
D5
0A
0F
0C
F1
F4
EE
FF
04
FD
FE
06
10
00
F6
FD
1D
15
EE
17
D2
DB
1E
C2
BC
F0
09
C9
EA
F7
0D
0A
0C
E8
F8
F1
0A
FC
1F
E4
05
C0
DB
FE
0A
F6
2C
FB
0B
D9
FA
0C
F0
EF
DC
F6
29
C2
1B
FE
29
E5
D5
FE
0D
E8
9B
02
DB
05
05
DC
1E
0D
F5
D4
EA
B6
F6
0A
DB
F4
12
FD
C4
0B
B8
E0
EC
44
C0
E6
F4
F1
10
FF
F5
2C
E6
F2
B8
FF
C9
02
F5
04
E7
20
0A
F9
01
F7
E9
F0
02
EC
09
F3
EE
13
1E
DC
0B
E3
F7
B6
16
02
FE
E0
07
0D
08
D3
10
B6
F5
FB
11
01
F4
FD
FD
04
18
D1
E6
10
D7
07
0E
EF
07
F1
C3
F8
EF
F1
ED
16
F9
00
10
EF
10
02
FA
F5
F0
FC
07
11
F2
F7
0B
04
0A
E3
E7
F7
D7
09
FB
12
04
CA
13
F6
05
B5
01
06
F1
CE
F7
0C
F0
E9
1A
0A
F1
0C
E5
E1
04
FC
F6
07
05
14
C9
2E
CD
13
E8
FF
E5
C8
FA
F8
FD
01
09
07
F4
F8
22
00
0E
E9
22
1A
FF
E5
D3
FA
14
F9
0C
EA
F4
E2
EF
08
01
F5
F4
D3
10
1D
FD
15
09
D3
FA
F0
FE
D7
FD
DF
F7
08
13
E6
F3
22
04
13
F2
04
05
F8
F3
E3
01
EE
FE
0F
F2
EB
F3
29
F7
01
FE
03
FA
06
13
04
28
EC
FB
1F
FF
F2
06
EE
0A
EE
EC
04
EF
00
09
F1
07
1C
12
F1
E2
FE
2B
03
F3
FD
02
F4
0A
FA
E8
FD
08
0E
0A
EF
0B
12
0C
1A
22
EC
DA
EB
F9
22
06
D2
E9
E7
0C
17
0C
06
2B
24
E9
04
DE
EF
EA
FB
F8
F8
F5
1A
05
11
00
02
04
01
EC
FB
0F
00
FF
07
01
F6
08
FC
15
F7
1D
F4
99
0E
FA
05
C6
E1
EA
09
01
00
00
DF
FE
F2
DF
B1
E3
C6
F5
1C
E0
DE
02
EB
24
04
27
0A
0D
04
F3
04
F0
1D
13
01
F2
00
2A
1C
F4
08
D9
D5
F6
01
DC
0B
F6
01
0B
04
F1
03
FC
0D
FF
00
14
E6
F6
0C
DC
16
D7
AA
27
E6
1D
FE
11
15
FF
D2
E5
FB
10
EF
10
FF
00
04
02
ED
0B
0A
F9
FC
F7
07
EE
24
C7
E1
FC
18
E4
1C
BF
02
D7
06
20
0D
F6
09
FA
D9
FA
FD
DD
E5
F7
15
EA
0B
0C
07
26
FA
18
E1
0D
07
0E
02
E3
EC
E2
DE
0A
F4
1D
F5
F9
30
FC
CB
05
0D
ED
D4
FC
C7
F8
01
EC
DA
07
EF
FC
0A
15
F0
F2
16
EC
FD
F7
03
FD
FA
13
08
FE
FD
DA
0A
1F
FA
EF
19
EB
1B
16
E9
00
FF
F1
15
E3
00
F4
F9
E3
09
E2
CC
11
0E
CC
CD
10
FB
DB
16
E7
CE
01
E5
00
FD
F2
D8
1D
03
FB
02
01
F0
EC
01
E4
F4
FE
07
F2
26
02
F7
FA
0D
0E
E8
EC
F9
F5
F0
E4
FC
F6
F4
12
11
12
05
06
F6
14
00
02
07
00
0B
FE
FF
06
CC
FF
E9
FD
1C
F9
FB
FA
0F
0A
EF
FC
0D
FC
1B
01
D1
D2
09
E3
01
F9
06
D6
05
07
0A
E4
E7
D6
FA
EF
08
1B
1D
06
FD
F8
0F
DD
C0
F2
05
08
E4
02
FE
E9
FA
0C
ED
EE
F8
07
00
F3
DF
F8
EA
E7
19
FD
F2
2B
E8
F4
CB
DC
F2
09
02
D6
05
25
D9
EE
02
1F
08
E4
FD
E5
F5
EE
18
EB
EB
E6
DD
0B
16
CF
C3
CD
F9
F5
13
02
09
04
FC
F6
1F
EB
E7
F6
ED
E0
05
06
FA
EF
FD
13
FE
F6
E6
1A
12
11
0B
FA
1C
15
04
CB
05
03
20
18
10
E2
E6
E5
0E
E9
D7
0D
ED
FF
00
CF
2E
E8
14
FA
F0
0A
D6
F0
E9
F8
F2
E1
EE
F9
11
17
12
FE
FE
01
F3
DD
D6
08
18
0A
01
11
F7
C8
FC
E3
00
D1
EB
0C
0D
FC
EA
E5
FE
0D
01
FB
0A
0D
31
F8
FF
E7
F8
CD
F4
F5
F1
F9
0A
13
E9
2A
18
EA
FF
BF
DC
0D
08
F2
EB
FE
E3
08
04
FA
C7
FA
F6
E7
09
EB
0B
ED
F3
14
EF
D9
FB
11
15
1D
FB
20
E6
11
1A
CA
04
CC
EE
10
01
17
E5
F3
16
18
F3
F7
26
03
1E
E2
00
F0
FA
06
19
F3
FC
EB
18
06
EE
11
1C
F5
E0
E2
DA
03
0A
CF
0E
FA
FA
1F
FC
FB
C7
05
08
C5
03
FD
0A
F8
F6
2C
1A
F2
10
00
F7
17
E5
FF
E9
D8
1C
D1
EF
18
E4
E1
F0
09
0A
FA
05
01
15
F5
FA
E8
09
F8
05
06
E2
18
16
E3
08
D6
EB
FC
FF
D4
12
1F
12
EF
CA
09
EB
0A
D2
09
01
D8
F1
F6
B9
DF
E2
18
1C
08
09
F4
1C
FB
F4
D2
27
D9
07
06
02
FD
FB
05
05
03
FE
FB
02
03
07
0B
FB
03
08
FA
FA
02
07
0B
F4
01
FE
FB
FC
F9
FB
00
03
FD
FC
FA
F6
FA
F9
03
0A
FC
01
05
00
06
F4
F8
05
05
00
F9
F6
F9
F9
03
02
F6
FF
02
01
08
FB
F7
FA
FB
F4
F9
06
17
09
1A
01
F0
04
02
05
06
0A
DF
ED
DF
30
EC
CE
FB
E9
DE
F9
EE
F5
E8
12
10
05
0B
03
1B
0A
F3
E4
FA
EE
F5
11
D5
F8
18
0D
0F
0C
FE
F2
12
FA
DA
F0
0C
F9
03
05
EE
DA
01
FF
12
06
EE
FE
00
1D
E9
05
11
EA
D7
D4
0B
07
EE
E3
0C
F1
FF
FD
F3
03
F8
0F
FC
C1
04
11
E1
03
E8
FE
FE
FC
F1
DB
13
F4
28
F7
00
0B
13
15
CC
BD
F6
EE
0E
E3
F8
CC
E7
02
0B
CF
FB
13
EF
09
F3
EE
FD
00
FE
F4
EF
E6
FF
19
07
08
19
2B
EA
0D
E1
F3
FA
DF
F8
E0
01
EA
A3
13
18
F7
00
1F
02
08
FD
04
0A
1C
F9
0A
3E
FD
14
1A
20
EC
13
E7
18
11
1A
D7
2C
08
26
DE
FE
12
F0
F1
18
DC
EA
FD
18
0F
1D
2F
FC
F0
1D
E8
F8
FD
F4
0B
05
2E
06
11
C0
D7
E5
F9
0A
02
DE
F4
FB
DB
DE
0B
10
1B
F7
02
14
0B
E8
F8
0A
E7
E3
ED
C6
05
FE
12
ED
07
0D
02
E5
C9
14
FA
18
F5
0F
D7
EE
0A
EA
1B
02
0F
EA
00
23
F6
FF
25
F7
F5
E4
C4
D8
07
F6
EB
FA
02
0E
33
E4
1F
E5
FE
E6
EF
05
25
D9
D8
03
DD
21
24
F9
10
18
14
F0
01
EA
02
11
FD
E3
02
DA
F1
EA
E9
FA
17
1A
0D
E1
00
1A
1C
00
EA
FC
EB
CA
CB
F0
22
D1
25
1A
03
E4
11
06
E6
FA
0C
21
FB
10
23
FF
FE
07
2D
E8
13
FC
FA
E7
B3
0E
F8
0C
02
FC
F6
FD
34
F7
DB
07
F1
F8
FC
EF
06
D5
0A
FE
11
F9
0D
CA
12
FC
27
FE
07
EF
09
F0
0B
00
04
FF
D0
12
E7
0D
08
12
1C
20
F6
F7
1E
07
F0
04
06
24
D5
0E
06
0D
FB
FB
25
D2
F5
E2
F4
06
D7
ED
F5
ED
06
C9
FE
0C
0A
FC
D9
B9
16
F0
F6
F6
05
EA
FF
FE
05
2F
0E
E4
D9
F3
1E
18
FD
E3
20
36
05
07
F9
07
0C
26
16
FF
1A
09
11
14
11
00
15
06
DC
F7
11
E8
FB
0E
0D
05
ED
AA
B7
00
BA
15
04
04
0A
F6
0D
F4
F0
22
E5
DA
ED
F5
E6
02
D3
19
03
F4
E1
E8
1B
F9
FD
FE
B9
F8
3F
F0
EC
E8
07
0C
05
B1
D6
DC
14
F5
E9
0C
F4
06
F5
F0
DE
F5
16
ED
A9
FC
E2
23
C8
25
0A
05
E9
E2
CE
F2
D2
0D
EB
F1
00
F6
FE
0B
43
E7
04
09
C2
FD
2A
F6
08
3A
F2
11
FD
EE
18
0C
24
2D
10
09
C8
1E
24
D9
04
EC
0D
EE
05
DD
00
03
1D
10
E4
03
20
20
FF
10
2C
03
03
EE
E8
FA
DB
FD
0C
37
E6
03
09
FC
E5
05
17
0C
1C
F1
FF
08
CC
1F
F2
FD
E1
EC
D3
05
F6
F4
FA
E7
FA
EF
FF
17
FE
FE
19
D5
14
00
00
E3
EF
0A
0F
FC
E7
F8
F7
02
EF
DC
DE
F2
E9
EE
EF
FF
DE
E9
36
F8
E1
EF
1C
F8
1B
F5
FA
F7
FC
16
18
21
F3
FD
03
E1
E9
28
F6
F9
FC
FD
F0
E1
FF
01
F8
F0
00
FD
01
2C
FB
1A
FA
10
FF
F4
DE
D1
09
06
00
FB
04
E8
D5
CA
F7
F5
16
1B
F9
02
EC
FF
05
F1
FE
08
04
FA
EF
F5
D4
B8
D8
FF
EC
39
FF
0B
1F
EA
F6
D8
FF
19
0C
C7
12
E7
FD
FC
11
04
08
00
F0
D9
09
07
1E
F4
16
E7
01
FB
00
0A
07
05
02
CD
E7
15
F9
FB
F2
E9
E5
0A
E3
12
CB
30
04
DE
DB
02
D5
FA
EA
F0
F0
BE
E5
FC
14
F4
0C
FF
1B
22
1D
CF
22
00
1A
F9
F4
11
17
D5
05
0C
04
E1
D6
0C
19
FD
08
F8
04
F8
09
03
FD
1A
F5
08
04
15
01
F9
0A
F2
20
F0
13
F3
0D
1C
F3
E3
FD
DB
F2
20
17
FD
FE
0A
E9
05
EC
17
20
E9
0F
07
FC
F5
13
F5
FB
08
16
05
DF
0A
F8
0D
F2
00
F4
D8
DF
14
FB
F2
C7
0C
FB
E7
15
D6
0F
EC
E6
00
F8
E5
0E
E0
F3
09
12
0A
0A
0C
03
22
1F
F4
FB
23
08
FE
03
04
C4
08
05
15
D4
EA
E7
06
D5
16
15
01
F0
22
03
0F
07
00
1B
C2
00
00
E5
06
2C
0D
01
0A
00
E7
1E
EC
FE
E7
1E
E7
23
05
D2
BE
11
07
19
07
F7
07
0C
CC
08
06
EF
FB
E1
E5
25
F4
FB
07
03
10
FD
08
EB
03
09
0D
DB
FF
E0
ED
EC
10
EE
26
1B
FA
05
F9
10
18
11
04
11
07
D3
11
EF
FD
F6
F3
08
0C
11
C3
1F
DF
04
0F
13
0B
1F
F4
DA
EA
FF
F5
15
F6
01
20
02
10
FF
FA
05
10
01
F8
13
C5
03
E9
11
FB
C0
F9
F6
E9
E5
11
0B
C9
FE
00
1C
05
0B
F1
E9
A6
F6
18
16
1C
E5
F3
0B
09
0F
01
1D
F6
DE
26
CD
C8
EE
F6
EE
D9
FF
06
07
0D
33
0F
F2
08
DE
07
08
02
E7
E1
00
F8
F7
16
08
0A
F2
05
F7
EE
E8
29
00
12
EB
1F
FA
FD
E9
F8
20
0B
F7
E8
E5
F7
F7
0D
E6
E7
10
1C
F9
02
BF
F5
F5
E2
F1
FF
06
EA
05
FE
35
12
22
98
0B
E9
04
FB
0D
F8
0A
D4
EC
F3
0D
FE
12
09
14
ED
0D
F0
06
0C
F6
FB
F3
0A
EE
D9
FE
F7
FE
FA
F7
20
FD
0E
D5
F7
0B
F2
F2
10
18
F4
AD
0E
C0
E1
DD
15
F1
0D
E0
F1
FE
FC
ED
0A
09
F3
12
19
FE
11
F4
A0
07
EF
08
22
11
FF
C5
11
E2
F3
14
1F
01
09
FA
04
0A
E3
F5
20
F2
0D
08
E7
DE
F8
FB
03
12
1F
19
27
F1
0B
DB
05
19
1A
C8
F0
F9
D0
05
E9
37
E0
FF
F2
E6
ED
04
FE
14
FE
F5
E2
F7
FB
11
FF
2D
F2
EB
ED
F9
15
05
0C
F7
E0
F2
25
F9
F6
2F
12
0A
FB
FF
D5
FA
10
FE
16
E0
EA
EE
E0
12
FA
F9
04
E9
17
0B
F1
DF
15
DD
07
F4
FD
E7
1C
F2
15
DF
24
0F
05
FB
31
F1
F1
01
FD
F9
EF
E2
EA
17
F9
E5
06
17
08
20
FD
07
ED
F2
06
FA
19
0A
15
2B
FB
11
11
10
FF
F0
1F
E7
FF
F8
FA
07
FA
26
16
0F
00
06
11
E0
25
42
F6
09
CE
F8
F6
06
1E
18
16
05
08
EE
17
16
02
1E
26
F3
F5
F2
FC
FE
FC
D0
00
E9
19
3E
FF
0A
27
04
D2
15
E9
EB
FF
02
04
E2
0A
EF
08
27
0F
00
F9
02
FA
00
DC
F1
FE
FF
1B
28
F3
08
0E
ED
20
F7
CC
01
1E
0A
11
DF
E1
FE
0E
F2
16
08
08
FA
C9
CA
01
AE
F8
E8
F6
CA
F5
EC
0F
0B
16
EE
17
1A
EC
0C
FD
29
E4
F9
FA
FC
10
14
0C
06
E7
C2
1C
F4
01
15
03
06
01
F3
F1
F7
07
1F
FC
F6
0A
E2
F1
F6
EB
06
F6
CC
16
F7
0C
13
06
12
F8
FC
EB
FE
03
F0
00
1B
D4
0D
00
EF
14
09
01
14
F4
11
01
28
D8
F4
01
FE
0D
19
96
EE
DE
EF
09
18
F4
02
00
E0
D8
1A
F7
DC
F6
2A
11
EB
FE
FB
00
0D
17
01
07
0B
1C
15
F0
03
FD
F1
E4
04
15
FC
1F
09
01
AC
FB
FA
D9
FC
1E
FA
04
EC
EF
E6
09
09
F6
1A
1C
02
EA
26
18
FD
05
0C
04
1B
EA
12
F7
F0
EF
CD
FC
1A
FB
2F
BC
1F
F7
E7
FA
F9
DD
20
F4
02
0E
FE
E9
15
DC
04
1E
1E
EC
BB
17
0C
ED
0D
E3
D0
F0
E7
F4
F3
F3
DF
25
FF
ED
30
1A
F4
00
E0
E5
05
FF
F9
CA
2A
F0
EC
FF
14
00
E2
ED
EB
FC
02
F7
FD
FD
0B
04
13
05
02
02
EE
FB
F1
02
09
FE
0D
FB
F9
13
E6
1F
D8
DD
0A
EF
28
37
12
22
F1
F0
E3
1B
FE
1C
1F
F4
F0
F2
14
E9
EA
04
F6
F9
E8
2C
F4
E7
19
02
F3
EE
1D
F7
17
F6
D8
FF
3D
03
F8
0B
12
02
F3
0C
FC
19
EA
FE
0F
EA
F8
EB
DD
F9
17
25
EF
09
00
23
0F
FD
F3
07
07
09
FF
09
0F
2A
10
E5
EB
F6
01
F4
11
0A
FD
F6
0D
00
DE
02
F4
D5
11
F4
F4
F5
1B
FE
0F
F8
FB
EF
15
06
03
EF
33
02
08
B4
11
E5
FE
0F
DD
E8
DE
11
05
0D
11
08
1A
04
1C
F2
0B
C8
09
1C
0B
19
F9
E9
3C
FF
09
F3
F2
F8
F7
15
E5
DC
23
FD
05
20
F0
F5
ED
F2
28
D9
1F
E8
11
FF
07
10
23
FA
F2
FB
FE
ED
E0
02
0A
CC
EA
1A
1B
C1
FF
E0
FD
E7
FF
03
EF
11
D1
BB
1C
1A
0A
00
FF
07
16
FD
04
02
E9
D3
0C
CD
10
11
0C
FA
06
30
F2
F8
DC
F8
E0
0B
F2
12
E2
FA
F6
00
F3
E5
11
F2
E5
12
09
F3
1B
FD
03
FF
EE
F5
E0
0B
0D
F8
05
1F
04
23
15
F7
09
E9
0E
03
E3
FF
EB
F8
0E
03
F7
FB
0D
0B
18
F4
01
1A
FA
F6
FA
D9
11
03
19
F6
F0
F5
EC
F6
F3
BE
F4
03
F8
E6
05
01
05
0E
FE
F5
F0
E6
F7
EA
11
15
07
F1
E7
15
0E
F0
13
09
F5
FA
F5
0B
06
D9
21
DA
F6
37
16
E5
1C
0F
CC
05
12
09
1C
F7
13
E6
0B
F9
F7
21
F2
0A
F5
EC
08
DA
E9
02
F7
C1
E4
1B
DF
08
FF
02
0D
F6
E6
1F
15
02
EE
DF
F7
D2
E4
06
F5
0C
F2
F9
21
04
F3
E2
09
DB
EE
10
09
04
F8
F9
02
08
FC
F4
FC
01
09
FB
07
01
F5
F4
F8
06
09
0B
01
0B
F7
01
05
00
01
01
06
04
F9
06
FD
FB
F8
FC
07
03
F9
FC
00
02
F4
07
F8
0C
F8
FF
06
02
FA
08
06
F7
02
08
FC
04
05
FA
FC
FC
FC
03
FF
00
0D
09
0C
D5
FA
F4
F0
07
1B
E6
02
01
0F
08
EC
00
CC
E6
FE
F0
03
FE
24
03
DF
05
FA
1E
18
0F
C1
EB
19
08
17
F6
10
E5
06
07
11
14
FD
0D
00
09
02
09
00
11
DA
D7
DB
06
DD
FE
16
F7
0D
FB
16
EF
E8
10
13
E6
02
05
FF
F0
C1
14
F1
0F
F6
ED
07
FC
1C
02
C7
EC
16
CA
F5
01
EA
0C
FF
D5
07
10
EF
08
E5
11
D8
27
EF
F6
A5
EF
F3
E8
CF
00
09
F6
F7
ED
ED
EC
13
0D
F6
D3
F5
03
0D
EE
FA
D4
CD
E0
0E
21
05
18
E6
F9
FD
F3
02
03
1B
03
0B
ED
DE
FD
10
D2
F7
F3
FB
F6
22
E3
F7
F1
F8
06
03
00
38
EA
26
02
36
26
0F
06
FB
1A
F2
E8
EA
24
2A
09
07
ED
E9
C0
CF
1A
1F
EB
0A
0C
10
01
F0
0B
05
EA
C7
2B
EB
18
FF
F7
CA
E8
F5
13
00
17
1E
11
09
18
06
FC
11
F9
1B
FF
F6
F8
1B
0B
07
E3
19
FF
CD
E6
1B
15
01
1A
CB
F2
13
0E
1D
EB
D3
FF
DE
0C
F9
F3
1D
EE
2D
F4
EE
FA
ED
0B
DF
F0
18
FE
F0
0A
15
00
09
D1
29
11
0F
04
B3
E5
11
FC
07
02
28
F5
07
04
D7
EE
FC
02
FA
FC
EA
10
27
1D
F6
E2
F9
D9
06
0D
08
DF
F9
F2
FD
D8
FE
04
DE
0B
CC
FE
CC
14
31
EA
0A
EA
C7
08
25
16
EB
DD
FC
05
25
FE
E8
EF
DD
F4
20
14
0D
10
25
09
D8
0D
F0
E3
FC
2D
32
FA
01
FD
BC
D7
FE
EE
16
03
05
F1
0E
2E
F2
DF
F0
EA
0C
19
E9
F3
F9
E0
09
E2
F4
F3
D0
F8
EE
08
F3
10
20
F6
F0
0B
F4
E1
FE
DB
06
10
10
30
EA
04
F6
E8
FB
F4
FF
09
F1
0D
15
08
A7
20
11
03
FE
04
38
01
17
1D
FF
FC
22
EC
06
F5
DB
ED
E4
D9
06
BF
0D
09
12
FA
08
1D
00
F2
0E
F0
FD
02
11
E2
A3
24
EC
05
1A
E2
08
FB
CE
11
E0
EF
04
07
1A
FA
16
04
D5
D4
13
E5
22
11
05
04
10
B3
0F
06
EE
1C
FE
F7
DE
07
09
E0
19
0D
BF
06
EA
F9
DC
F6
E8
0C
FC
FF
E2
E2
F7
E0
F3
FC
13
DB
E3
F2
10
E1
F6
12
0A
13
D9
EB
DB
EC
20
F2
F9
E5
16
E4
03
E5
E4
1B
03
F5
F8
0D
ED
D6
1A
F5
ED
0B
C4
FF
12
12
DC
DE
F5
F0
0A
0E
E2
FC
ED
08
C6
F1
FB
00
FF
F2
11
FB
FE
13
E7
FB
FC
FF
0A
06
0A
C9
09
D7
E5
06
F1
15
0F
F0
0F
F1
F6
FC
0B
1A
FB
F0
E6
D2
05
C5
F9
38
2E
00
11
ED
EE
DD
DE
FD
00
0A
04
FF
C9
E6
1C
F4
F6
11
0A
0E
08
15
E6
FF
EE
E6
DA
03
0D
07
17
F3
F3
DD
FB
EC
E1
01
EE
F4
03
30
FC
E1
03
F8
16
F6
C8
D0
12
14
FC
F9
05
FB
F8
F8
F0
1E
1B
F1
F4
0D
0B
F8
0B
CE
0C
1A
10
FE
01
19
1B
E4
C9
FF
EE
12
F2
11
DF
FE
0D
20
EB
FF
EC
0C
E6
F7
ED
3C
EB
1C
FB
F6
07
E5
E4
FA
09
E8
D9
E1
EE
F0
F7
01
0D
0E
07
1A
C8
D9
F1
FB
FD
05
CE
15
01
1E
05
D1
01
F4
12
FD
F6
CE
0F
FB
18
F4
D8
FB
DB
09
F3
D0
FF
05
F6
EF
00
0A
12
F9
14
12
F6
01
E1
FE
19
0A
ED
07
F6
FE
F7
1C
0D
0B
F1
F2
CA
19
EC
DC
27
16
22
E7
CA
0E
FD
E1
FB
07
F6
1E
D9
00
13
17
FF
F4
24
DE
F6
00
03
1D
21
14
D0
CC
E5
09
07
06
F6
21
11
04
FE
23
39
FB
F8
06
C1
FD
F9
D6
ED
FB
0B
F3
FC
05
F7
EA
17
F3
F7
02
F1
FC
F2
05
0C
01
02
0A
F7
0D
FF
EF
F1
1F
01
E2
02
17
FA
CC
00
F1
D8
15
06
0C
F0
0B
1D
F9
0A
EB
FC
0B
EE
F8
12
F4
F5
13
1F
20
F8
29
17
09
03
F0
C1
E5
14
F2
08
01
DE
D6
F7
FD
F9
F0
F8
F6
02
2C
12
ED
1B
16
1B
0A
F0
24
02
0E
E0
E1
04
0E
23
DD
0F
EE
F0
D8
EF
E2
04
02
14
2E
DE
02
17
F1
0C
F9
FD
00
FC
11
1F
07
B6
FB
EA
03
0A
FE
1F
0B
1F
F4
F8
CB
04
06
0C
FA
01
F7
1D
1D
F8
D0
05
E7
04
0F
1B
EB
11
10
EC
F0
2E
DF
DD
01
18
06
D2
DC
1E
0E
1D
DD
F4
FB
E4
1C
05
F5
07
22
DD
FE
10
E6
21
DA
04
0E
E8
14
D8
ED
D7
15
05
11
01
DE
EA
F9
F7
22
2B
04
00
0B
12
FA
F8
18
02
F4
F9
08
02
16
CD
E5
FD
E5
18
0B
E1
FA
F7
06
04
F5
12
16
03
27
DC
02
02
24
F8
24
0F
26
F5
E7
DE
E6
10
F9
07
E9
F3
0E
01
D6
D8
03
15
0E
01
DF
00
EF
F5
D7
D5
02
15
19
05
F7
0A
0A
16
F6
F6
0D
03
F3
F5
0A
F1
0E
E1
03
EE
11
F2
ED
E9
D7
F0
03
13
1F
03
CC
D8
17
F4
F3
1A
E7
19
FB
E0
00
C3
E2
D9
0E
0D
F6
1A
E1
0F
E6
ED
E8
C2
E7
FE
19
DD
05
D8
09
00
01
F5
F1
F2
DD
05
D8
18
E5
F1
08
03
0C
2C
17
04
08
E6
00
01
1E
22
E6
11
F1
0D
F3
12
FD
BD
38
00
EF
F6
27
16
12
13
D0
D7
EE
E2
0F
01
D7
E9
01
08
FB
FA
E0
09
E8
F8
22
C7
0B
F0
0B
F1
E5
06
05
F2
DC
04
08
16
FB
1D
0A
18
0F
ED
F9
FC
EA
08
17
FB
07
E9
19
D8
1B
02
C4
04
DE
EE
FF
DF
17
04
FC
FD
E4
E4
EC
02
F7
F1
FF
EA
05
23
4B
03
C7
D0
E9
EE
FF
0E
EB
01
EA
0E
EE
05
FE
09
EC
D8
FD
15
E1
F0
F4
F4
C6
F8
2F
F8
16
E0
19
1B
FB
05
0C
FA
14
FE
04
1C
07
E9
17
D4
09
EB
F7
E1
F8
0F
04
1F
13
D0
F3
F3
FB
E9
F8
D8
E7
FF
0D
E5
EE
E5
0E
F3
0E
10
F2
09
F0
1D
0C
FF
04
04
DD
FC
FB
EF
E6
FC
F9
F1
0E
09
CD
10
1B
AD
EC
10
DD
E7
02
06
F3
01
E9
02
03
F1
06
E8
16
F3
D9
20
03
2A
01
E1
14
AA
1F
0A
D5
EF
07
0B
36
1D
EA
F6
C4
13
09
E6
DF
1C
0B
05
F6
0A
08
F3
F4
1B
16
E9
20
FF
F7
0A
F9
1F
E5
F1
FB
F6
E0
F9
F8
32
10
EE
0A
F7
F9
14
EE
07
24
FC
1C
FD
04
13
1C
0F
DF
F4
C5
F8
CE
F6
F0
FE
CC
E8
F1
22
0B
0B
0B
06
04
E5
09
F1
ED
0E
D2
20
EB
FF
FC
01
0A
06
05
FC
DF
03
F0
D2
12
D1
F0
FB
20
03
0B
EC
FC
02
D8
0B
08
FD
C3
F4
F5
0E
19
14
06
05
F2
EF
EB
F5
1D
12
00
12
02
13
EB
EF
0A
DA
09
1C
F1
05
25
0C
09
08
D1
CE
04
19
22
14
03
FD
FC
00
05
0F
04
BA
1C
F7
1A
9F
29
27
EC
C0
C7
3E
07
F8
06
E7
15
13
02
19
11
F4
09
08
06
20
0F
03
EE
F2
0C
D9
15
E6
05
F7
F1
00
24
E4
FA
F8
17
0D
0D
17
FF
F9
0F
11
1C
00
DB
D8
FD
D7
2B
FD
09
F2
04
03
03
F2
09
EF
1A
F2
E9
DA
22
2A
EC
EF
1A
F8
05
04
1C
3C
0C
EE
E7
E6
E5
09
FF
EA
02
E9
BD
01
02
00
F2
00
0D
26
1B
0C
03
19
A9
14
F1
0A
04
1A
E7
EC
FC
E5
E9
09
DC
DC
09
E6
EE
EF
C1
F9
1D
0D
FC
05
FA
1B
DD
FB
CC
0F
01
0D
ED
F1
DC
08
23
1A
FB
F5
E0
F0
13
1B
03
01
10
10
E7
E5
F4
12
1A
E5
EC
F3
FC
A8
F9
1B
05
E1
16
EF
E9
C5
F8
24
01
11
0B
1A
36
DE
B7
F5
E6
E0
B8
16
D5
FF
11
FF
B9
02
E3
14
F9
FD
0F
FF
08
ED
FA
E0
E8
DF
F1
07
EF
F7
03
02
EE
07
17
D0
DD
EE
F0
FD
FA
D7
FB
E1
E6
EB
07
FE
F0
FD
F4
F2
01
02
02
01
F4
F9
02
E7
02
04
0E
08
DB
E6
DA
D9
01
04
F2
0D
03
EB
01
FF
E0
16
EC
EB
F6
F7
F5
DB
EE
06
03
E2
BE
E0
F0
0C
0A
FB
0F
01
26
2F
23
F4
14
D3
EE
12
EF
F9
F7
0A
FE
2C
D4
FA
B6
20
F2
E5
03
0E
02
D9
04
12
F9
1E
DA
FF
EC
E8
0B
08
DA
E9
FF
1B
27
BC
E7
0D
EC
EA
3D
F2
1D
05
F8
ED
FB
2F
D3
04
E2
10
12
22
F0
EA
ED
FF
FD
FB
0B
FB
11
0E
12
F3
EB
EE
E4
FB
00
03
11
0F
21
03
FB
1D
F2
FF
0E
15
E7
EF
14
13
0A
11
EA
0C
D3
DD
F2
1E
DF
07
FB
FA
26
E6
F7
F7
0F
02
FC
03
E3
DF
FC
F6
0B
F6
07
16
D9
DF
20
E5
14
2C
02
11
13
FF
FA
16
0D
20
FB
FD
0E
04
F2
F9
00
00
0D
F1
F6
FA
F1
18
0D
13
F3
1B
F9
F4
10
FB
00
28
EF
F6
01
16
28
F3
EA
FE
E2
08
29
F9
DB
F6
35
E3
EA
0B
F1
F7
FA
24
14
2A
E7
F2
02
FA
02
FE
FB
F7
DE
F2
14
F0
FD
0F
F5
F9
15
24
14
04
0D
04
F7
03
14
0F
FD
08
00
11
1E
F7
EF
FA
D0
E8
23
D3
E5
23
19
07
F0
F4
FD
09
02
03
05
F6
D7
00
21
F4
04
FB
F3
1C
02
FC
F5
F2
01
FD
03
14
D6
0C
11
2A
02
01
FE
02
0A
05
0D
F5
FB
F7
06
F7
07
F6
08
02
F9
FD
06
FA
0A
F7
02
06
06
05
06
FE
02
F4
F6
FA
00
FD
00
F7
01
00
00
FB
FD
08
FC
F9
09
F6
FC
08
05
04
FD
0B
01
F9
0A
07
08
0A
FD
08
01
08
06
FD
16
01
22
10
0C
00
07
0F
FE
FA
E4
E1
D7
FD
0A
F4
F5
03
ED
FF
ED
F1
09
E5
13
17
24
0F
E0
24
F1
1D
0E
1A
18
F5
1E
13
01
1A
0C
1B
08
0B
DA
FE
FF
D9
B0
1C
DC
21
FE
EF
F1
E3
FE
E1
AA
EE
10
05
2A
F7
15
E4
19
E0
0B
FA
0F
26
09
FE
22
F6
1E
10
E8
F8
FF
C7
DF
01
14
F7
F4
1D
07
14
13
09
18
25
05
FC
EC
24
0D
25
FC
CA
FF
00
07
0E
E8
E9
FA
EE
06
13
06
10
11
04
14
E6
F2
FD
FD
12
0F
16
F6
13
F1
05
1E
DA
DB
B5
15
F6
EC
27
15
EB
DC
F7
AA
FF
11
E7
FF
05
E1
00
EC
FB
F4
1E
27
01
0A
0D
F5
FB
09
07
F1
09
E5
E0
17
FC
06
04
FD
2E
FE
08
EB
EC
20
CE
24
F4
FB
09
07
07
FA
DB
FF
FE
00
D0
07
10
10
0C
0A
E6
D3
C4
FB
FB
02
02
11
0E
0F
09
F3
0A
17
F0
FA
DA
F7
0E
F2
01
E5
F6
E6
11
C1
F7
04
1F
02
DB
EA
EB
EA
FD
1D
08
E8
D6
EB
22
ED
20
E9
37
11
06
EE
F6
DA
CE
E5
0A
FA
DC
F6
21
E8
09
EA
1E
F2
F4
F5
EF
EA
FA
03
F3
E8
03
24
0C
CA
E3
1D
DD
1F
FE
F9
0B
0D
15
FF
F9
D3
F2
01
B9
14
1A
DE
00
E3
1A
1F
05
FE
0D
0D
D6
3B
F9
E7
22
D4
01
C1
E9
02
F4
0A
F6
0C
18
04
0A
FA
E9
EE
C2
17
28
E4
EE
02
E7
0C
12
FB
08
08
04
08
F2
E8
0E
D9
F4
FC
E0
B8
F2
05
38
F7
01
FA
00
E1
E5
E5
00
EE
E6
02
02
F7
FA
FC
FF
FF
16
05
F3
21
E7
02
18
F4
E4
F8
C8
E4
F7
09
0D
18
09
21
EB
F9
03
F7
EB
28
F4
16
F2
0F
FF
1A
FC
1B
02
0F
F3
E8
0B
EA
E0
05
19
B2
11
F9
FD
F2
DB
DE
E9
D3
04
F2
F7
F8
1A
E1
07
0D
F5
D9
F0
DF
0D
DF
FB
01
F1
17
E8
18
09
EA
02
F1
10
14
EB
00
FD
E9
17
F6
00
F6
CD
E1
0C
01
02
15
1A
08
03
D5
07
06
DA
14
FE
09
FD
01
06
D7
EE
0C
DA
D9
D6
EB
F1
DE
ED
07
FD
F4
D7
DD
03
18
EA
FD
1F
B1
06
EB
06
DB
FB
11
1A
09
B9
E2
E6
E3
EE
0C
0E
C1
07
1A
DA
E1
11
31
DA
00
F4
16
D8
E3
20
F3
F8
DF
D9
0C
03
28
10
F2
EC
F9
FF
F9
E3
F2
F3
08
E0
DD
E5
F8
1D
EC
26
00
00
F1
EB
FF
1C
FF
02
0B
17
A0
10
D2
F6
F6
0C
15
1E
EC
0E
FE
F0
BF
EB
2A
18
E3
CE
FC
FC
E5
F9
30
F5
F7
1F
F5
F0
0C
EA
F1
0B
0F
FF
E3
D7
0E
01
0F
FA
0C
F7
FF
F8
F5
17
F7
D0
07
00
F2
1B
16
04
EB
FC
F2
FC
F4
CF
14
F0
10
08
14
FE
02
F0
0E
13
07
E2
E2
2A
0B
C2
E3
FF
FC
0E
E7
FC
EF
F6
E9
F7
29
19
FE
16
C6
E8
25
1B
F3
CF
24
F9
DA
CA
09
F9
0E
F1
12
E5
E5
F6
07
EF
F8
D9
0F
E2
03
F2
06
E8
18
06
F4
C5
D6
04
EE
1F
E4
FB
C2
F3
0D
0D
E8
02
1D
1C
29
FF
F5
01
F1
1C
11
01
F2
1C
F9
06
C0
F5
19
F5
FC
14
06
FC
CD
36
FE
D2
DC
E3
02
FF
C6
18
09
EF
EF
F0
0F
FC
0D
FC
EF
E7
23
ED
F4
1E
16
ED
06
FE
02
14
11
EE
FB
D6
EB
BF
11
FB
D0
EE
0D
00
E5
DB
05
08
09
0A
06
F2
08
19
05
01
FB
E5
F4
03
DE
08
F1
F6
E7
F4
1A
F5
E8
E3
F6
2A
E9
F2
F2
F2
0F
FB
0E
06
FE
E0
0A
F7
DF
D5
00
E7
F5
1A
15
F6
14
F3
F4
18
FE
E7
FB
E1
FE
ED
08
0D
F5
D0
FD
10
07
0A
08
F4
04
13
C9
DD
21
F3
06
10
ED
D8
08
F7
17
FD
06
1A
E8
14
0A
FC
06
CF
F8
E7
00
DE
11
E4
24
F9
06
F9
00
F5
E8
0D
80
FF
F4
0A
FE
DA
FB
06
05
FE
E1
EF
07
01
00
02
00
03
0C
1B
E0
B3
13
F6
F8
C6
E2
04
E2
19
E6
09
DB
D9
FF
F2
05
0F
F3
F9
03
DE
FD
0F
D5
10
09
EF
DC
E1
F1
FA
00
BB
C4
CD
1E
01
ED
04
FC
07
DF
00
FF
E5
00
26
F7
0C
1B
39
06
F6
DB
F7
E8
F6
F1
F0
E4
21
09
F5
F0
BD
DB
C4
E3
0A
F9
C5
9F
27
00
22
DC
E3
31
FB
18
04
F5
F5
23
07
F4
F8
DE
0B
02
18
CC
F7
22
F4
F0
FE
CE
D7
EE
E9
F5
FA
FD
FC
FE
14
02
0F
0F
15
00
E3
08
0E
00
00
03
06
0C
B3
F8
1A
D6
F1
ED
05
EC
F0
FD
DA
01
27
FF
07
0A
1A
1F
0E
20
26
2C
03
0F
E1
05
D8
F9
05
FD
06
0D
E9
EB
12
D0
ED
FD
FB
DC
E7
16
04
EC
06
EB
FF
FD
17
09
F9
0F
C7
FB
08
FA
FA
E1
16
08
00
06
DA
F9
E5
D4
E7
24
16
FA
F0
08
06
0A
ED
25
07
F6
06
0C
CD
97
FB
E9
12
FB
E2
10
BC
FD
BA
09
F1
02
0C
C2
F5
E4
14
DA
CC
F1
1F
F6
E0
DD
D3
1D
FF
12
E9
02
F7
C9
F9
07
FA
ED
FC
F8
F9
FF
0F
FF
F3
FF
0E
FF
DD
0C
F6
F2
F6
FB
12
00
E5
01
DB
EE
E2
F3
0F
E9
0C
03
1A
CF
C4
02
AD
1D
FF
FD
EC
0B
20
F7
EF
F8
D7
D7
03
F4
D0
F5
E3
0D
00
A6
DD
07
F8
DB
06
24
28
07
E8
0F
F9
26
E4
04
DF
17
0C
FC
03
FD
F2
22
E6
F3
17
DA
05
06
05
FD
BF
03
F5
1B
1A
F4
12
FD
1F
02
1E
01
F6
0E
17
E6
23
FB
B1
F0
F5
F3
10
E3
F5
EC
25
B7
F6
FD
17
E6
F0
FF
FD
F2
00
1B
FF
D0
EB
33
16
06
F7
0D
05
FE
14
EF
18
10
F4
0C
EE
0A
01
B5
DB
09
01
E4
ED
05
06
FA
29
1B
03
E3
FA
05
F1
E0
0A
E1
2C
F3
FA
F4
0B
E7
D7
29
E9
F0
09
C1
02
FB
3A
F1
FA
F4
FD
F8
1C
FF
00
FA
05
0A
0D
E9
12
CB
DA
17
F2
D4
E9
FF
F0
FA
F3
E1
F3
EB
FA
FE
F8
FC
06
FC
02
04
24
21
ED
FF
F5
08
13
01
00
B6
EE
1E
1E
F9
C7
FF
1E
0B
F4
03
12
09
E7
FA
1E
EA
09
E4
10
19
D2
05
F6
F6
18
F3
0D
E9
EA
E9
0A
F1
EB
FB
18
06
FE
F2
E8
F8
12
D1
04
23
F2
1C
11
04
E5
17
01
F4
F4
DE
F2
C4
E6
F9
D7
C9
E3
07
08
0D
09
1D
02
26
F9
D6
D6
ED
0D
E4
11
FD
F2
06
04
24
E1
E4
F0
E2
28
F1
E3
F6
D9
F1
CC
1C
F2
F4
F8
10
F9
B8
CE
22
F5
F9
09
FA
F7
F7
09
E4
FB
EB
02
E0
AC
11
EA
13
00
FA
11
DE
D2
FF
02
01
17
EC
ED
1D
15
F9
03
DD
D9
1D
14
0F
06
1D
E3
E7
03
FC
D7
08
C3
31
17
F3
DC
E7
1B
F1
DA
D7
E4
06
FA
EA
07
13
17
F1
F8
F6
FD
FE
F7
06
04
00
1A
FE
F9
0B
E6
F7
F9
EC
E8
10
09
EB
03
E2
CF
02
02
05
25
D2
24
FC
F2
0A
1D
E1
FC
03
E0
E5
FA
ED
C4
EB
13
F7
E4
F7
DA
02
03
E3
D8
F4
15
0B
1B
0C
04
F7
ED
20
1E
00
F1
06
1E
BD
07
10
D8
F3
17
E8
FA
F9
06
FE
E6
02
25
F2
E1
EB
10
C8
FB
DB
F7
EB
1A
0E
E9
0E
CC
FC
EF
E0
C6
05
05
0E
E7
04
FB
08
FC
04
CA
FC
00
F7
01
12
F6
FB
F7
0A
EF
E4
07
EE
DB
EE
01
FF
F0
F1
02
25
26
1B
01
20
BD
F5
0D
08
04
E9
00
E8
D4
05
F1
D2
0D
01
18
ED
D0
FA
04
06
2E
0C
1A
0A
D4
A5
FF
0B
AE
F2
28
09
0C
06
C4
DC
EE
F0
00
F5
FB
F3
21
CE
17
0C
F8
F1
FD
FA
EA
06
DA
07
03
F4
F9
0C
09
C3
0E
00
01
1F
DF
01
E0
D5
FB
F0
F1
DD
CA
EB
C2
D5
C8
15
10
C9
05
ED
C7
1A
1D
0D
1E
E4
F7
B4
DA
F2
FC
17
F6
F9
E4
FF
10
C8
E9
0A
DD
F2
1C
1B
DD
15
0B
EE
ED
BA
C9
FA
F6
FD
EB
11
FC
1A
14
26
F6
FB
0B
ED
0C
1A
2C
07
FA
10
01
CC
FE
EA
24
FC
CF
F4
C6
FF
F8
06
09
DB
E4
CA
17
E8
03
F9
00
F7
EA
F8
FC
10
01
1E
ED
EC
F2
1B
F2
E8
1E
FD
1B
EF
23
28
F5
E4
16
0A
0A
05
10
EC
D3
05
F3
FF
FD
FE
F0
05
E9
0B
F6
04
F9
F9
10
FC
0E
1C
F4
F9
17
05
D6
ED
F5
E3
FA
FF
FC
FB
D8
E9
E8
C7
0B
EC
09
ED
18
17
09
1E
03
F4
E1
EC
0D
EE
EE
D3
06
F6
0F
0A
FA
F8
10
CD
0F
02
EF
03
16
F6
FF
08
02
01
03
22
10
00
DA
FA
07
1B
ED
05
01
0C
FC
F2
F3
EF
FD
00
E9
F3
EC
FE
D4
14
D6
FF
D2
01
DF
F3
2F
28
0C
C5
11
F6
FC
37
F2
FD
DC
21
D1
CD
E5
F4
08
02
19
16
2E
E7
09
C0
EE
0F
F5
E9
F7
E3
F3
07
F1
0B
FE
F2
E0
13
18
20
FA
0A
09
FB
00
0D
FE
FA
F4
12
15
15
FC
F3
10
D3
E3
00
F2
F4
E8
1C
E9
F8
08
07
04
21
EC
00
F9
FD
29
F9
B9
F0
0A
0B
0A
FB
0E
00
11
F8
D5
E5
25
DA
FA
F7
2C
FC
FB
F8
F8
FB
06
04
FB
FB
06
FD
FC
06
F6
FA
03
FE
01
F4
FD
0A
00
FA
04
FD
08
04
FB
FE
FA
F6
0A
07
05
00
08
05
F8
F7
FA
01
FF
0B
08
07
03
05
04
04
00
FC
FC
06
FD
F7
07
06
FC
FA
07
FE
06
FC
02
2E
FE
16
F9
11
05
F9
F7
E0
EA
D2
05
CE
F2
E9
E0
06
0C
C2
F0
FE
00
0B
F7
13
27
03
0C
F8
1C
E9
FB
02
0B
10
23
10
06
19
F1
11
F8
08
EF
03
E8
DE
D9
18
08
F7
1D
0E
E5
F3
F3
0E
FC
DF
DC
21
0E
13
F4
11
F8
0D
D1
08
06
FC
E3
FD
DE
21
15
DE
EB
04
09
04
C9
09
1C
D7
F8
00
01
0E
FB
EF
F7
E8
08
0E
F6
DE
01
1B
08
1F
D4
E7
EC
FC
29
0D
14
EE
20
FE
DC
0C
FF
00
F2
01
E7
F8
F7
F1
04
1B
03
F1
F4
11
00
F6
F1
EB
F6
F9
FC
08
E8
1C
EC
DE
18
DC
12
15
EC
FB
F8
00
08
FF
FB
F3
25
27
F7
2F
FA
10
0C
20
EA
05
ED
0E
19
02
1D
21
0C
09
E5
F0
16
E5
19
19
CC
E7
1A
29
EC
0C
17
F8
ED
F9
01
0D
CE
EF
1E
00
FC
09
10
E9
ED
07
0A
F3
E6
FA
1E
05
16
E2
FE
04
FC
FE
03
FD
12
02
08
1C
D7
F1
34
A4
4A
F9
2B
EB
FE
10
1E
ED
CF
1F
29
09
E9
08
35
E3
1E
D8
1C
EF
13
F9
03
FD
C8
EA
26
F7
EC
DD
15
E3
D7
11
19
13
02
DF
2F
E6
2A
DD
04
FB
EE
0A
02
C8
0D
15
EE
33
F9
00
24
05
F6
ED
F4
F8
F4
1F
27
01
0A
D7
F4
F0
FE
11
E9
ED
36
11
DC
30
F6
F5
08
F9
02
C7
0B
FF
0A
03
E7
1E
04
F2
0B
04
EA
F6
F3
2E
0D
EE
F9
E6
D5
12
23
E8
1B
E7
FB
04
AC
EA
07
F0
13
FE
CF
DB
FE
F6
12
E0
FF
05
04
EF
04
FA
F5
F8
02
00
F2
FD
F6
F1
05
FE
20
0E
0C
0A
F1
FD
F4
EF
EE
FF
D5
0B
F8
1B
E0
FF
0D
F2
02
FE
F5
F3
FA
19
DF
1E
F6
FD
DE
1D
20
14
19
03
ED
F9
E9
F3
F7
F6
26
A8
15
00
FC
FE
D5
E8
FC
DC
F5
21
00
02
1B
E7
03
1C
04
F5
DC
01
F8
14
06
E5
05
0A
F9
0B
F8
05
16
F1
2E
FF
19
26
00
EA
FE
EF
18
FE
B7
CE
18
DB
F2
1C
16
19
E3
C3
C7
EE
B7
10
F9
08
15
EC
0D
E7
E3
12
C1
F5
D1
05
CB
F1
11
0F
F3
E1
F5
F1
E4
07
EC
F3
FE
E0
30
E1
F3
D9
08
0C
0A
FB
C7
DA
07
E5
E8
08
E8
E2
16
0E
FA
F8
03
28
C0
F0
CF
12
DD
DE
1F
D8
E6
EF
F9
10
E4
05
F0
F6
FA
F6
1C
14
28
00
08
FB
BE
D1
E4
F1
0D
0C
15
2A
F3
EB
26
03
FF
23
FE
FB
0C
E3
09
CC
04
F5
32
FA
F9
E4
25
EB
12
EE
E1
23
0F
1C
F3
14
E7
F8
EC
37
FF
FC
0D
F8
04
F6
E9
02
F2
0B
03
F4
14
08
24
08
F6
0E
E9
01
D6
F1
13
EE
DC
05
01
F8
08
DE
EC
1D
06
FF
F8
F9
14
F2
F9
FF
FA
FB
FD
03
00
F9
14
10
0A
ED
FB
E6
E0
0F
06
07
04
F0
E7
08
1F
F7
F4
12
0E
01
27
EB
FC
12
23
F3
E1
F4
EA
E3
15
02
FF
0B
02
21
0D
EF
ED
EE
E9
00
D2
FD
F5
07
04
15
E1
24
FD
20
C6
F2
31
02
08
F5
01
F4
06
0A
08
C2
F9
04
1F
45
DD
0B
09
F8
0C
06
F9
BB
08
40
DC
D8
E1
0B
E2
F2
FA
1E
F3
EC
13
2F
D1
F8
FF
04
0A
B8
09
F4
F1
EE
EE
02
CE
05
F4
F3
06
12
0B
06
03
07
E3
F8
07
05
EE
07
17
FC
EF
1E
C9
F8
0C
05
E7
00
E8
04
F6
24
07
18
FD
10
EF
16
1A
DC
15
FB
06
D3
10
C4
07
F1
1F
F5
EC
1D
09
FF
DD
CC
03
FE
03
E3
E6
03
F8
1A
D2
F6
07
F5
29
F3
EE
03
F5
F6
FF
16
05
0B
FB
14
04
EC
1D
F9
02
F7
F3
00
13
11
C6
ED
1E
E1
0E
19
F7
FD
08
EC
E8
1D
08
18
11
F6
F3
FC
FC
0A
08
F1
10
08
13
22
EC
03
D8
E4
E2
15
F7
14
F0
15
EE
F0
CD
FB
EA
D6
2C
FD
1D
F2
19
FE
DC
E5
05
0B
04
F5
03
0E
FE
F2
FA
1C
1A
FC
06
0D
E2
05
0F
D6
0E
E6
FA
EC
FA
09
1B
EA
E1
0F
1C
F8
06
0C
08
ED
FD
00
0F
BB
10
FA
15
FD
07
F3
F9
0F
07
A8
FA
F5
FA
02
F0
03
0F
E2
01
E9
F4
FB
3E
F8
F4
10
04
E2
FD
04
1C
EB
FA
EC
0A
E3
19
0C
07
E9
0D
E7
EB
CF
2A
0F
CD
E6
07
0E
17
DF
EB
1C
1E
E4
EC
09
14
32
25
02
15
CC
FA
0C
1B
F3
FD
FC
FF
FD
01
BA
04
F2
03
FC
1B
20
0D
E3
D3
F5
0B
0A
09
F1
F1
3E
14
D1
FD
F5
03
F9
EB
05
05
D8
19
01
1F
0E
C0
DA
E3
DC
26
26
24
0F
04
1B
19
2E
02
FB
FF
DD
FB
1A
C0
FC
07
FE
05
F2
D9
1C
F9
E9
D6
2E
EB
EE
FA
05
21
E3
FC
13
26
15
19
17
24
F5
04
00
05
01
09
10
13
09
00
05
03
F7
EE
F7
ED
08
03
0E
23
10
0D
13
F4
F9
E6
F6
0B
28
12
03
F4
EB
AF
10
EE
EB
D7
19
CB
10
E6
03
F2
D2
DC
FB
0F
09
B5
1B
37
FF
16
92
1B
12
05
12
F9
05
15
DE
F7
EF
16
0F
13
00
12
07
FB
04
F4
FE
25
FE
EB
19
FC
01
DB
07
1D
E8
CA
1B
0C
03
F2
0D
1E
07
EB
10
2B
CB
02
F0
B9
D6
D9
0D
EF
05
0A
0A
F8
ED
F8
05
FF
DE
00
06
EE
08
03
A1
FC
1D
01
E3
13
07
E5
17
D7
01
EE
24
F9
F5
FF
18
22
DF
FB
0F
EC
15
52
ED
16
E1
17
F2
06
FD
24
FE
04
19
1E
FB
01
1C
1F
00
16
F1
06
0E
2A
00
00
01
C3
DE
07
F8
1A
F9
F2
2E
14
07
F7
22
34
03
02
FA
F8
0F
F9
36
17
C0
C7
21
10
F4
24
EC
00
F3
1A
DB
2A
06
FD
19
E7
F9
20
BE
06
F4
10
F5
0C
11
05
E6
E0
1B
1B
DF
04
29
20
10
F6
F5
0F
E2
24
0A
E9
F7
C8
06
F7
F5
05
EF
10
F0
1E
18
FE
21
0B
EF
2B
F6
01
F9
F5
F0
F0
EF
0A
F5
32
10
EE
06
06
F4
DC
0C
EC
07
F5
F8
28
FF
F8
0C
E6
06
FA
0B
E6
1F
12
EB
27
EC
01
F8
07
F3
D7
07
0C
E9
DE
2A
05
E9
12
28
1B
F1
F3
F8
11
F6
20
FE
F3
1E
19
EA
F9
FF
FD
FC
08
F2
EA
03
13
F2
DA
08
F2
FA
1A
FF
F3
F7
17
E9
07
06
FB
ED
0B
21
10
F0
FE
FD
EB
02
01
CE
D7
19
DF
F1
E1
12
EC
1A
07
18
0D
16
20
CA
E4
FF
09
D4
F2
FA
F0
08
FA
0D
E3
F6
EB
E4
2B
EC
E6
EA
EE
B9
17
0B
FC
CE
11
22
04
DC
E0
15
FA
2D
00
04
FF
FC
04
E4
F5
F6
08
13
F7
1B
FC
1A
05
FE
12
FD
E9
09
0B
10
0A
F3
09
08
F9
FC
18
E5
EB
27
36
E8
10
0C
C5
F9
DB
0C
EE
07
E1
2F
1A
F7
EF
E3
05
07
EA
94
D0
1B
EE
D1
11
14
EF
FE
F8
15
04
FB
EE
01
F1
09
FC
06
FE
00
EC
13
10
F0
1F
24
19
F7
11
03
36
D5
EA
F7
0D
0E
0A
24
EB
F3
15
D8
28
12
0E
01
00
E8
C8
E4
14
FF
11
FC
0C
0B
FF
0D
CA
0A
22
0F
FB
13
26
17
FB
0E
F2
D0
01
14
15
B9
09
EC
F3
03
13
D4
09
FB
F4
1E
E8
F4
16
DD
DC
FA
23
E7
E5
0E
03
09
02
01
D1
EB
D6
EF
01
EF
DE
F8
18
FF
27
3A
01
EE
F0
18
E6
F7
03
D4
08
FE
F6
1F
04
03
DF
CA
FC
D1
E4
2A
00
07
06
11
02
F0
0E
2A
F8
F4
F7
FD
DE
0E
0E
ED
FE
10
F1
19
09
D6
F1
FD
25
2E
02
31
D9
F5
E2
F9
0A
0E
30
10
3A
22
04
CA
1D
1B
FB
E6
CA
2D
EB
E7
04
F7
E4
BC
1F
0A
13
FC
E6
0B
4B
13
F9
FB
12
2C
F3
1F
F8
01
FF
EB
0E
EA
06
14
E7
F3
D6
EA
E4
08
F7
04
EB
06
22
E2
F7
FB
0F
F7
1A
FC
F9
E6
20
02
FC
BD
0E
ED
F8
E6
08
18
DD
0B
E8
F1
1F
D6
EB
02
FA
FC
0C
12
F1
FF
FE
06
FC
DD
F3
F6
F6
FE
FF
FB
F6
18
BF
05
04
0A
34
EC
0D
00
26
04
F0
BD
FB
C4
F5
0C
03
F7
F3
FD
27
F5
07
EE
ED
02
12
FD
1B
F8
0D
F0
ED
12
C3
FA
E9
20
33
E9
20
F9
0A
0A
F1
F0
4D
FF
15
ED
3E
08
15
0F
19
C9
EA
14
26
DE
DB
FD
F6
F9
F2
F7
CE
10
E7
0C
FC
0D
0F
F5
06
01
01
21
F8
06
05
ED
09
EA
21
F3
0B
F1
05
F5
F3
15
E2
CF
1C
08
F3
17
FC
12
26
2B
1E
DC
2E
0A
0D
11
F0
E4
13
F7
14
F6
F9
F6
03
D1
14
DA
F0
16
10
0D
EE
08
FF
FE
EE
0E
08
02
D4
06
FF
12
E5
02
F4
0E
F5
E5
F1
0D
EE
EF
06
E4
04
F7
FF
21
F6
F4
C3
E0
FA
E2
3D
30
0F
D3
FB
FE
FC
21
FD
F9
FC
F2
FB
D2
F4
14
13
F5
15
0B
16
F2
12
E9
03
DC
F8
F3
1A
C4
0C
12
08
1D
21
EA
EC
24
E6
06
1A
26
0C
FE
0D
F6
07
F2
FD
12
05
F3
18
F0
23
1A
F8
00
1A
F4
C2
10
BD
F9
19
0D
FF
1D
02
23
12
F8
1A
DE
E7
EC
00
F8
F3
FE
17
FF
0F
08
E4
FA
FE
EC
17
EE
FA
FC
01
F5
09
F7
F5
F8
F7
00
FE
F5
F6
01
FE
06
01
F6
03
01
F8
06
FC
07
F6
00
F6
FA
03
F6
F0
02
F9
0A
03
F9
01
F7
04
01
F8
03
F9
04
FA
03
F6
06
03
00
F7
03
FE
F7
0A
FC
01
FC
FD
F8
FB
F9
03
FC
F9
1E
F4
1C
17
23
FC
F8
D5
EC
F5
D3
0C
EE
DA
20
E8
07
DD
CB
02
26
F7
F4
1E
1D
EF
18
F3
14
13
07
D9
EE
27
02
29
F5
FC
03
DB
F7
DA
F4
01
F4
0C
0A
08
1D
03
FA
04
FB
0A
00
D5
F4
06
E3
0C
11
04
FD
ED
F8
21
21
10
06
F5
F4
D8
FB
ED
07
0E
DE
E6
07
17
F5
E4
F5
F8
E1
F3
02
E8
FB
02
DF
FC
F4
0C
02
F9
F8
C6
1A
E5
09
05
DB
F7
EC
1A
2B
2A
EF
1F
F3
0F
05
0A
01
E8
23
FC
FC
F0
F6
FB
06
03
F0
F2
1F
FE
07
F6
F7
43
FA
00
EF
FF
08
00
12
F0
16
23
F7
F9
FE
DC
0C
F5
E6
F6
20
FD
F3
20
FF
57
00
F2
FC
15
3B
04
0D
09
11
0F
D7
E9
FB
08
0C
E3
F7
EB
C4
F8
05
17
0E
31
F7
EF
F5
EA
03
25
F5
D5
1C
F6
21
0E
EA
F3
1C
F3
FB
F5
FE
0B
00
FB
0A
FD
0A
0F
16
11
01
EF
EA
0A
12
08
FE
03
C2
D8
0A
11
FD
F2
FC
DB
10
15
00
1E
F2
F8
D2
F4
E4
F6
E4
0E
1A
05
E8
07
01
D7
0B
19
C4
1F
F7
C9
1A
0A
FD
E3
FB
2C
DB
00
F4
11
05
01
FC
F5
08
FC
1F
F9
37
02
15
F8
FB
D4
F7
DD
03
D3
18
F8
0E
05
C3
10
08
E1
F9
B6
F9
EC
05
12
13
04
0E
E7
07
FC
04
0F
FC
FC
16
D7
0C
F7
E6
FC
0A
F3
F0
EF
01
B7
F8
ED
10
29
36
FA
CC
14
10
29
25
FA
DC
F3
23
16
FD
FB
02
FD
EF
09
03
00
FC
0C
EC
08
2C
FA
00
FB
F1
FE
1B
FB
E7
E4
10
F6
FC
17
0C
A6
25
12
E8
09
11
1E
1D
0D
12
F3
DF
F7
DD
FC
FE
EB
FF
EB
FD
F1
11
19
F1
0E
ED
F8
18
FA
FA
D6
18
20
05
F9
0F
0D
19
0F
04
ED
04
01
FE
E1
FD
DF
F0
DA
03
05
04
06
FF
F9
1E
EE
F3
FB
12
05
E5
08
02
10
F2
DF
FF
1D
1D
10
F0
1E
0E
D5
18
D4
F4
04
1B
F5
0D
E5
F1
EA
F0
04
02
20
18
0A
09
3F
D2
FE
01
FF
DD
FA
F8
F0
1F
FF
F2
33
F8
B0
32
26
F5
10
27
F6
C9
02
E5
F0
0A
01
05
F6
F7
1E
37
01
BC
22
E9
DA
E0
F9
09
F5
FA
E6
0C
D6
DB
EA
37
15
FF
41
0F
07
13
0E
FF
01
08
38
A5
10
03
23
20
E2
E4
19
13
EF
E0
F1
B3
D9
F5
EC
BF
F0
E5
EE
17
F0
FB
01
D6
E2
DD
F9
E9
F6
0F
FA
F4
F1
17
FD
F6
F1
FF
F2
12
F9
20
F8
11
FD
12
CA
FF
0A
FD
1C
F0
E5
E8
FD
D3
02
1E
FB
02
28
06
EF
E8
09
EC
FA
F1
D6
F4
F9
FE
11
00
F0
0B
27
02
FB
01
DE
21
01
E5
F2
FC
19
FA
1D
09
05
11
05
F0
07
0C
EA
F8
CD
1A
E1
F9
05
F3
1C
EC
E7
D3
26
F1
1B
F9
0C
00
E3
F4
DA
F2
C6
0B
FE
FE
0C
F9
E9
D0
F8
FB
26
14
F7
F3
00
CC
0D
26
DA
ED
F2
1D
C3
05
16
00
1C
1D
11
16
02
04
EF
08
D0
EA
F9
15
28
BC
E7
0C
FC
F0
B9
DB
F6
E6
03
04
20
01
02
04
D2
23
1A
E1
0A
C7
03
17
E5
FE
1B
F4
41
0C
0A
F3
A9
B4
F3
2A
F2
1E
F3
D6
F0
05
16
10
EC
1D
F2
F9
05
07
01
0C
F2
FC
09
F9
E1
F6
1F
07
06
10
F5
12
FA
F4
22
09
F0
04
C3
03
F7
E2
EE
EB
1C
0E
D9
03
F2
F2
0A
FE
F5
1B
F6
F8
18
0C
01
14
07
F0
15
FE
F2
0B
E4
0D
DE
E4
FD
EC
10
1E
12
2C
0F
04
F9
22
27
EF
E3
F7
E0
05
0A
E3
02
FB
1D
08
04
17
01
1B
06
CD
11
F5
0D
0E
0B
0B
12
31
0A
F3
ED
F2
0C
CF
FB
18
06
E9
07
F7
E9
C5
05
E4
97
10
FA
FD
EF
FC
E7
0E
F8
F1
E7
F8
F1
03
F7
0C
EA
0F
2D
04
00
10
F1
12
EF
13
EB
0E
25
E2
02
05
F0
0C
BB
DF
FC
20
F5
CE
F8
21
00
C6
17
14
09
06
01
0F
FB
19
1C
E1
27
C7
E5
05
0E
0F
E9
EA
F4
0E
DA
35
1B
00
D3
F6
D4
FA
11
0B
07
F4
F7
0B
FC
14
D3
0A
FD
E1
F7
11
1E
0C
F0
05
E3
F3
0F
E9
F1
FB
E7
F0
04
05
F7
F1
27
E8
0C
FE
16
E1
FE
3F
0C
19
1F
DD
EE
2F
04
F8
FF
E6
FC
13
E3
12
F9
C7
F3
E6
02
14
29
D8
E9
F3
DC
F9
20
1E
15
F7
F6
00
FA
DC
EA
0B
09
1D
FF
0F
FF
05
F0
19
30
03
0D
1A
15
F4
EE
0C
1B
0A
FA
F0
0E
F1
09
F2
12
32
02
FE
DB
03
2B
06
23
FC
04
FB
DC
35
EC
CF
02
0C
03
20
0D
14
1A
F1
F5
0C
F5
F9
F1
F7
E7
11
E3
0D
FE
DD
13
29
F7
F0
DF
E1
F9
CC
0C
FE
21
E2
0B
EF
C2
2A
1F
F5
0C
F9
F6
DF
06
EB
24
19
09
0C
F5
11
01
20
C8
B2
F7
06
15
FC
EC
CD
DF
FF
18
11
FF
F8
30
1C
DA
12
E2
F4
16
0B
E8
07
0F
E1
0F
01
E9
0B
E8
FF
D9
0A
FB
F4
15
06
FE
F3
0A
F1
EF
07
26
22
13
DB
FA
FC
DC
0B
EB
09
F8
F9
0C
F8
0B
05
23
0A
E6
05
07
1C
0B
FF
F9
33
24
DE
EC
07
05
07
DD
01
CC
0B
D6
13
18
08
20
E4
0C
FD
D3
D6
18
20
DB
1C
D3
05
F9
EB
E6
14
08
19
05
10
F7
FC
27
06
0F
27
22
27
FD
FB
0D
15
FA
10
09
01
F6
CA
F2
1D
DC
14
0E
E2
ED
1F
21
19
0C
08
01
BE
E6
0D
FC
F8
F9
06
FB
FF
2C
20
FA
F7
2C
02
FE
05
06
FB
E0
12
C7
1E
36
E8
0F
EF
EC
01
0C
E1
00
FE
00
CD
27
0D
03
E7
E8
20
16
F5
21
FD
0A
17
FC
F6
1B
22
02
28
EE
05
0F
02
CD
E6
F4
07
11
09
F9
E5
F9
01
F5
F5
0F
B6
EE
0D
EA
EC
C1
20
EC
F5
22
00
E4
ED
0B
EC
18
F8
EE
F4
08
1E
05
EF
20
09
FD
FE
F7
D4
04
09
FC
16
FE
EE
E7
F8
0F
20
03
03
FF
F6
1D
18
0A
17
FF
06
1D
0B
01
00
FC
2D
E0
17
31
FB
00
0C
0B
3C
E4
01
F3
EB
1C
F7
F6
FE
21
EA
09
02
FC
25
03
06
1B
02
E3
17
13
E7
F3
10
0E
18
F8
19
F3
FE
1A
16
19
11
E3
F0
F4
FF
1A
EE
13
FF
F6
28
FC
1D
0A
13
08
17
13
F6
08
DC
FF
E5
E6
D0
F5
0B
07
1D
04
10
18
08
CF
12
EE
14
1B
D9
05
23
1E
00
11
14
F0
E4
FD
0C
09
07
FC
04
1E
D6
F5
24
F9
DE
F5
EB
DC
EF
03
06
12
07
0F
F6
01
17
05
19
F9
0C
EE
03
0C
0E
17
10
FF
18
F8
F3
03
12
FE
21
19
DC
E0
12
06
FB
D2
FB
E2
02
17
06
10
04
1F
04
15
02
FC
F2
E8
14
E7
2E
D0
11
16
ED
F6
07
1A
17
F7
F2
04
15
03
0F
03
1A
17
2D
FC
FA
25
03
1D
F9
F8
03
EA
11
15
FA
08
E8
F6
13
FC
FA
37
03
1D
16
1B
08
05
FF
1A
FC
DD
EA
FA
E5
11
F1
FE
39
44
11
0F
FD
BC
0A
FB
0A
E8
2E
28
21
03
E2
F4
02
FF
0C
F3
1D
08
1B
20
E6
DE
08
F1
1A
F5
F5
06
03
F6
09
F7
1F
FD
03
24
14
E5
F8
FE
EC
0C
10
09
16
FB
F8
08
04
06
E4
01
FC
F8
EA
01
F9
E2
EA
F6
0B
F3
03
D3
08
09
F7
00
D4
0C
F1
FA
1B
FF
ED
1B
32
D0
1F
F9
D6
F3
1E
F2
18
F7
FE
17
16
D0
F7
19
34
FB
03
FB
EF
C6
1E
FD
F7
06
29
F1
D1
EC
F9
2B
0D
08
EA
0D
E8
06
F4
F2
C6
F6
C8
EE
0A
FB
F9
0D
0D
F6
C8
1A
03
DF
FF
08
EA
FA
00
C8
E8
25
FB
03
EF
DF
02
00
E2
1B
CB
F1
CC
E8
EF
FC
F6
D6
FC
09
F8
ED
F8
04
D1
E7
0D
EA
14
D7
F7
DD
F2
DE
E5
EE
11
0D
EB
F5
E2
F5
D6
FC
F1
F3
E0
14
F7
F9
E9
EE
09
1F
F3
D6
03
FA
F3
CB
F6
FE
09
D0
E7
02
EF
16
05
FB
FC
FA
19
03
1C
C4
FA
EB
F2
0B
F4
F5
08
D8
22
FD
EC
00
1D
F8
E1
FA
F3
0B
DA
D7
0D
0A
1A
FD
CA
FE
E4
02
DE
2E
E5
E7
F9
F7
1A
E3
D3
07
F4
D5
19
10
FA
03
02
C0
0C
0A
E3
F0
19
05
D8
1C
EC
E6
FE
09
18
04
13
F9
02
0F
0A
FC
F9
12
E1
E0
FA
09
0F
C8
10
08
20
1B
F5
1F
F9
13
FA
CE
14
12
0C
08
E0
05
FB
08
E1
0D
FA
0C
FC
1A
18
D8
F8
E0
16
0C
0D
09
F4
F8
F3
F6
00
09
0C
EE
E5
06
EE
01
00
F9
FF
0E
1C
FA
0C
23
19
F6
17
F0
25
0B
DA
F5
06
D6
0E
F4
01
09
10
21
CF
23
F8
2F
1A
B9
20
FA
11
27
0F
F8
DC
23
13
FE
16
16
E9
11
05
DC
D8
19
F1
12
03
2F
CB
DF
FD
0E
10
0C
09
D7
1E
EF
00
2D
F2
03
CE
F2
08
FD
F7
05
FF
24
1A
0A
35
00
F0
F7
F6
0C
F9
FD
26
08
FC
22
11
F1
05
02
0B
EE
0A
ED
04
F9
FE
28
0E
03
03
0C
20
20
FC
25
0D
E7
21
F4
09
01
11
F6
EB
00
04
D7
F5
E8
20
DB
F5
FA
F6
1D
FA
F7
FA
F7
07
FE
F8
F9
F9
FA
02
08
02
FB
09
03
FF
07
07
FB
03
05
F9
05
07
FE
FC
0A
F8
0B
F4
09
05
06
09
06
F8
05
FF
06
F7
03
F9
01
FB
09
05
07
01
02
FC
07
0B
07
05
03
07
0B
F7
FC
FA
02
0C
FB
16
1B
E6
19
26
F4
0D
E3
04
0A
01
FC
FE
0B
38
1B
F8
09
FD
C1
B3
FE
2E
03
12
1A
0F
0D
E4
05
16
19
1B
27
0F
D7
F9
25
0A
1A
0E
1E
15
06
13
E3
0A
E2
CB
22
06
FA
0A
F5
FC
EA
FD
21
E8
FC
00
FD
25
24
12
FF
21
FF
01
FF
1A
F7
0E
0A
1E
11
3C
0A
EB
FF
03
B8
E0
D8
0C
08
37
1B
01
19
13
05
03
2B
F8
D9
F5
23
EB
11
0B
EF
02
15
03
05
F0
10
02
D5
19
E3
09
06
1A
F5
E0
E1
F4
F1
01
17
04
0D
F2
FB
F5
FA
FF
06
F1
0B
EC
FA
F0
13
00
D8
10
F7
02
0A
14
F8
04
DB
EE
C6
0F
01
0C
EC
0C
F9
F2
1C
E2
FD
ED
0E
08
F5
FA
EC
F1
0F
BC
E0
E9
2D
1B
E8
DE
ED
05
B4
F5
E9
F6
18
08
FF
02
EA
F8
06
05
EC
06
F7
11
07
F2
12
04
18
E9
EF
06
F6
0D
E9
F5
0B
F3
FE
05
F9
F6
EB
FD
92
FD
F9
00
F7
C0
EA
12
C8
F3
DD
04
EA
08
EB
D9
F3
06
10
E3
FE
CC
2A
03
01
0A
13
F9
F1
15
F3
FC
DC
E6
E4
04
9F
02
FE
22
FA
03
03
FC
FD
E7
E7
04
E6
07
FE
04
08
2A
F1
02
1D
02
DC
09
DD
F9
01
08
EB
21
02
1B
0E
05
E3
0C
20
DF
BF
10
FE
E9
3D
E9
EC
08
F3
FA
19
F2
28
0C
0D
F4
FD
22
FC
0A
EA
16
0F
03
0B
F5
C6
FF
D4
E0
17
F0
01
C8
F0
17
00
07
DF
F6
07
0D
FE
EE
E9
FB
24
C8
F1
C1
04
07
2D
F0
09
16
FA
1F
F4
08
01
E2
07
D7
F7
12
00
F4
F1
F6
F2
FD
0C
0D
F8
08
2C
23
06
0D
D6
D6
BB
10
F2
F3
00
F0
1E
F0
FC
04
17
12
F8
04
0D
06
FE
0F
05
16
22
01
FA
02
14
FF
D2
00
0C
D4
05
E6
DA
FE
ED
05
E9
D5
02
0C
FD
F4
05
F6
0A
D5
FA
00
06
F4
0C
EC
F4
0E
FE
F5
FB
1F
1D
EC
16
05
F7
07
F6
02
FE
0B
F8
EE
EA
F5
DF
0B
0C
1A
EA
14
04
02
3C
E8
FA
13
F8
E9
00
C0
14
10
FA
14
E6
15
A3
F0
00
FB
1E
EA
1F
DB
F5
F4
F1
0A
FF
07
DD
FE
2E
D8
F8
C3
22
D9
00
05
FC
0E
E4
F8
AD
A4
BE
EF
C5
EF
06
03
18
30
22
1D
27
F9
06
11
2E
F2
16
F5
27
16
0C
F4
F9
1A
01
E8
F9
BA
E5
EE
DC
DD
EC
F3
F5
F1
D1
FC
05
D6
0F
DF
F6
DF
02
04
13
E8
08
0C
20
EB
E8
FD
EE
18
F9
21
F9
11
EC
FA
C3
CA
0A
2A
E7
B2
DE
F3
07
E7
0E
08
05
F7
31
0C
01
FE
0F
EF
13
0C
EC
EC
FB
24
FF
14
FE
02
E6
ED
16
E2
14
F7
01
DB
09
FD
35
29
E4
0F
FB
FA
FD
02
FD
0A
0A
0E
C6
18
FF
FB
01
FD
08
04
13
D2
1F
F5
15
FB
03
08
FC
F8
1C
F4
CE
F6
F9
10
17
F2
E2
DB
DE
EB
08
01
E0
FA
00
DB
F6
E8
F1
E7
F8
14
C8
FE
05
ED
F3
00
EB
07
FF
03
EB
F3
DD
09
FE
10
0C
B7
10
1D
26
F0
D1
FE
03
06
2F
E2
D3
1B
2B
29
26
13
0D
F8
DA
CB
17
00
01
09
26
D5
3B
17
1D
07
E2
FF
17
B9
06
2A
FD
F0
EE
FF
FA
DE
09
09
00
F4
F0
FC
EF
15
F5
FF
FF
04
E7
F7
18
04
03
FA
FC
05
0B
FA
0A
09
ED
09
D4
FD
DE
F1
F0
EE
0E
F8
EC
DD
F5
2A
29
0C
01
0C
34
FA
13
0B
F8
0E
0A
F5
17
08
D5
F6
D8
33
D3
FF
08
D0
26
07
ED
0A
F2
FB
FA
19
F0
F3
C9
FD
00
EA
EB
E9
ED
F4
1F
11
15
20
F5
11
03
F2
F8
F6
0A
13
F9
06
11
0E
02
F7
D5
ED
01
DA
F4
1F
04
D1
F6
02
F4
E9
E7
F2
B3
09
02
F0
0B
FB
F1
ED
0C
FA
DF
0A
DB
F3
E3
FA
EE
0D
03
FF
ED
07
EB
08
ED
1C
09
F0
1B
D2
0B
09
E9
00
C1
F6
03
13
E6
E9
F2
F5
FE
C7
0A
0C
13
08
C7
03
DE
F2
05
F3
0E
E9
13
09
15
01
DC
04
CF
0C
D7
09
F2
00
13
EE
D6
CD
FF
FC
04
04
D7
EE
0F
10
FD
DF
EA
FB
F7
FE
10
EF
F0
EA
0B
EF
07
00
15
F7
FA
04
D6
07
F8
FA
06
05
12
D4
ED
D7
F7
FF
EE
EB
F7
D7
D2
24
0B
03
F3
E7
10
0A
FC
F7
0A
01
F2
F6
FA
F4
0D
02
01
FC
C1
00
F8
63
29
E4
0F
CD
10
B7
14
F4
EA
FB
FB
F3
1A
09
04
FB
17
1C
10
16
0D
F9
F1
04
0A
15
05
D8
07
F0
FE
FD
CD
18
D9
FB
F5
FC
25
F1
F8
0D
05
0B
0B
16
F0
08
DF
1B
2C
1B
08
F1
FA
DF
07
10
E6
FC
E9
18
CC
FB
DD
35
24
CD
FD
1F
E6
29
0B
F6
F6
DD
F9
F0
26
DB
05
05
CE
14
0A
FD
19
FC
1C
E9
03
D5
ED
2C
26
DE
F6
15
2B
3B
E4
E1
FA
17
F5
00
FC
E6
FB
D0
19
C0
F4
F8
F4
08
E5
FD
D1
12
DF
05
05
05
07
DC
FC
F9
07
27
0B
2C
F3
FE
9D
CD
E8
09
02
F3
09
F0
E3
FA
0C
05
07
17
04
F7
F6
0F
E5
17
F7
13
F5
DD
F7
02
D4
D8
FE
03
EB
F8
0E
F9
05
08
0C
DB
00
E7
07
1C
01
ED
04
02
A4
03
F5
04
13
00
2E
02
D4
FB
F9
14
EB
0B
0A
CF
E4
EA
EF
C4
18
02
EF
F9
F3
13
0F
DB
E4
20
12
4A
14
07
DC
0B
FD
0F
FE
0C
0C
D6
EA
28
CC
FE
E0
18
FF
12
D2
D1
06
14
F7
F9
1C
F1
18
12
EF
00
0C
0A
25
0A
16
F7
09
05
FC
F9
F2
D4
CF
F5
E0
10
08
FA
FE
1E
10
0D
F8
E8
F7
07
0E
C5
26
01
04
C9
FB
FA
EF
FA
1A
06
1D
04
00
E5
32
20
12
F9
FF
03
F4
0B
E6
F4
F6
FD
DF
0E
19
D8
04
F1
FA
D9
1A
DA
21
FD
E0
00
ED
00
DA
F6
F9
F7
ED
E4
E6
C4
1C
FB
D4
16
FA
F2
D6
12
F6
0A
FB
F9
0E
E2
FA
18
01
0F
E1
09
F3
F4
0F
14
F5
19
FC
DA
1D
15
FE
EA
F0
08
1F
FC
14
F2
DB
0E
0E
02
19
01
19
F3
01
22
F2
F5
FE
03
0E
0C
DA
14
10
F8
11
F8
F3
EA
14
D3
1A
15
E4
EF
05
F5
16
0D
FD
13
EF
0C
FA
FF
F4
0F
D5
12
FE
E8
F4
03
10
E2
09
F3
F9
14
11
14
EE
1D
E4
0C
09
DB
00
E4
03
EA
D1
DA
DF
16
01
16
F1
16
11
0C
02
FB
F2
01
1C
F5
1A
23
27
F5
1B
19
D7
D8
02
E2
1A
06
06
E6
EA
B7
E9
03
F3
DC
02
F9
E5
E4
D5
0D
FE
34
FE
04
07
ED
FB
21
FB
01
F4
E3
E3
09
E4
F3
08
19
FF
C8
E2
04
11
08
05
DA
CE
0A
2A
00
F2
EA
1D
11
0A
05
14
F5
09
1F
0D
F4
D4
F7
E2
0D
FD
1F
00
BE
F9
F5
F5
E1
F4
02
06
04
F5
0A
13
FA
00
0B
10
20
0A
FC
E0
0C
FF
05
F8
F1
F9
00
01
F6
C7
FF
05
04
FE
FC
FE
F6
18
EB
1A
CA
01
F5
22
14
D3
02
36
00
FB
F8
0E
0C
0D
FF
0F
F9
D0
0F
F5
01
CF
38
17
E9
FA
F9
05
F3
00
FE
F3
21
00
11
12
FB
11
FF
03
00
EE
F7
FC
08
F0
EC
F7
1D
ED
08
17
23
EF
EC
FA
01
1A
07
F4
F3
F0
0B
F0
09
ED
DA
F8
17
01
FD
01
F4
F3
0F
E4
0D
E7
02
DD
F7
FF
FD
00
F4
1B
D8
FB
23
03
ED
09
02
DD
F9
F7
E7
ED
00
F4
00
06
0F
0A
16
D6
FB
1C
36
0C
07
FF
E5
FA
12
EE
BD
18
0C
06
BB
E6
0B
16
01
03
ED
0C
D4
16
10
1C
E3
10
24
18
33
FA
D6
07
0F
14
CC
F6
FE
EA
D1
17
C8
17
0E
D0
E6
15
04
08
F1
01
0C
FB
CE
F8
CA
0C
C6
03
E9
E8
0B
04
01
26
11
FD
01
F9
CF
D7
ED
CF
E3
B1
FF
E6
C4
E6
D9
C8
20
13
FA
F7
F0
F9
D8
05
EE
F0
16
FC
F9
E0
F8
EF
FD
F0
0C
ED
04
22
19
D2
24
FD
FD
ED
F1
F9
FC
10
0F
03
EB
F4
24
13
03
EF
F1
1B
F3
F5
FA
06
FE
D0
08
A5
E4
FB
19
00
16
DE
ED
F2
FD
D3
0E
26
EC
05
A2
0C
01
FF
C5
10
0C
F8
D1
F8
F2
04
ED
FB
0E
EA
02
F1
D0
FA
00
DE
EE
00
3D
06
18
FA
F0
25
F2
04
F6
EF
12
F8
08
0E
04
E7
01
0C
05
F3
FD
E7
F9
FB
EB
B3
0F
01
11
21
F2
E8
0A
F2
0A
B9
EB
1E
F7
EC
F0
FB
03
08
E9
01
00
05
0D
0C
08
10
08
E5
F9
27
F6
F5
EF
FF
F6
0A
FA
00
1B
F5
DE
08
BA
F6
FB
03
FB
0B
2A
FE
02
FE
06
0B
FD
EF
27
F0
0F
F4
00
E3
13
DE
14
00
00
04
C9
15
0E
F2
0C
A9
09
F1
01
FF
F8
E4
EF
2C
06
08
21
0D
D8
F3
16
EB
10
08
19
F7
EC
12
E0
EC
FD
FD
09
05
1A
FF
10
F1
FC
1C
E3
FB
FA
F8
02
03
EF
07
F5
F8
05
0D
1B
0A
FB
05
F8
EF
06
E9
EA
FA
E8
14
0E
F0
19
EF
17
E1
13
C9
0B
F9
F3
1A
0F
18
0D
21
12
03
1B
1E
0D
10
09
ED
FC
16
1E
F9
F4
F7
05
FA
F7
EB
16
DE
0B
07
D9
00
F4
08
09
06
FA
FA
03
09
00
06
0B
F6
04
F6
00
F5
09
03
F9
FB
FB
02
01
00
F7
FE
01
01
0B
FF
FE
FA
01
F6
F9
FE
05
F9
03
FE
02
FA
07
06
FD
07
F5
FF
FB
F6
FA
FE
FE
08
0A
F8
09
09
06
F9
FF
0A
06
F6
17
03
EA
02
0B
F6
0A
EB
0B
E7
F6
0F
E6
F7
D9
17
F2
2B
EF
D0
D6
FB
42
EF
05
0A
F6
FB
F0
0E
ED
21
0E
FE
15
0A
F7
FE
24
E9
13
F0
18
06
FA
EF
00
CE
1C
FC
F4
12
F7
0F
FD
00
0B
22
FE
F3
F2
11
18
0F
F0
15
1D
0D
EB
F5
05
07
21
F2
0B
FE
15
0B
D7
0D
FF
D3
06
B0
F4
F8
25
08
07
0D
07
F5
EC
D6
09
EE
F9
12
FA
10
20
0C
1A
1B
EC
17
15
14
02
FD
10
D7
05
F2
07
D8
FF
F0
F8
B9
01
F9
17
F5
F3
01
0F
0A
E1
EE
20
E2
E2
FB
F1
FD
09
F4
F6
1E
F0
E8
13
F9
FE
BE
E3
E2
18
02
FF
FD
1B
EC
08
E8
EC
05
0E
E1
01
F3
0C
16
FA
0E
F7
EB
07
1B
13
F8
F3
07
11
C7
FB
0F
34
13
FA
EC
FF
DE
FF
EA
08
E5
10
10
E9
FC
E4
0F
16
1C
07
00
00
E2
10
B6
0C
08
E9
17
ED
07
FF
CF
F8
EA
0A
F6
15
F5
E1
1E
08
18
F6
DF
F2
EA
26
EB
F4
F5
FF
03
CC
ED
DA
26
ED
05
07
05
F3
09
F2
F8
15
E0
F2
F4
05
CE
E0
0A
FE
F9
0E
1B
1B
15
C8
25
1C
18
13
03
1E
FD
2F
07
DA
03
F8
EF
0F
DF
02
1F
0C
F5
01
07
0F
14
34
18
F4
F8
F2
D2
14
0E
27
EA
DC
07
14
F2
18
1A
16
10
E4
22
CE
28
1B
15
FE
F7
3E
F9
E2
0F
FF
E7
F4
EA
CD
C5
02
E7
E5
E0
FB
06
DE
05
EB
F6
19
DC
DE
14
EE
1F
A9
EA
EC
00
FD
FE
E6
01
0F
FE
F1
00
03
E8
C8
02
F7
F7
1B
1B
E5
FF
E9
F8
F6
30
0A
02
1D
0F
03
2C
04
EA
09
EB
36
D6
06
08
00
2C
F8
E7
F9
14
05
E6
11
13
ED
E4
07
13
F9
27
04
01
FD
02
06
F5
FC
0A
F7
0C
E7
F2
FF
D3
04
D1
E0
F5
24
E8
FC
FF
F3
FC
E7
18
00
F1
13
06
FD
DF
F0
24
F0
F0
1D
02
03
2F
FE
F6
03
FE
12
FE
FB
F6
0B
20
F4
EA
F4
2A
00
E6
0B
1A
02
0B
BB
F4
EC
D1
E8
00
0D
1A
E6
0D
17
AC
12
AE
FB
02
06
F7
EF
14
05
FB
CF
18
05
F8
03
DA
04
00
EE
FD
CD
09
E4
18
FC
F0
EA
F6
FC
F7
C7
D6
FA
ED
05
FF
01
20
2C
FC
11
02
01
FC
03
25
C9
08
EE
14
F4
39
01
DE
F7
04
EB
F5
E5
03
DE
11
EE
DD
EE
F7
F2
DA
03
02
CC
FE
14
00
DD
2C
0E
03
E5
05
08
1C
D8
D5
EF
FD
21
0C
FD
E3
05
0C
F6
E1
D6
03
11
C5
D5
EF
14
F9
FF
FD
0F
FD
FA
11
08
11
F1
F4
DD
03
FC
00
F8
12
2C
05
00
01
18
F4
FA
D2
FA
14
F2
FD
F3
06
04
24
EA
E3
10
F6
F4
E7
10
0D
06
EA
16
E4
FF
15
EF
06
F1
06
F4
27
F4
02
E7
02
FE
0E
FA
FE
F1
05
F9
EE
F1
0A
DE
1A
FA
03
19
0B
FB
D7
06
C4
DF
E5
CB
2A
18
0C
35
02
02
06
0C
E7
F3
DC
14
F0
F5
F7
FA
0B
FF
F1
E8
08
34
F9
02
1C
25
27
F5
E3
07
F2
16
0F
DF
F3
12
1B
37
17
0F
F7
D2
F6
DD
02
C4
09
17
F8
F5
FE
FC
1C
FD
02
13
18
C4
ED
53
EB
24
FB
00
04
F4
04
EE
F6
02
F3
FB
E5
1D
0C
03
09
0E
E8
FA
16
F9
0A
D4
FE
F2
03
D0
1B
18
03
25
FA
ED
F4
EA
D6
DB
11
07
F7
05
E5
2E
13
14
FF
FD
34
FB
0D
17
12
EB
04
F0
18
08
06
08
06
36
D9
17
E2
B9
F4
FC
F5
06
F3
F4
09
23
E6
EB
FD
FE
36
DA
EC
05
03
F4
06
00
18
1B
01
18
0B
01
F1
03
F4
F9
DD
0E
28
23
D7
E4
F4
E4
EC
0E
0D
18
0E
D8
05
0A
19
17
03
FA
DA
00
FB
E6
01
03
D4
EF
0D
F3
F2
02
D2
E6
EC
F4
00
28
11
E5
FD
0E
FF
0F
E6
E9
11
E1
19
09
1C
01
E0
FE
D5
FE
06
FB
EE
ED
E8
E1
FF
E4
F1
F2
09
11
F5
02
E6
CE
26
E7
13
DF
04
1A
1A
03
D8
16
01
F4
DC
0C
05
F2
F5
FC
DB
C7
FA
07
F9
E6
ED
DD
07
EB
E0
F5
14
DD
01
0A
F4
F2
01
E8
22
E9
05
EE
3E
03
E5
F4
0B
FE
00
F3
07
EF
1A
E3
ED
CF
54
01
F2
01
38
DF
E2
F7
F7
01
F6
FD
F8
1C
FB
FA
0C
F8
0E
F4
04
0E
1D
2C
31
F6
04
E3
1F
31
15
F8
2E
D8
0D
FF
16
FA
FA
26
FF
F2
2D
05
17
F8
06
25
26
25
1A
FA
1E
19
0B
F9
04
D7
35
F3
31
0A
FC
02
04
15
08
18
EC
E4
08
F8
07
13
2B
21
F6
13
DA
05
0F
0A
0B
DB
06
01
D1
04
04
FF
E4
E4
D9
19
CB
34
0A
1D
0E
23
FD
27
19
E3
02
0A
15
01
15
03
17
F4
D8
10
15
04
0A
0C
0C
09
F7
DF
00
1F
16
E5
FD
02
10
0F
FB
E6
2A
17
E7
E9
FF
00
0D
E0
1A
CF
D2
FE
BA
0E
E7
EA
D8
10
E8
E7
1A
FF
DF
EC
DB
01
F1
37
E3
3A
22
E3
E4
DC
10
FE
FC
19
11
FF
01
F9
05
F6
0D
13
1E
FE
18
FA
04
16
05
05
0B
08
08
19
D6
FA
FE
21
FD
F7
DB
FB
09
17
0C
FC
0F
F7
1F
0A
19
DB
28
02
C6
EA
F7
34
15
12
18
06
CC
E5
09
02
B2
06
21
F7
E5
03
18
FF
12
04
F6
E1
FB
FF
DE
0D
06
FD
13
F4
17
FE
01
F3
FE
EE
FB
13
15
FE
39
38
0A
01
DD
26
1E
14
DE
E1
27
1A
F2
EB
0A
ED
11
F3
FA
FF
02
2B
33
FE
04
15
E5
EC
02
00
F6
EA
D0
1D
EB
20
EC
33
11
25
0D
F8
FF
02
F8
06
26
D4
07
04
11
D9
1E
C0
F5
FE
07
02
08
FF
01
EF
02
08
0C
F3
22
FE
FD
08
F5
FC
0E
EF
BE
F4
25
CD
09
10
15
FE
03
F7
21
ED
FE
EC
E4
02
F8
EC
18
F4
0C
FF
FE
00
00
02
ED
3E
15
FF
F5
04
F6
EF
F5
FF
FC
D7
F5
FC
29
12
DB
11
F6
06
E9
F8
05
2D
F6
ED
41
31
FF
F5
FC
1E
0E
10
11
08
F3
F1
11
EF
FA
08
1C
24
03
E7
2F
F0
03
2F
13
F3
01
2E
12
EF
E9
F3
D2
DD
08
F0
FE
F5
F3
E9
0D
03
F6
ED
FC
06
FB
0F
11
04
F4
25
AC
FB
0D
F1
08
00
18
0B
05
ED
02
FA
1F
24
0B
FB
04
1D
F6
1A
21
C9
FB
03
DD
F0
E6
25
F6
1F
F8
0E
24
20
3E
FB
DE
10
1E
F9
F3
2D
1B
F8
12
11
D8
F4
FB
F3
18
0D
0B
D4
0B
D2
15
EC
F3
C8
FE
0F
F4
E2
F7
11
02
27
FE
FA
15
EB
06
14
F8
04
0D
11
03
26
F1
10
06
32
09
0E
F4
F4
1B
22
02
E3
F4
0B
1D
0A
F3
FF
0F
0D
3E
F8
18
12
FE
20
D4
09
BE
DC
C6
00
E3
20
FD
CE
04
FE
0E
9F
D7
F7
F4
DE
04
29
10
F4
0F
13
F0
FC
FF
F2
C9
F0
D6
F9
F5
FB
01
01
12
04
10
21
09
FB
07
01
1F
C1
12
02
FF
D8
F2
1C
27
13
ED
EF
3E
10
21
FA
19
F4
E2
F3
FD
03
DB
0D
17
18
C2
26
F6
E9
07
1B
05
F7
16
1B
FF
1F
FD
F7
1C
1D
FB
D8
FB
EC
13
FE
F5
03
F6
D4
02
21
F5
0F
06
EF
06
DD
0A
13
13
24
FC
F8
CA
FE
00
FC
DC
00
F9
15
1E
E8
FD
18
24
33
E0
F3
E4
17
17
FD
01
E5
1D
08
31
17
0E
0D
F3
C4
18
DE
FF
27
01
13
F2
1D
03
C6
22
2F
EB
02
FF
07
02
22
FE
0F
F8
EA
07
22
06
EC
A1
03
03
08
25
34
00
00
CA
F3
FC
E8
4E
2E
3A
1F
0F
DB
4B
39
D2
FD
F0
16
0C
DD
F4
FE
D8
C6
1A
17
11
25
EE
EB
1C
21
1F
D5
0B
0F
ED
F3
E1
BF
13
FA
23
ED
FD
F2
31
FC
0D
01
F8
04
F8
02
D3
D9
F8
D2
DB
EA
06
F2
D1
E9
DE
08
0D
E9
F0
EC
F5
F7
FC
02
08
0B
F2
07
E7
19
11
FA
D4
FE
FA
FD
0E
1C
E7
05
DD
02
F5
14
0E
F1
EF
29
15
F9
FF
11
EF
01
DF
F8
30
13
ED
F2
FF
FD
C7
E5
DD
D9
07
18
EF
EA
ED
EB
F9
ED
CE
E3
12
2D
0B
DE
1E
06
EC
C6
DE
04
E4
DE
F7
EA
0D
FA
1C
22
EF
03
0B
DF
27
07
0E
D7
31
1F
00
30
0C
D3
F5
10
0C
22
FA
0A
F6
1A
19
F4
DB
01
09
08
0A
09
DF
02
E7
FD
D1
04
F7
14
1B
EA
21
09
13
31
DA
FA
FF
03
F3
06
09
0A
10
EA
DE
02
F0
0F
14
1C
33
06
08
09
26
F0
F7
EB
07
FD
11
F5
0F
0F
FC
EC
FF
9F
E4
14
EB
23
FC
33
F6
09
DD
FB
0A
F9
FC
25
01
02
0B
FF
ED
0A
E2
02
05
0C
02
DF
14
FF
CC
05
C0
0F
F4
19
E5
00
F0
FA
20
27
14
17
F6
DD
E3
03
FD
FD
07
11
14
E4
E8
EB
F4
FB
EE
EF
03
26
0D
3F
0A
F8
FE
FA
19
FB
24
16
FF
02
1F
F7
DA
19
01
1B
1A
FC
09
F9
03
14
F3
C9
01
E0
0B
FE
3F
1F
29
34
14
0A
DD
21
D4
12
EF
1C
1F
F3
03
0D
DF
0B
08
17
22
0B
07
E0
03
2B
EF
DA
04
02
18
00
0F
11
D1
06
19
F5
F0
00
03
FB
04
FD
F9
08
06
F2
05
F7
FE
02
F8
01
08
0A
06
F4
FC
F9
04
F8
FF
08
02
FB
07
01
08
F8
FD
01
F6
06
02
F8
FE
FF
FA
03
FA
04
0C
06
FC
F7
09
06
FD
FE
04
0B
03
F9
08
02
F9
09
06
F0
FD
04
03
11
FC
F9
13
0A
F0
0F
FD
08
09
F9
0C
B6
D9
32
0A
F4
0E
0D
E1
02
FD
2A
03
10
F6
C2
C7
EC
20
E9
22
FC
1F
0E
F6
D3
06
1C
EA
14
E2
EC
11
CD
1A
43
D1
2D
DD
FB
0D
18
0B
F7
01
F6
1D
FE
0C
0F
14
03
FF
F8
0D
1A
28
07
F8
FF
FA
24
EA
03
FB
FD
09
F6
26
02
E6
11
BA
E3
FC
FA
EB
10
18
04
09
F7
FE
02
16
FD
04
0F
04
13
1A
FE
02
D7
21
35
00
00
0E
0F
F8
00
FA
11
E0
0B
FA
F1
CE
01
F5
1A
E1
07
0A
20
F4
