FE
37
FA
FA
C9
1E
C8
C9
3A
16
D2
04
1D
D6
24
D4
FF
D7
13
4C
00
1A
F1
DC
45
3B
FF
22
03
09
19
F0
E4
2B
F3
D3
F9
2E
39
15
E4
ED
DE
21
E0
21
F1
45
C8
15
0D
DE
F3
2A
E1
32
25
13
D4
01
E2
EC
E8
F2
EB
F9
63
FF
F6
D6
EC
0F
D0
04
EC
02
F2
F6
38
0D
21
EB
F6
EF
0D
E9
D2
2D
25
0F
22
E9
0F
CE
11
D6
F7
F9
18
E7
35
D5
25
FE
0E
26
D5
0E
C0
F9
C7
E5
15
28
FC
F7
F1
15
EB
CB
10
B8
FA
F1
EC
1F
12
55
2E
C2
FA
03
BD
08
F4
11
E0
F1
B5
29
E7
FA
12
09
D9
16
C2
DB
14
2C
06
28
03
E0
EB
DC
F7
EF
3A
2F
0A
13
E5
E7
16
F4
D0
42
D5
EF
14
E9
CE
09
C9
F7
FC
FC
DC
0E
E8
E9
D6
29
F5
1A
DC
C3
16
BE
26
2B
F2
CF
BE
D3
29
F6
FA
19
EF
F5
F0
E5
04
F8
15
E8
EA
19
F2
D7
F5
F6
E1
18
34
D3
E6
CD
E9
E7
5B
01
EE
0C
FF
29
E4
04
E4
19
BA
05
13
36
E4
16
E4
2C
C8
26
2D
12
1E
29
ED
18
CA
E4
16
E6
CC
2A
BE
FB
D7
F9
1E
DF
26
E3
33
05
E8
0B
D1
FF
E7
14
2E
D7
02
1B
59
FD
F1
07
A8
C4
29
0F
3C
13
EF
EE
03
F3
0D
02
15
26
14
F8
FC
23
BE
E7
E9
E0
D8
0E
31
0A
2B
13
E5
EB
B5
CF
33
0E
CE
FE
2D
0A
EC
E1
1C
08
11
4E
F8
DE
E3
E3
F3
26
0F
F9
C7
59
E1
07
E5
F8
E6
D9
C4
11
ED
2E
EA
0E
D8
1D
24
F0
06
D4
23
DB
19
F6
EA
F6
CD
31
EA
0D
F4
F9
F8
1E
35
05
C6
07
20
F5
14
EC
38
08
20
EA
F2
0D
B2
05
0A
C9
52
EE
D6
01
07
EC
DB
CD
CA
D5
1B
22
19
FE
19
DE
DB
EA
14
F9
FD
14
24
1E
21
1B
C0
D4
DE
CA
F6
EC
29
FD
25
2B
CB
CB
D0
22
0F
0A
E8
DE
43
15
F6
1B
F5
ED
00
2B
E8
2A
F3
EA
FB
26
22
FD
DD
EE
DC
DE
C9
12
1E
F4
C2
43
0C
00
E9
FA
1A
D6
2A
0C
ED
2A
F8
09
FA
FE
2D
D5
D8
36
1B
23
F0
FD
EF
DE
FF
FC
E5
45
F1
DC
FB
CF
DA
5C
D3
BC
F1
DB
26
C8
18
18
22
25
07
DD
3B
F0
04
25
F3
FD
38
CA
D8
BA
00
FB
F7
E6
06
FC
CB
2C
21
23
1C
DF
F3
9E
0F
FA
24
EF
03
F8
07
05
E2
E7
DD
3D
1F
28
11
28
FF
07
BC
11
2A
E9
F4
E7
15
12
27
E3
EA
1E
F7
E6
E6
07
0C
26
3F
02
E6
AF
00
FE
3A
14
EC
09
C8
C9
05
F8
0F
F4
E1
ED
3E
CB
23
1F
27
1D
19
EA
21
F4
1F
C8
D9
1C
B9
04
FE
F3
32
24
11
3B
EA
21
02
32
E2
DC
F4
E1
44
DE
11
05
D5
F0
E4
DB
0D
E1
04
F4
3D
27
1D
D2
33
06
0D
FB
16
F4
04
BC
20
08
21
12
ED
D6
17
CD
1E
CE
